memory_initialization_radix=16;
memory_initialization_vector=09,
02,
04,
0d,
14,
03,
03,
0d,
14,
04,
06,
05,
05,
06,
18,
08,
02,
1b,
09,
10,
0a,
0c,
15,
0b,
0b,
0c,
03,
04,
14,
1f,
0d,
0a,
21,
10,
22,
11,
03,
04,
0d,
14,
0b,
16,
15,
15,
1e,
16,
1d,
17,
08,
18,
23,
1a,
17,
23,
1d,
16,
1e,
0d,
1f,
10,
21,
11,
34,
22,
33,
25,
1b,
2a,
3c,
2c,
24,
2d,
3e,
2e,
33,
32,
25,
32,
33,
22,
3a,
3b,
34,
3f,
35,
34,
3a,
34,
3b,
2c,
3c,
2e,
3e,
35,
3f;