memory_initialization_radix=16;
memory_initialization_vector=00,
22,
33,
22,
22,
22,
22,
00,
22,
33,
33,
33,
22,
00,
22,
00,
00,
00,
22,
00,
00,
00,
32,
22,
33,
22,
33,
22,
00,
22,
00,
22,
22,
42,
33,
00,
00,
22,
00,
33,
33,
22,
22,
33,
00,
22,
00,
22,
22,
00,
00,
00,
00,
00,
00,
21,
33,
20,
32,
22,
00,
22,
33,
00,
22,
22,
00,
00,
00,
22,
00,
00,
33,
22,
22,
22,
22,
00,
32,
00,
55,
00,
55,
00,
32,
00,
00,
20,
00,
00,
22,
22,
33,
30,
33,
43,
43,
32,
00,
33,
00,
00,
00,
31,
53,
00,
22,
32,
21,
32,
21,
33,
33,
00,
21,
41,
00,
21,
22,
00,
43,
21,
22,
22,
33,
00,
31,
53,
55,
66,
00,
00,
21,
00,
33,
21,
00,
00,
00,
43,
44,
44,
22,
32,
33,
22,
22,
01,
00,
00,
00,
00,
00,
00,
01,
02,
00,
00,
00,
00,
00,
00,
00,
00,
00,
00,
00,
00,
00,
00,
00,
00,
00,
00,
00,
02,
00,
00,
00,
01,
00,
00,
00,
00,
00,
00,
00,
00,
00,
55,
55,
00,
33,
43,
22,
00,
00,
00,
00,
00,
01,
01,
00,
00,
00,
01,
00,
01,
00,
00,
01,
02,
00,
00,
00,
00,
00,
01,
01,
00,
00,
01,
00,
00,
00,
00,
00,
00,
00,
01,
00,
00,
01,
00,
00,
00,
00,
42,
22,
22,
33,
33,
00,
00,
00,
00,
00,
00,
00,
00,
00,
00,
00,
00,
00,
00,
00,
00,
00,
00,
00,
00,
00,
00,
00,
00,
00,
00,
00,
00,
00,
00,
00,
00,
00,
00,
00,
00,
00,
00,
00,
00,
00,
00,
00,
00,
00,
32,
33,
32,
21,
01,
00,
00,
00,
00,
00,
00,
00,
00,
00,
00,
00,
00,
00,
00,
00,
00,
00,
00,
00,
00,
00,
00,
00,
00,
00,
00,
00,
00,
00,
00,
00,
00,
00,
00,
00,
00,
00,
00,
00,
01,
00,
21,
22,
21,
22,
22,
00,
01,
00,
00,
00,
00,
00,
00,
00,
00,
00,
00,
00,
00,
00,
00,
00,
00,
00,
00,
00,
00,
00,
00,
00,
00,
00,
00,
00,
00,
00,
00,
00,
00,
00,
00,
00,
00,
00,
00,
00,
00,
00,
22,
00,
00,
33,
00,
22,
00,
00,
00,
00,
00,
00,
00,
00,
00,
00,
00,
00,
00,
00,
00,
00,
00,
00,
00,
00,
00,
00,
00,
00,
00,
00,
00,
00,
00,
00,
00,
00,
00,
00,
00,
00,
00,
00,
00,
00,
00,
00,
22,
22,
33,
00,
22,
43,
00,
00,
00,
00,
00,
00,
00,
00,
00,
00,
00,
00,
00,
00,
00,
00,
00,
00,
00,
00,
00,
00,
00,
00,
00,
00,
00,
00,
00,
00,
00,
00,
00,
00,
00,
00,
00,
00,
00,
00,
00,
01,
32,
33,
33,
00,
21,
22,
01,
01,
00,
00,
00,
00,
00,
00,
00,
00,
00,
00,
00,
00,
00,
00,
00,
00,
00,
00,
00,
00,
00,
00,
00,
00,
00,
00,
00,
00,
00,
00,
00,
00,
00,
00,
00,
00,
00,
00,
00,
02,
00,
00,
33,
00,
00,
22,
01,
01,
00,
00,
00,
00,
00,
00,
00,
00,
00,
00,
00,
00,
00,
00,
00,
00,
00,
00,
00,
00,
00,
00,
00,
00,
00,
00,
00,
00,
00,
00,
00,
00,
00,
00,
00,
00,
00,
00,
00,
00,
21,
32,
00,
00,
21,
21,
01,
00,
00,
00,
00,
00,
00,
00,
00,
00,
00,
00,
00,
00,
00,
00,
00,
00,
00,
00,
00,
00,
00,
00,
00,
00,
00,
00,
00,
00,
00,
00,
00,
00,
00,
00,
00,
00,
00,
00,
00,
00,
00,
00,
00,
00,
32,
31,
00,
01,
00,
00,
00,
00,
00,
00,
00,
00,
00,
00,
00,
00,
00,
00,
00,
00,
00,
00,
00,
00,
00,
00,
00,
00,
00,
00,
00,
00,
00,
00,
00,
00,
00,
00,
00,
00,
00,
00,
00,
00,
00,
22,
22,
00,
00,
21,
00,
00,
00,
00,
00,
00,
00,
00,
00,
00,
00,
00,
00,
00,
00,
00,
00,
00,
00,
00,
00,
00,
00,
00,
00,
00,
00,
00,
00,
00,
00,
00,
00,
00,
00,
00,
00,
00,
00,
00,
00,
00,
00,
33,
00,
00,
00,
22,
01,
00,
00,
00,
00,
00,
00,
00,
00,
00,
00,
00,
00,
00,
00,
00,
00,
00,
00,
00,
00,
00,
00,
00,
00,
00,
00,
00,
00,
00,
00,
00,
00,
00,
00,
00,
00,
00,
00,
00,
00,
00,
00,
22,
33,
22,
00,
21,
01,
00,
00,
00,
00,
00,
00,
00,
00,
00,
00,
00,
00,
00,
00,
00,
00,
00,
00,
00,
00,
00,
00,
00,
00,
00,
00,
00,
00,
00,
00,
00,
00,
00,
00,
00,
00,
00,
00,
00,
00,
00,
32,
00,
00,
33,
00,
00,
01,
00,
00,
00,
00,
00,
00,
00,
00,
00,
00,
00,
00,
00,
00,
00,
00,
00,
00,
00,
00,
00,
00,
00,
00,
00,
00,
00,
00,
00,
00,
00,
00,
00,
00,
00,
00,
00,
00,
00,
01,
01,
00,
00,
22,
33,
21,
31,
01,
00,
00,
00,
00,
00,
00,
00,
00,
00,
00,
00,
00,
00,
00,
00,
00,
00,
00,
00,
00,
00,
00,
00,
00,
00,
00,
00,
00,
00,
00,
00,
00,
00,
00,
00,
00,
00,
00,
00,
00,
01,
62,
00,
00,
32,
21,
53,
03,
00,
00,
00,
00,
00,
00,
00,
00,
00,
00,
00,
00,
00,
00,
00,
00,
00,
00,
00,
00,
00,
00,
00,
00,
00,
00,
00,
00,
00,
00,
00,
00,
00,
00,
00,
00,
00,
00,
00,
01,
00,
22,
00,
22,
00,
00,
64,
01,
00,
00,
00,
00,
00,
00,
00,
00,
00,
00,
00,
00,
00,
00,
00,
00,
00,
00,
00,
00,
00,
00,
00,
00,
00,
00,
00,
00,
00,
00,
00,
00,
00,
00,
00,
00,
00,
00,
00,
00,
00,
22,
00,
00,
00,
22,
64,
00,
00,
00,
00,
00,
00,
00,
00,
00,
00,
00,
00,
00,
00,
00,
00,
00,
00,
00,
00,
00,
00,
00,
00,
00,
00,
00,
00,
00,
00,
00,
00,
00,
00,
00,
00,
00,
00,
00,
00,
01,
00,
00,
22,
00,
22,
21,
52,
02,
00,
00,
00,
00,
00,
00,
00,
00,
00,
00,
00,
00,
00,
00,
00,
00,
00,
00,
00,
00,
00,
00,
00,
00,
00,
00,
00,
00,
00,
00,
00,
00,
00,
00,
00,
00,
00,
00,
00,
00,
00,
00,
00,
00,
22,
00,
21,
01,
01,
00,
00,
00,
00,
00,
00,
00,
00,
00,
00,
00,
00,
00,
00,
00,
00,
00,
00,
00,
00,
00,
00,
00,
00,
00,
00,
00,
00,
00,
00,
00,
00,
00,
00,
00,
00,
00,
00,
00,
00,
31,
20,
00,
33,
00,
22,
01,
00,
00,
00,
00,
00,
00,
00,
00,
00,
00,
00,
00,
00,
00,
00,
00,
00,
00,
00,
00,
00,
00,
00,
00,
00,
00,
00,
00,
00,
00,
00,
00,
00,
00,
00,
00,
00,
00,
00,
00,
01,
00,
00,
00,
22,
00,
41,
01,
01,
00,
00,
00,
00,
00,
00,
00,
00,
00,
00,
00,
00,
00,
00,
00,
00,
00,
00,
00,
00,
00,
00,
00,
00,
00,
00,
00,
00,
00,
00,
00,
00,
00,
00,
00,
00,
00,
00,
00,
00,
21,
00,
00,
22,
00,
21,
01,
00,
00,
00,
00,
00,
00,
00,
00,
00,
00,
00,
00,
00,
00,
00,
00,
00,
00,
00,
00,
00,
00,
00,
00,
00,
00,
00,
00,
00,
00,
00,
00,
00,
00,
00,
00,
00,
00,
00,
00,
02,
32,
32,
00,
00,
00,
00,
00,
00,
00,
00,
00,
00,
00,
00,
00,
00,
00,
00,
00,
00,
00,
00,
00,
00,
00,
00,
00,
00,
00,
00,
00,
00,
00,
00,
00,
00,
00,
00,
00,
00,
00,
00,
00,
00,
00,
00,
00,
00,
20,
00,
00,
00,
22,
00,
00,
00,
00,
00,
00,
00,
00,
00,
00,
00,
00,
00,
00,
00,
00,
00,
00,
00,
00,
00,
00,
00,
00,
00,
00,
00,
00,
00,
00,
00,
00,
00,
00,
00,
00,
00,
00,
00,
00,
00,
00,
00,
00,
00,
00,
22,
00,
33,
00,
00,
00,
00,
00,
00,
00,
00,
00,
00,
00,
00,
00,
00,
00,
00,
00,
00,
00,
00,
00,
00,
00,
00,
00,
00,
00,
00,
00,
00,
00,
00,
00,
00,
00,
00,
00,
00,
00,
00,
00,
00,
00,
00,
00,
00,
33,
00,
01,
00,
00,
00,
00,
00,
00,
00,
00,
00,
00,
00,
00,
00,
00,
00,
00,
00,
00,
00,
00,
00,
00,
00,
00,
00,
00,
00,
00,
00,
00,
00,
00,
00,
00,
00,
00,
00,
00,
00,
00,
00,
00,
00,
00,
22,
21,
33,
00,
00,
00,
00,
00,
00,
00,
00,
00,
00,
00,
00,
00,
00,
00,
00,
00,
00,
00,
00,
00,
00,
00,
00,
00,
00,
00,
00,
00,
00,
00,
00,
00,
00,
00,
00,
00,
00,
00,
00,
00,
01,
22,
00,
00,
22,
00,
00,
00,
00,
00,
00,
00,
00,
00,
00,
00,
00,
00,
00,
00,
00,
00,
00,
00,
00,
00,
00,
00,
00,
00,
00,
00,
00,
00,
00,
00,
00,
00,
00,
00,
00,
00,
00,
00,
00,
00,
00,
00,
01,
22,
32,
22,
33,
33,
43,
03,
00,
00,
00,
00,
00,
00,
00,
00,
00,
00,
00,
00,
00,
00,
00,
00,
00,
00,
00,
00,
00,
00,
00,
00,
00,
00,
00,
00,
00,
00,
00,
00,
00,
00,
00,
00,
00,
00,
00,
00,
00,
43,
43,
22,
33,
33,
42,
01,
00,
00,
00,
00,
00,
00,
00,
00,
00,
00,
00,
00,
00,
00,
00,
00,
00,
00,
00,
00,
00,
00,
00,
00,
00,
00,
00,
00,
00,
00,
00,
00,
00,
00,
00,
00,
00,
00,
00,
00,
00,
22,
22,
55,
22,
33,
43,
00,
00,
00,
00,
00,
00,
00,
00,
00,
00,
00,
00,
00,
00,
00,
00,
00,
00,
00,
00,
00,
00,
00,
00,
00,
00,
00,
00,
00,
00,
00,
00,
00,
00,
00,
00,
00,
00,
00,
00,
01,
01,
22,
22,
44,
22,
22,
31,
00,
01,
00,
00,
00,
00,
00,
00,
00,
00,
00,
00,
00,
00,
00,
00,
00,
00,
00,
00,
00,
00,
00,
00,
00,
00,
00,
00,
00,
00,
00,
00,
00,
00,
00,
00,
00,
00,
00,
00,
00,
02,
33,
32,
00,
00,
22,
21,
00,
00,
00,
00,
00,
00,
00,
00,
00,
00,
00,
00,
00,
00,
00,
00,
00,
00,
00,
00,
00,
00,
00,
00,
00,
00,
00,
00,
00,
00,
00,
00,
00,
00,
00,
00,
00,
00,
00,
00,
00,
01,
41,
31,
00,
00,
22,
00,
00,
00,
00,
00,
00,
00,
00,
00,
00,
00,
00,
00,
00,
00,
00,
00,
00,
00,
00,
00,
00,
00,
00,
00,
00,
00,
00,
00,
00,
00,
00,
00,
00,
00,
00,
00,
00,
00,
00,
00,
01,
02,
32,
00,
43,
00,
32,
21,
01,
02,
00,
00,
00,
00,
00,
00,
00,
00,
00,
00,
00,
00,
00,
00,
00,
00,
00,
00,
00,
00,
00,
00,
00,
00,
00,
00,
00,
00,
00,
00,
00,
00,
00,
00,
00,
00,
00,
00,
01,
00,
22,
22,
00,
63,
44,
42,
02,
00,
00,
00,
00,
00,
00,
00,
00,
00,
00,
00,
00,
00,
00,
00,
00,
00,
00,
00,
00,
00,
00,
00,
00,
00,
00,
00,
00,
00,
00,
00,
00,
00,
00,
00,
00,
00,
00,
00,
00,
00,
52,
32,
42,
00,
55,
55,
00,
00,
00,
00,
00,
00,
00,
00,
00,
00,
00,
00,
00,
00,
00,
00,
00,
00,
00,
00,
00,
00,
00,
00,
00,
00,
00,
00,
00,
00,
00,
00,
00,
00,
00,
00,
00,
00,
00,
00,
01,
02,
42,
22,
22,
22,
00,
43,
00,
00,
00,
00,
00,
00,
00,
00,
00,
00,
00,
00,
00,
00,
00,
00,
00,
00,
00,
00,
00,
00,
00,
00,
00,
00,
00,
00,
00,
00,
00,
00,
00,
00,
00,
00,
00,
00,
00,
00,
00,
00,
53,
53,
44,
22,
43,
33,
01,
00,
00,
00,
00,
00,
00,
00,
00,
00,
00,
02,
00,
01,
00,
00,
00,
00,
01,
00,
00,
00,
00,
00,
00,
00,
00,
00,
00,
00,
01,
00,
00,
00,
00,
00,
00,
00,
00,
02,
22,
24,
75,
64,
65,
22,
43,
54,
00,
00,
02,
01,
00,
00,
00,
01,
01,
00,
00,
01,
01,
00,
01,
00,
01,
00,
00,
00,
00,
00,
00,
00,
00,
03,
02,
00,
01,
01,
01,
00,
02,
00,
01,
01,
03,
04,
03,
03,
03,
01,
96,
a7,
76,
22,
44,
22,
22,
22,
21,
32,
22,
00,
44,
44,
00,
32,
33,
54,
32,
41,
21,
42,
33,
21,
22,
54,
00,
00,
33,
53,
22,
22,
32,
00,
21,
22,
31,
32,
42,
00,
00,
73,
52,
84,
92,
64,
66,
86,
98,
98,
65,
22,
00,
33,
33,
22,
00,
32,
00,
21,
00,
44,
31,
43,
00,
00,
32,
22,
33,
43,
44,
00,
22,
00,
44,
44,
00,
33,
33,
65,
32,
32,
00,
21,
33,
00,
22,
00,
00,
22,
33,
85,
63,
53,
43,
51,
75,
74,
77,
22,
00,
00,
00,
22,
00,
00,
00,
00,
22,
44,
00,
22,
00,
22,
00,
00,
00,
44,
43,
00,
33,
00,
22,
22,
00,
33,
22,
22,
33,
33,
00,
00,
00,
00,
00,
33,
00,
22,
22,
00,
33,
55,
54,
87,
55,
22,
22;
