memory_initialization_radix=16;
memory_initialization_vector=3f000000,
3f000000,
3eee8416,
3f000000,
3efff0df,
3f000000,
3efffffe,
3eee8416,
3f000000,
3f000000,
3f000000,
3f000000,
3f000000,
3f000000,
3eaaaaab,
3f000000,
3eaaaaab,
3efff0df,
3eff3cc4,
3eee8416,
3ac68661,
3eaaaaab,
3efff0df,
3f000000,
397226ed,
3f000000,
3f000000,
3f000000,
3f000000,
3f000000,
3f000000,
3f000000,
3f000000,
3f000000,
3effffe8,
3286628c,
3bb8a3f8,
3f000000,
3efe8eb8,
35b94589,
3f000000,
3f000000,
3f000000,
3f000000,
3f000000,
3eaaaaab,
3f000000,
3f000000,
3f000000,
3eaaaaab,
3f000000,
3eaa063b,
3f000000,
3eaaaaab,
3543628b,
3f000000,
3d186dac,
3eaaaaab,
3795c9b6,
3795c9b6,
3eaaaaab,
3efffed4,
3efffed4,
3f000000,
3f000000,
3f000000,
3f000000,
3efffffe,
3ace2f9f,
3eaaaaab,
3f000000,
3f000000,
3f000000,
3f000000,
3f000000,
3f000000,
35b94589,
3eff3cc4,
3eee8416,
3d183292,
3ef67925,
3ef67925,
3f000000,
3f000000,
3f000000,
3efffdc9,
3efffdc9,
3bb8a3f8,
3eff3cc4,
3f000000,
3f000000,
3f000000,
3f000000,
3f000000,
3f000000,
3effffe8,
3f000000,
3efe8eb8,
3f000000,
3f000000,
3f000000,
3d8bdf57,
3f000000,
3f000000,
3f000000,
3eaaaaab,
3f000000,
3f000000,
3eaaaaab,
3effffdc,
3371498b,
3ef5f93c,
3370e887,
3286628c,
3543628b,
3eff98e8,
3ca06c36,
3eff3222,
3f000000,
3ef67925,
3f000000,
3f000000,
3f000000,
3f000000,
3eaaaaab,
3371aadc,
3371aadc,
3efff0df,
3f000000,
3effffe8,
3efff0df,
3f000000,
35b94589,
3d8bdf57,
3efff0df,
397226ed,
3f000000,
3efff0df,
3f000000,
3efffffe,
3f000000,
3effffe8,
3b433d26,
3d8bdf57,
3ef61994,
3f000000,
3f000000,
3ef67925,
3ef67925,
3f000000,
3f000000,
3efffdc9,
3f000000,
380e0860,
3efe8eb8,
3b433d26,
3efffdc9,
3efe8eb8,
3eff3cc4,
3f000000,
3f000000,
3f000000,
3f000000,
3f000000,
3286628c,
3f000000,
3eee8416,
3f000000,
3f000000,
3f000000,
3f000000,
3f000000,
3f000000,
3f000000,
3eaaaaab,
3efffdc9,
3f000000,
3eaa063b,
3acddcc9,
3effffdc,
3ace2fb1,
3232816c,
3ef5f93c,
3acddcc9,
3286628c,
3543628b,
3eff98e8,
3eaa063b,
3ca06c36,
3eff3222,
3f000000,
3eaaaaab,
3efffed4,
3efffed4,
3f000000,
33e528a8,
3eff98d2,
3eff3224,
3eff98d2,
3eff3224,
3371aadc,
3371aadc,
3efffffe,
35b8faee,
3eaaaaab,
3f000000,
3eaaaaab,
3f000000,
397226ed,
3effffe8,
3eff98ea,
3eff98ea,
3eaaaaab,
33e528a8,
3f000000,
3f000000,
3f000000,
3efae2f0,
3f000000,
3d186dac,
3d186dac,
380e0860,
3b76a68f,
3ef67925,
3eaaaaab,
3acddccb,
3efffffe,
3efffffe,
3286628b,
3eaaaaab,
3acddccb,
3efffffe,
3efffffe,
3286628b,
397226ed,
3f000000,
3efff0df,
3efae2f0,
3ace2fb2,
3543629c,
3f000000,
3f000000,
3effffe8,
3ef61994,
380e0860,
3f000000,
3f000000,
3f000000,
3f000000,
3eee8416,
3f000000,
3efffdc9,
3f000000,
3f000000,
3effffff,
3f000000,
3f000000,
3f000000,
3f000000,
3f000000,
3eff98ea,
3eff98ea,
3eaaaaab,
3ace2fb2,
3ace2fb2,
3eaaaaab,
3effffe8,
3f000000,
3ca3a07b,
3eff98ea,
3f000000,
353f7b8b,
3efffff3,
3f000000,
3f000000,
3f000000,
3f000000,
3effffff,
3f000000,
35b94589,
3eff98ea,
3f000000,
3f000000,
3bb8a321,
3efffff3,
3effffe8,
3f000000,
3eff98e9,
3f000000,
3f000000,
3eff98e9,
3f000000,
3f000000,
3f000000,
3f000000,
3f000000,
3efae2fb,
3d8bdf57,
3b433d26,
3ace2fb2,
3f000000,
3f000000,
3efe8d8f,
3f000000,
3f000000,
3efe8eb8,
3bb8a3f8,
3efae2fb,
3eee8416,
3eff3cc4,
3ca3a082,
3eee8416,
3eff3cc4,
3f000000,
3efe8d8f,
3f000000,
3f000000,
3794f1a5,
3efe8eb8,
3bb8a3f8,
3bb8a3f8,
3efe8eb8,
3efe8eb8,
3f000000,
3795c9b7,
3efffed5,
3f000000,
3f000000,
3efe8eb8,
3efe8eb8,
3f000000,
3f000000,
3f000000,
3f000000,
3efffed5,
3f000000,
3f000000,
3f000000,
3effffe8,
3f000000,
3f000000,
3f000000,
3f000000,
3effffe8,
3286628c,
3f000000,
3f000000,
3f000000,
3f000000,
3f000000,
35b94589,
3f000000,
3efffed5,
3f000000,
3f000000,
3f000000,
3f000000,
3f000000,
3efffed5,
3f000000,
3efffffe,
39e59201,
3ea860f6,
3e910636,
3e18f0be,
3f000000,
3e910636,
3f000000,
3efffffe,
3effe34e,
3f000000,
3f000000,
3f000000,
3795c9b7,
3f000000,
3e910636,
33e528a8,
3effe34e,
3f000000,
3ea860f6,
3d8b7bed,
3efe8c68,
3f000000,
350082be,
3b35f10e,
3a69fa42,
3f000000,
3f000000,
3f000000,
3f000000,
3286628c,
3ea860f6,
3eedda91,
3794f0f9,
3f000000,
3f000000,
3f000000,
3f000000,
3f000000,
3c5ba1ac,
33d4ea4c,
3efe8c68,
3f000000,
3f000000,
3f000000,
3f000000,
3f000000,
3f000000,
32859f7b,
3eee8416,
3efffdc9,
3eedda91,
3bb8a24b,
3794f0f9,
3f000000,
3f000000,
399911b9,
3d8bdf57,
3f000000,
3eee8416,
3efffdc9,
3f000000,
3f000000,
3f000000,
3f000000,
3f000000,
380e0860,
3f000000,
3eaa9de9,
3f000000,
3eaa9de9,
3f000000,
3f000000,
3f000000,
3f000000,
3eaa9de9,
3b433d26,
380e0860,
3eff3cc4,
3efffdc9,
3eff3cc4,
3efffdc9,
3f000000,
3f000000,
3f000000,
3f000000,
3f000000,
3eaaaaab,
3f000000,
3371aade,
3eaaaaab,
3371aade,
3f000000,
3f000000,
3b433d26,
3f000000,
3f000000,
3eaaaaab,
3f000000,
3286628c,
3f000000,
3f000000,
3f000000,
3eaaaaab,
3effe1bd,
3f000000,
33714871,
3f000000,
3efffed5,
3f000000,
3f000000,
3f000000,
3eff3cc4,
3f000000,
3efffffe,
3ace2fb2,
3efffdc9,
3eff3cc4,
328661ef,
3eee8412,
3b433d26,
3efffed5,
3d8bdf55,
3effe1bd,
37958d64,
37958d65,
3f000000,
3efffed5,
3f000000,
3795c9b7,
3f000000,
3f000000,
3eaaaaab,
3f000000,
33e528a8,
3eff98e9,
380e0860,
3efffed5,
33d58208,
3eee8416,
3f000000,
3f000000,
3f000000,
3f000000,
3f000000,
3972189d,
3eff97bd,
3eff97bf,
3eaaaaab,
3eff3cc4,
3f000000,
3efffffe,
3eff98e9,
3efffdc9,
3eff3cc4,
3795c9b7,
3eee8412,
3ca3a082,
328661ef,
3f000000,
3f000000,
3f000000,
3f000000,
3972189d,
3eff97bd,
3eff97bf,
3eaaaaab,
3eaaaaab,
3f000000,
3f000000,
3f000000,
3eee8416,
3d8bdf57,
3eaaaaab,
397226ed,
3ace2ebf,
3ace2ec1,
3eaaaaab,
3eaaaaab,
3efff0df,
3f000000,
3f000000,
3f000000,
3efae2fb,
3efae2fb,
3effffe8,
3f000000,
3bb8a3f8,
3368ac8e,
3effffe8,
3eaaaaab,
3eaaaaab,
3efff0df,
35b94589,
3f000000,
3ef67925,
3eee8416,
3efad473,
3f000000,
3f000000,
3f000000,
396d50ff,
3d186dac,
3f000000,
3f000000,
3f000000,
3f000000,
3f000000,
3efe8eb8,
3c9d576e,
3285a0b2,
3eff98ea,
3eff98e8,
3c9d576e,
3d8bdf57,
3efad473,
3eee8416,
3ca39708,
3f000000,
3ef67925,
3eaaaaab,
3f000000,
3eaaaaab,
3f000000,
3285a0b2,
3eff98ea,
3eff98e8,
3c9d576e,
3543629c,
3efe8eb8,
3ace2fb2,
3ace2fb1,
3ef13fce,
3efffff3,
3d3e79b0,
3e55a4c1,
3e55a4c1,
3f000000,
3effe1bd,
3f000000,
3f000000,
3f000000,
3f000000,
3f000000,
3f000000,
3285a0b2,
3f000000,
3efffdc9,
3eca95e2,
3eca95e2,
3972189d,
3eca95e2,
3eca95e2,
3972189d,
3f000000,
376d12cf,
376d12cf,
3effe1bd,
3f000000,
3f000000,
3371498b,
3ef13fce,
3efffff3,
3eaaaaab,
333f3f02,
333f3f02,
3f000000,
3eaaaaab,
3f000000,
3285a0b2,
3f000000,
3f000000,
380cc557,
3b2a55cc,
3306f009,
3d829609,
3ca06c30,
37274641,
3ea2b61e,
3371a9c3,
3ea2672d,
3e76f1e1,
3e9b308a,
3b34ecf8,
38039883,
3ef5f932,
3ca06c30,
3d3ed646,
33d44ffb,
3ca06c30,
3ef5f932,
3391a6c1,
3b34ecf8,
3d8b16d5,
3f000000,
3f000000,
3f000000,
3efffdc9,
3eff98e9,
3eaaaaab,
3eca969e,
3eca969e,
3eaaaaab,
3eaaaaab,
3eca969e,
3f000000,
3efffed4,
3795c9b6,
3972189b,
3eff3cc4,
3effc6a2,
3efe8eb8,
3e4f4e39,
3eedd6bc,
3bb8a3f8,
380e0860,
33e528a8,
3f000000,
3f000000,
3efffed4,
3795c9b6,
3efffda9,
3795c908,
3b421370,
33685257,
3efffdc9,
3c5b9919,
3ef61994,
3b421370,
37f719fb,
3ea85a63,
3eaa05b7,
3eaaa9ae,
3d8bdf56,
33c75537,
3eaa05b7,
3efffb90,
3d829609,
323280e2,
380e0725,
380e0725,
3e8ef0bc,
3391a6c1,
3e8ef11a,
3e2c6730,
3e2c6730,
3e9b77d1,
3ef5f932,
353bbb9a,
3306f009,
3ea2b61e,
3306f061,
3eff3cc0,
37ac8496,
3e8ef0bc,
3391a6c1,
3e8ef11a,
3e2c6730,
3e2c6730,
3e9b77d1,
3f000000,
3f000000,
3eaaaaab,
3eca969e,
3eca969e,
3eaaaaab,
3f000000,
3f000000,
3f000000,
3f000000,
3f000000,
3ace2fb2,
3f000000,
3eaaaaab,
3e55a588,
3f000000,
3f000000,
3eff3224,
3eaaaaab,
3eff3224,
3eaaaaab,
3acddccb,
3eaaaaab,
3acddccb,
32332e10,
3eaaaaab,
3f000000,
3efff0df,
3972189b,
3eaaaaab,
397226ed,
3effe1bc,
39e57848,
3eaaaaab,
3f000000,
3eaaaaab,
3effc6a2,
39e57848,
3efe8eb8,
3f000000,
3eaaaaab,
3eaaaaab,
3f000000,
3f000000,
3f000000,
3eff320e,
3f000000,
3eff320e,
333f3f02,
3371aade,
3eaaaaab,
3f000000,
3f000000,
3ec49355,
3eca969e,
3d8b79ae,
3f000000,
3f000000,
3f000000,
3f000000,
3efffdc9,
3efffffe,
3f000000,
3f000000,
3efffff3,
3efffed4,
3f000000,
39e59201,
3efffda9,
3effe34e,
3ef61994,
3b421370,
3ea85a63,
3efffdc9,
391f4875,
3ac68661,
3efdb790,
3edeae37,
35007dba,
3efdb790,
3edeae37,
3efffed4,
33e528a5,
380e0725,
3eff2fce,
3ea2672d,
3e76f1e1,
3d3603da,
38033b82,
3eff3cc4,
3eaa52d3,
3ea2672d,
3d10d0bb,
3e9b308a,
3d8ab489,
3b356d30,
3eaa52d3,
3af8743f,
3ca06c30,
3789036f,
3d3603da,
3eec868e,
3eed2e2d,
37955094,
3b024922,
37b436a6,
353bbb9a,
3ef5f932,
3aed6b27,
3eec868e,
3eed2e2d,
3acddae8,
37bd00aa,
3e16be25,
3e16be87,
3ea37ac5,
3ea37ac5,
3d365772,
3f000000,
3f000000,
380e0860,
3f000000,
3eff98e9,
3e55a588,
3e55a588,
3eaaaaab,
3f000000,
3f000000,
3eaaaaab,
3eca969e,
3f000000,
3eff3224,
3eaaaaab,
3eff3224,
3eaaaaab,
3efffed4,
3efff0df,
3effe1bc,
3eaaaaab,
3eff3cc4,
3f000000,
3bb8a3f8,
3f000000,
3371aade,
3eaaaaab,
3eaaaaab,
3efff0df,
39217277,
3eaaa3f0,
397226ed,
3eaaa3f1,
3eaaa3f0,
3efff0df,
3eaaaaab,
3f000000,
3acddcb9,
3eca969e,
3e55a588,
3f000000,
35b8b08e,
3ec49355,
3e55a588,
3eca969e,
3efae2fb,
3b433d26,
3d8bdf57,
3ca3a082,
3eff3cc4,
3eee8416,
3cf323b8,
3eedd6bc,
3efe8eb8,
3795c9b6,
3795c9b6,
3b35ee20,
3efe8eb8,
3efffdc9,
3efffffe,
3f000000,
3f000000,
3efffff3,
3f000000,
3543629c,
3f000000,
3f000000,
3eff98ea,
3f000000,
3eff98ea,
3b433d26,
3d183292,
380e0860,
33e31d82,
3ea85a63,
33e528a5,
3eaa05b7,
37bd610c,
33d58209,
3b76a5cf,
3eaaa9ae,
3eee8414,
3746f77f,
3eaaa9ae,
3eee8414,
3efffb90,
3e16be25,
3e16be87,
3ea37ac5,
3ea37ac5,
3d365772,
3ea2b61e,
3eff3cc0,
338b2ae0,
3acddae8,
3e16be25,
37b48e3f,
3e16be87,
3cca3437,
3cca3437,
33e479e3,
3e9b77d1,
3f000000,
3f000000,
3f000000,
3f000000,
3f000000,
3f000000,
3acddccb,
32332e10,
3acddccb,
3eaaaaab,
3eaaaaab,
3f000000,
3b433d26,
3f000000,
3efff0df,
3eaaa3f1,
3eaaa3f0,
397226ed,
3eaaa3f1,
39217276,
3efff0df,
3acddcb9,
3eca969e,
3f000000,
3eaaaaab,
3f000000,
3eaaaaab,
3f000000,
3efae2fb,
3eff3cc4,
3eee8416,
3f000000,
3f000000,
3f000000,
3f000000,
3803f609,
3efffed4,
3efffed4,
3803f609,
3efffed4,
3efffed4,
3286628c,
3795c908,
3effe34e,
3f000000,
3f000000,
3f000000,
3f000000,
3e76f1e1,
3ace2fb2,
3eff3cc4,
3371a9c3,
35007dba,
3efffffa,
3efffb90,
3370e654,
3795c9b6,
3efffffa,
3efffb90,
37955094,
3efffed4,
38033b82,
3b356d30,
3b433d23,
33e528a5,
380e0725,
3eff2fce,
3e76f1e1,
3e9b308a,
3b34ecf8,
38039883,
3eaa52d3,
3f000000,
3f000000,
3f000000,
3f000000;