memory_initialization_radix=16;
memory_initialization_vector=3f000000,
3f000000,
3effffe8,
3972189d,
35b94589,
3eaaaaab,
35b8faee,
3effe1bd,
3effe1bd,
3eff98d2,
3795c908,
3972189d,
3f000000,
3f000000,
3f000000,
3f000000,
3f000000,
380d9c0e,
3f000000,
3eff3a8e,
3efe8eb8,
3efffdc9,
3b433b75,
3efe8eb8,
380e0860,
3eff3a8e,
3bb8a3f8,
3efffdc9,
3effffe8,
3f000000,
35b94589,
35b94589,
3f000000,
3f000000,
3795c908,
3effffe8,
3eaaaaab,
3effe1bd,
3972189d,
3ace2f9f,
3f000000,
3efffda9,
3f000000,
3f000000,
3f000000,
3f000000,
3effffe8,
3f000000,
3effffe8,
3f000000,
3f000000,
3efffed5,
3f000000,
3f000000,
3f000000,
3f000000,
3f000000,
3f000000,
3eaaaaab,
3eff98d2,
3972189d,
3effe1bd,
3efffda9,
3f000000,
3efae2fb,
3f000000,
3ca3a082,
3f000000,
3f000000,
3f000000,
3f000000,
3f000000,
3f000000,
3effffe8,
3f000000,
3f000000,
3f000000,
3efe8d8f,
3efffed5,
3f000000,
3f000000,
3efae2fb,
3f000000,
3f000000,
3efe8d8f,
3794f1a5,
3bb8a321,
3f000000,
3f000000,
3795c9b7,
3f000000,
3f000000,
3f000000,
3f000000,
3efffed5,
3543629c,
3f000000,
3f000000,
3286628c,
3eaaaaab,
3795c9b7,
3efffff3,
3f000000,
3f000000,
3f000000,
3efffed5,
3f000000,
3286628c,
3f000000,
3eaaaaab,
3f000000,
3f000000,
3eaaaaab,
3efffff3,
3f000000,
3f000000,
3f000000,
3f000000,
3f000000,
3f000000,
3f000000,
3f000000,
3f000000,
3f000000,
3f000000,
3f000000,
3bb8a3f8,
3f000000,
3efe8eb8,
3f000000,
3f000000,
3f000000,
3f000000,
3f000000,
3f000000,
3f000000,
3f000000,
3efe8eb8,
3795c908,
3f000000,
3efffdc9,
39e59201,
3f000000,
3effe34e,
3795c908,
3f000000,
3efffdc9,
3f000000,
3efffda9,
3f000000,
3f000000,
3f000000,
3f000000,
3effe34e,
3f000000,
3f000000,
3efffda9,
3f000000,
3f000000,
3f000000,
3f000000,
3f000000,
380e0860,
3f000000,
3f000000,
3f000000,
3f000000,
3f000000,
3795c9b7,
3f000000,
3efffed5,
3eee8416,
3f000000,
3efffed5,
3eee8416,
3efae2e5,
3f000000,
3efffdc9,
3efffff3,
353f7b82,
3efae2fb,
3f000000,
3efffdc9,
3f000000,
3d8bdf57,
3543629c,
3efae2e5,
3ca3a082,
3f000000,
3f000000,
3f000000,
3f000000,
3eff98e9,
3efffff3,
3ca3a074,
3efae2fb,
3f000000,
3ace2fb2,
3f000000,
3f000000,
353f7b82,
3f000000,
3f000000,
3f000000,
380e0860,
3f000000,
3f000000,
3f000000,
3eff98e9,
3f000000,
3f000000,
3f000000,
3f000000,
3f000000,
3f000000,
3f000000,
3f000000,
3f000000,
3f000000,
3f000000,
3f000000,
3f000000,
3f000000,
3f000000,
3f000000,
3f000000,
3f000000,
3f000000,
3f000000,
3f000000,
3f000000,
3f000000,
3f000000,
3371aade,
3f000000,
3f000000,
3f000000,
3f000000,
3f000000,
3f000000,
3f000000,
3f000000,
3f000000,
3acddcb8,
3ac387b4,
3acddcb8,
3efffb8e,
3f000000,
3f000000,
35b8b08d,
33e524b0,
3e7f9e3c,
3eff3cc4,
3f000000,
3f000000,
3f000000,
3f000000,
3f000000,
3f000000,
3f000000,
3f000000,
3f000000,
3eff320c,
380e0724,
3f000000,
3eff320c,
3efffb8e,
3f000000,
3e7f9e3c,
3eedda91,
3eee8416,
3f000000,
3f000000,
3f000000,
3f000000,
3f000000,
3f000000,
3f000000,
3f000000,
3f000000,
3f000000,
3f000000,
3f000000,
3f000000,
3f000000,
3effe34e,
3f000000,
3effe34e,
3eff3cc4,
3b35f10e,
3f000000,
3f000000,
3f000000,
3f000000,
3f000000,
3f000000,
3f000000,
3f000000,
3f000000,
3f000000,
3f000000,
3f000000,
3f000000,
3f000000,
3f000000,
3f000000,
3f000000,
3f000000,
3f000000,
3f000000,
3f000000,
3f000000,
39e59201,
3e7f9e3c,
3b433d26,
3eedda91,
3d8bdf57,
3f000000,
3f000000,
3e7f9e3c,
3d8b7bed,
3eee8416,
380e0724,
3f000000,
3f000000,
3f000000,
3f000000,
3f000000,
3f000000,
3f000000,
3f000000,
3f000000;