memory_initialization_radix=16;
memory_initialization_vector=003,
063,
010,
041,
010,
011,
012,
041,
071,
012,
042,
071,
013,
014,
013,
014,
016,
017,
016,
017,
018,
019,
017,
018,
019,
017,
018,
019,
01b,
07d,
01b,
04d,
03a,
040,
042,
010,
011,
041,
071,
012,
040,
042,
073,
043,
045,
04b,
04d,
04b,
04d,
060,
0c1,
062,
003,
063,
069,
06b,
069,
06b,
011,
012,
041,
071,
042,
073,
076,
078,
076,
078,
079,
07a,
079,
07a,
07b,
01b,
07d,
081,
082,
083,
062,
03a,
043,
076,
045,
07b,
083,
083,
083,
060,
0c1,
062,
081,
082,
0ef,
14e,
0f0,
121,
151,
11d,
17d,
17e,
0f0,
121,
181,
0ef,
14e,
0f0,
151,
11d,
17d,
17e,
11d,
17d,
17e,
121,
181,
1ad,
20d,
1e2,
210,
1ad,
20d,
1e2,
210,
211,
272,
240,
2a0,
270,
2a0,
211,
272,
29d,
29e,
29d,
29e,
240,
270,
2a0,
2fe,
2cd,
2fd,
301,
2d2,
301,
2fe,
2cd,
2fd,
35d,
2fe,
32d,
300,
302,
2d2,
301,
300,
302,
2fe,
32d,
330,
331,
330,
331,
2fd,
35d,
38d,
3bd,
38d,
3bd,
3f2,
3ed,
3f2,
482,
3ed,
3f2,
482,
4e2,
4b1,
4e1,
4b2,
4e2,
511,
4b1,
4e1,
542,
482,
4b2,
4e2,
511,
540,
50f,
53f,
510,
570,
4b2,
4e2,
511,
512,
570,
50f,
53f,
4e2,
540,
541,
571,
4e1,
542,
510,
512,
570,
541,
571,
68e,
68f,
68e,
68f,
690,
6c2,
692,
6c0,
692,
6c0,
6c1,
6f0,
690,
6c2,
6c1,
6f0,
6f1,
720,
752,
6f1,
720,
752,
7b2,
780,
781,
780,
781,
7b2,
7b2,
7e2,
873,
889,
888,
88b,
888,
88a,
7e2,
8a3,
888,
88a,
88b,
8b8,
88d,
893,
873,
874,
8a4,
884,
886,
884,
886,
888,
88a,
889,
888,
88a,
8ec,
88b,
8e9,
8eb,
88d,
88f,
8bd,
893,
8a1,
8d1,
8a3,
874,
8a4,
8a9,
8db,
8b3,
8e4,
8b5,
8b7,
8b5,
8b7,
8b8,
8e9,
8ba,
8ea,
88f,
8bd,
8c9,
8ca,
8c9,
8ca,
8cc,
8ce,
8cc,
8ce,
8a1,
8d1,
8d4,
8d5,
8d4,
8d5,
8a9,
8db,
8b3,
8e4,
8b7,
88b,
8b8,
8e9,
8eb,
8ba,
8ea,
88b,
8e9,
8eb,
88a,
8ec,
8ed,
8ee,
8ed,
8ee,
8f7,
8f8,
8f7,
8f8;