memory_initialization_radix=16;
memory_initialization_vector=00f,
00d,
00d,
00f,
015,
014,
014,
015,
07a,
01a,
020,
01f,
01f,
020,
054,
023,
053,
024,
05b,
029,
048,
046,
048,
047,
046,
047,
048,
04c,
04a,
04a,
04c,
080,
050,
024,
053,
023,
054,
0b9,
058,
08a,
059,
029,
05b,
08c,
05c,
062,
091,
061,
061,
091,
062,
095,
065,
0a1,
071,
0d2,
072,
0d4,
074,
076,
075,
075,
076,
0da,
078,
01a,
07a,
0ad,
07b,
050,
080,
0e1,
0e3,
083,
086,
085,
085,
086,
059,
08a,
05c,
08c,
0c1,
090,
061,
062,
091,
090,
0c1,
0f2,
120,
0c2,
0c2,
120,
0f2,
0c2,
0f2,
120,
11c,
17e,
1b3,
212,
271,
240,
2a2,
270,
240,
271,
213,
272,
270,
2a2,
2ff,
32f,
2ce,
32e,
2fe,
2ce,
32f,
2ff,
2fc,
38b,
32d,
2fe,
32e,
2ce,
2ff,
32f,
362,
332,
35b,
35d,
38f,
35f,
3c0,
3c2,
360,
332,
362,
3eb,
38d,
35f,
38f,
3bb,
3bc,
3bd,
360,
3c2,
3c0,
360,
3c0,
3c2,
3ef,
44f,
3ee,
3ee,
44f,
3ef,
3c4,
450,
480,
422,
47d,
44d,
3ee,
3ef,
44f,
422,
450,
44d,
47d,
4ad,
47e,
422,
480,
47e,
4ad,
4df,
4af,
4af,
4df,
59c,
59e,
68e,
62e,
62c,
65c,
68d,
65d,
690,
660,
6c3,
661,
62c,
65c,
65d,
68d,
62e,
68e,
660,
6f2,
690,
6ed,
6bd,
721,
6c0,
6bd,
6ed,
690,
722,
6f2,
74d,
71d,
74f,
71f,
6c0,
721,
6f2,
722,
71c,
71d,
74d,
77e,
74e,
71f,
74f,
74c,
77c,
7ac,
7dd,
77d,
74e,
77e,
7df,
77f,
7b1,
7b2,
7e1,
781,
80c,
80d,
7ad,
80f,
7af,
781,
7b2,
7e1,
7b1,
781,
7b1,
7e1,
7b2,
77c,
77d,
80c,
83d,
7dd,
77f,
7df,
781,
7b1,
7b2,
7e1,
813,
7e2,
7ad,
80c,
83d,
86d,
80d,
7af,
80f,
7dd,
80c,
80d,
86d,
89d,
83d,
80c,
80d,
83d,
89d,
86d,
8cf,
86f,
8a2,
873,
814,
874,
816,
847,
8a5,
8a6,
875,
845,
877,
8ad,
87b,
8ae,
87e,
84f,
8ad,
8df,
87f,
821,
882,
8e4,
883,
824,
8e6,
884,
832,
8c2,
892,
833,
863,
864,
893,
835,
865,
896,
895,
835,
865,
895,
896,
8ca,
89a,
83c,
8cc,
8cd,
8fd,
89c,
83d,
86d,
89d,
8fe,
89e,
873,
8a2,
847,
875,
8a5,
847,
875,
8a6,
8d8,
8a7,
87b,
87f,
8df,
8ad,
87e,
8ae,
852,
853,
8e2,
8b1,
8e7,
8b6,
892,
8c2,
8c4,
8f3,
8c3,
8c3,
8f3,
8f4,
8c4,
8f8,
8c7,
8f9,
8c8,
8cb,
8f7,
8c9,
89a,
8ca,
8c9,
8cb,
86c,
89c,
8cc,
89c,
8fd,
8cd,
86f,
8cf,
8d7,
8d5,
8d5,
8d7,
8a7,
8d8,
87f,
8ad,
8df,
8b1,
8e2,
883,
8e4,
884,
8e6,
8b6,
8e7,
8c3,
8c4,
8f3,
8c4,
8f4,
8c9,
8f7,
8c7,
8f8,
8c8,
8f9,
89c,
8cd,
8fd,
89e,
8fe;