memory_initialization_radix=16;
memory_initialization_vector=3f000000,
3f000000,
3f000000,
3f000000,
367a6a47,
3effffc2,
3effffc2,
3f000000,
3f000000,
3f000000,
2ed5be54,
3f000000,
3f000000,
32236144,
3f000000,
3f000000,
3f000000,
2fbf839d,
2fbf839d,
32a3978e,
3efffffe,
33bc7481,
3efffffe,
32236141,
3efffffd,
2fd06d83,
344d192c,
3efffffd,
3e4cf798,
3c234683,
3553acef,
3eb29e9d,
393a25fc,
3dbc559d,
2bc35c81,
3eb29e9d,
2edd6586,
3dd9be64,
3dd9be64,
3977485d,
3e84694e,
3c244ae9,
3e84694e,
3aa3a78b,
3e84694e,
3be9b322,
3e12afe1,
2a425dbe,
2a425dbe,
3cc65625,
3d86c89b,
3e471c22,
3e7fa983,
3d86c89b,
3e7fa983,
2a7993b4,
3f000000,
305c9ef1,
3371aade,
3f000000,
2a7993a8,
3efffff4,
305c9ee7,
354284ce,
3371aad3,
3efffff4,
3f000000,
3f000000,
3ed558c2,
3e2a9cfb,
3ed558c2,
3e431b22,
3e6cfb95,
3e93fa53,
3e93fa53,
3dd093a9,
3e9e666c,
3e8268d7,
3cca564b,
3e9e666c,
3ea88dba,
3e5e3c1b,
3dff0414,
382f33f4,
3ea88dba,
3d98ef07,
3ee23728,
34111f60,
2d92b70b,
3d2aaf4b,
3ee23728,
389a2d7e,
338ff751,
3e6069aa,
2bd5e546,
2a94ad8d,
39fedb3f,
3bb288ad,
3c32c401,
3ec390c5,
3ec390c5,
2d46f389,
3e9960e7,
32c9cf8f,
31c3c5f2,
3d4f6255,
3816d047,
3e9960e7,
3d4f6255,
3e9960e7,
30148aad,
36cd0e80,
3ed15b74,
3c193d3e,
3e30fcc0,
3ed15b74,
2e9d437f,
2d7451bd,
2e9d437f,
3f000000,
3f000000,
3f000000,
3f000000,
3f000000,
3f000000,
3f000000,
3f000000,
3effdbba,
3a11187a,
3effdbba,
3eff6227,
3b1dd23e,
34ccdeb7,
3eff6227,
3d5287c2,
3ef2d785,
3ef2d785,
34203db6,
3cc6f980,
3ef9c831,
3ef9c831,
3effffe1,
329f1c38,
35f33d4b,
3effffe1,
3eff0b6e,
3b44d561,
3a3ef1e3,
3eff0b6e,
2e9d437f,
2e9d437f,
3f000000,
3f000000,
3f000000,
3f000000,
3f000000,
3f000000,
3c8a40a4,
35b33c29,
3a45195c,
3d6aaa1d,
38ee7947,
3eeb945f,
3b827140,
3a45195c,
3eeb945f,
2c964c36,
3e49f350,
3e8cec1a,
3d54ef29,
381f361d,
3b385cdd,
3e49f350,
398396ac,
3e8cec1a,
38fcdf72,
3c521654,
3e3cf8ef,
3023115e,
3023115e,
3e3cf8ef,
3b5d837a,
3d1f8c13,
3e935ce5,
35ed5a4c,
3e935ce5,
33787979,
3effffff,
3effffff,
39ca4594,
3eeb71b8,
3da3a801,
3eeb71b8,
3d3d3d87,
3a711b05,
3ef3efe0,
3ef3efe0,
36fabd4a,
3effff83,
3effff83,
3f000000,
31773043,
3f000000,
397c4fe0,
3efff03b,
3efff03b,
2ed07365,
35c8ccbe,
36cefe0a,
3e32a875,
3ed35562,
3ed35562,
3a1eabb1,
3d3ce978,
3abbb0cb,
3a1eabb1,
2e694f1a,
3ef38380,
2c052b40,
3739fe76,
3ef38380,
3e0b80d1,
3d131730,
3935cc21,
2f9a5edf,
33f3458b,
3ed3e2fb,
3ed3e2fb,
3c33c0e7,
3e61a723,
37dde11a,
3ec4a56f,
3294741e,
3a0021e5,
3ec4a56f,
2d7451bd,
2d7451bd,
2ed5be54,
3f000000,
3f000000,
3f000000,
3f000000,
3f000000,
3f000000,
3f000000,
3f000000,
3f000000,
3f000000,
3c66b0f2,
359589aa,
38c6f617,
2d3bd277,
3efc5ef2,
3efc5ef2,
2e18e8c8,
2bae8e65,
3ec1da4b,
3e7896d2,
3ec1da4b,
3f000000,
32c142e8,
2c0bff4d,
3f000000,
3eaaaaab,
3eaaaaab,
3eaaaaab,
3f000000,
3f000000,
3f000000,
3f000000,
3f000000,
3f000000,
35840490,
3effffef,
3effffef,
310eb812,
3d4d7ac1,
3e87fd19,
3e42e159,
3aa8136c,
3e42e159,
3d0023dc,
3bb223a6,
2c91092e,
3e87fd19,
2c7400a5,
3f000000,
33286b22,
3f000000,
3b20f125,
3dc4c20e,
33895f5b,
33895f5b,
3baa5b6a,
39f32f20,
3ee2a95e,
3c2a9407,
3188a951,
3ee2a95e,
3a9d8b95,
3ef17915,
3d5157f3,
3b91533e,
3ef17915,
3ed0a15d,
3cb4a2ec,
3e26d772,
386bb4ee,
3ed0a15d,
35fa0987,
3849845c,
3e9b3cf9,
3eb25e3e,
3eb25e3e,
395ec121,
3ae5ebf9,
388ea3fb,
3efc8289,
3c3e07e5,
3efc8289,
3effffcd,
364e2a38,
2aa03b29,
2be6843d,
3effffcd,
3c8f8f5a,
2a7c1c25,
3efb8385,
2bb5595b,
3efb8385,
2bb89572,
3f000000,
2a804dac,
3f000000,
2bc89ff6,
2a8b7418,
3f000000,
3f000000,
3e32a8cf,
3ed355cc,
3015f1ef,
3ed355cc,
3ee24883,
3d2f8b89,
372cd562,
3d94c9df,
3a13718c,
3ee24883,
2d7451bd,
2d7451bd,
2e34b1ff,
3f000000,
3f000000,
32c142e8,
2ac29f7f,
3f000000,
3f000000,
37ccc680,
39ec829e,
3c25e59e,
3efd4940,
3efd4940,
3c5003e8,
32355f7c,
3e91e8d7,
3e3b1bd2,
3e704096,
3e91e8d7,
3d09d2fd,
3b8949f1,
3eb6a9fd,
3e7e9901,
2d6cf034,
3eb6a9fd,
3ef6af58,
3d150a76,
3ef6af58,
368fcf7b,
3effe7cd,
39bf5751,
3effe7cd,
3efff4e1,
392fd964,
36042ab8,
3efff4e1,
330e9022,
3f000000,
3f000000,
2c3386eb,
2c3386eb,
2c3386eb,
2c3386eb,
2e34b1ff,
3f000000,
32b1cf10,
32b1cf10,
3f000000,
3efff99f,
38c9cd7f,
3597ac61,
31bb761a,
3efff99f,
3cc6f969,
3600fa73,
3ef9c814,
3ef9c814,
33d82651,
3eff8ba6,
3ae8af91,
3eff8ba6,
3f000000,
3f000000,
2e21b17d,
3f000000,
2a804dac,
3f000000,
353d2205,
3e7896c7,
3ec1da43,
3ec1da43,
37337d0b,
3b1138f9,
3eff6b30,
38390617,
3eff6b30,
3effffd8,
36208fc1,
3effffd8,
3171e8cc,
3d0020d4,
3e3d861d,
3ec89c6c,
3ec89c6c,
39c4babd,
3effe768,
3effe768,
3d81ccd1,
3eefc667,
2ca3f797,
3eefc667,
3f000000,
3f000000,
3e4fff83,
390b2a7f,
3d8ccce1,
3eba5dd1,
3eba5dd1,
361d20b7,
37ca8afa,
3aacc9d9,
3e2e5d5c,
3ed41087,
3ed41087,
397c4fe6,
2f1950d7,
2caf0530,
3efff03a,
303ab4d9,
3efff03a,
3ee2304d,
3dee7da0,
2f2dfa79,
3ee2304d,
2af993b4,
2af993b4,
3838623b,
33b63e56,
3efe88fb,
3bba10ce,
3efe88fb,
3edee87c,
328a8b08,
3dc17ff2,
3d0e5e83,
37cf112b,
3edee87c,
2c2ae078,
2c2ae078,
2bc41516,
2bc41516,
3e438f9e,
2bba6560,
39de1737,
3ecf0056,
3ecf0056,
3eaa004e,
3b7f8b0b,
3eaa004e,
3eaa004e,
3f000000,
3f000000,
38396fa6,
3efffce8,
350f4c43,
3625139f,
3efffce8,
3ef7679d,
3d098637,
2e29d82d,
3ef7679d,
2c2ae078,
2c2ae078,
2bc41516,
2bc41516,
2f75e8b4,
3f000000,
3f000000,
3ee7f033,
3a653f01,
35955fc4,
3dbe7546,
38f83360,
3ee7f033,
3c306767,
361b6a33,
2d7a525f,
3dd1358f,
3e46290b,
3eb18d46,
3eb18d46,
3e948ac4,
34fc43bf,
328ffd0f,
3dc91afd,
3d00c713,
3e948ac4,
3e948ac4,
31887788,
3eca897c,
3e55d47a,
369ed8f3,
378a9ba8,
2f2e181f,
3eca897c,
3cddb998,
3ef91233,
3ef91233,
3c8f8f10,
36fd48b6,
34612edd,
3efb8302,
34612edd,
3efb8302,
3f000000,
329f1c4c,
3f000000,
3cfdb22e,
361ff1d4,
3541c568,
3ef80793,
3370bd08,
392a6736,
3ef80793,
38106b6c,
2d3e8437,
32c14134,
3efffdbd,
3efffdbd,
38b2caca,
3efd7075,
3ace8010,
3c08aa08,
35573445,
3efd7075,
2ea746f0,
2ea746f0,
3f000000,
3f000000,
3f000000,
3f000000,
3e123f14,
34785dab,
2bc8047d,
3e123f14,
2d081a3b,
3eb6e072,
3eb6e072,
35590859,
346b484c,
3ad04136,
35590859,
2deddd3c,
3eff97b3,
3156caba,
35590859,
3eff97b3,
373cd34a,
3efe2f2a,
3be80c2e,
3efe2f2a,
2ea746f0,
2ea746f0,
3ef32f2e,
3d4d0d2e,
3ef32f2e,
3ecf16cb,
3e43a4d3,
3ecf16cb,
30dc9ef1,
30dc9ef1,
3b1a28cd,
3e0ef118,
2d0506ee,
3383954c,
3ed91c00,
3c2363b9,
3ed91c00,
3a266f90,
3558e52d,
2dedb6af,
3eff6e47,
3ad01f76,
33712154,
3eff6e47,
3efefa8e,
3b5be880,
30ab5b3c,
3a262424,
3efefa8e,
3b8d23d7,
3451f811,
3eea84d4,
36ec2be1,
3da30358,
3eea84d4,
3b113afd,
35478df9,
3eff6eb8,
3eff6eb8,
30dc9ef1,
30dc9ef1,
3e8e792c,
303f7f00,
303f7f00,
3ead0da0,
3d3b5c95,
303f7f00,
3150adaf,
3ead0da0,
3985332b,
3effa00e,
3a6874e6,
3985332b,
3464dda6,
3890667e,
3effa00e,
3f000000,
30dce843,
3f000000,
33787978,
33787978,
3efffffe,
2e21b17c,
2a804dab,
3efffffe,
32b1bdcd,
32b1bdcd,
376d68a8,
3effe727,
39bf56d6,
3effe727,
3da36612,
3406f253,
3eeb12db,
3a0ceca5,
3aba49f7,
3eeb12db,
310f2ce2,
35fc78dc,
3d387577,
3ef47889,
3ef47889,
3a4ed450,
2d6c3c74,
3d096a6e,
3ef735a4,
3ef735a4,
2d7a6d3f,
2d7a6d3f,
2d7d89b7,
2d7d89b7,
2d7d89b7,
2d7d89b7,
3f000000,
324a280a,
3f000000,
3f000000,
3217b713,
3f000000,
342c618e,
3ec0893e,
342c618e,
2f1417ff,
2b8ad30a,
3e7ddaf1,
3ec0893e,
3e480770,
2df61443,
35fb3d76,
3e480770,
2f15d61c,
2df61443,
3e9bfc28,
333d1341,
3e9bfc28,
3062d217,
34652fd7,
38850a81,
3efffbd4,
3efffbd4,
2f8c240f,
3e89d421,
3ebb15f0,
3ebb15f0,
31772598,
33786ece,
392fd97c,
3efff501,
3efff501,
2d7a6d3f,
2d7a6d3f,
3effc2a1,
3963b856,
3a3c8c52,
3effc2a1,
3ed355c6,
3e32a8ce,
34ddc147,
3ed355c6,
3effb09c,
3a9ec863,
3effb09c,
3db34e1d,
2a8148d2,
3886111d,
3db34e1d,
2bb9fec3,
3ece8e61,
31791412,
2bb9fec3,
306491cf,
3c933cea,
3ece8e61,
3f000000,
3f000000,
3efd0650,
3c3e6b11,
348d74a3,
3efd0650,
3eefc5d9,
3d81cc84,
3716c669,
3eefc5d9,
3efffdc0,
380ff989,
3efffdc0,
35186df4,
2e065be1,
3efffff6,
30301d68,
2ffad4a6,
3efffff6,
2e4f5953,
2e4f5953,
31bbc898,
3dc90818,
3ee6defd,
3ee6defd,
321b5098,
3aa2bf4e,
3effaea0,
3effaea0,
38106b6c,
3efffdbd,
33bc72d7,
30ac096b,
32c14134,
3efffdbd,
3d8e2fd8,
3ecc8ea8,
3e06ad78,
3ecc8ea8,
36c8bbbf,
3961c883,
3efff17e,
3efff17e,
3b75cf80,
3eff0a32,
2ded598b,
3eff0a32,
2ad9e27e,
2ad9e27e,
3efffd5a,
34d27d74,
3665acce,
38199d3c,
3efffd5a,
2f87b7d0,
3f000000,
2f929ae4,
323fd2ac,
306e516d,
3f000000,
2e24806f,
2e00e853,
300c67ad,
30f8d77f,
3113e54c,
3113e54c,
2e4f5953,
2e4f5953,
348a5769,
3efffffc,
3efffffc,
3f000000,
3f000000,
3b7f6f9e,
3ee6a8c9,
3dc2be32,
3ee6a8c9,
3f000000,
3f000000,
3f000000,
3f000000,
3f000000,
3f000000,
3f000000,
3f000000,
2ad9e27e,
2ad9e27e,
2f06889a,
2f0f8ab5,
2f0f8ab5,
2db79889,
2e2e6fe8,
2e2e6fe8,
30f8d77f,
2b35494e,
30f8d77f,
3113e54c,
2f8d1756,
3113e54c,
2e7e325a,
2e7e325a,
3efee5b9,
3b8d2388,
2fbeefcd,
3efee5b9,
3f000000,
3f000000,
3f000000,
3f000000,
3f000000,
3f000000,
2b35494e,
2ba0ef7f,
2ba0ef7f,
2f8d1756,
2ba70209,
2f8d1756,
2e7e325a,
2e7e325a,
338708b0,
34791eb4,
3efffffc,
3efffffc,
3f000000,
3f000000,
3ce4f84a,
3e65dcdc,
3d421205,
2e0d63f9,
3eb33fe8,
3eb33fe8,
2ba0ef7f,
2ba0ef7f,
2ba70209,
2ba70209,
3f000000,
3f000000,
3f000000,
3f000000,
3f000000,
3f000000,
3572ec76,
3effffb9,
366014c9,
3effffb9,
3f000000,
3f000000,
3f000000,
3f000000,
3f000000,
3f000000,
3f000000,
3f000000,
3f000000,
3f000000,
34313c94,
3e7ddaf4,
3ec08940,
3ec08940,
340ffca9,
3ea0d275,
300e8019,
3da991a8,
3e93f6a6,
3ea0d275,
3f000000,
3f000000,
39ca319b,
3da397d8,
3eeb5a78,
39ca319b,
326a42bf,
3eeb5a78,
36c25cf1,
3dcb800d,
3e462ea2,
36c25cf1,
3eb19246,
3c5c5377,
3eb19246,
3f000000,
3f000000,
3f000000,
3f000000,
3db8adab,
3eaf26f2,
38f0ab2f,
31291f90,
3e66ef50,
3eaf26f2,
3e7f80dc,
3e0e9472,
320a358c,
3e5e5ef1,
396e94a2,
3e0e9472,
3ba75963,
3e7f80dc,
3effffff,
338708b2,
3effffff,
3a1a0239,
37348779,
39765244,
32b26f08,
358c0cd4,
3d9b69e1,
2d2fe7ce,
3667340e,
3eec5bdd,
3eec5bdd,
3ea6acac,
3e910f99,
350d8777,
3b5a0da7,
3d7bd891,
3a381992,
383c4e48,
383c4e48,
3ea6acac,
32d7bc89,
3cf76d2e,
31d14846,
3a3a3489,
3dbbe761,
3c02711c,
368bc4db,
2fa6b67d,
2d54ae01,
3ede8f12,
2c1c4731,
3ede8f12,
3f000000,
3f000000,
3f000000,
327e06bb,
3f000000,
3f000000,
3f000000,
3efffff3,
355960de,
3efffff3,
3eac03b0,
2d2460fd,
3de8e23a,
36580d9d,
3e30a159,
31a1c0c7,
3d2b58a4,
37f9365f,
3eac03b0,
3c21fc25,
3a8895af,
2f4ec22e,
3e0db684,
3ed73e33,
3c21fc25,
3ed73e33,
3effef16,
367a59f8,
2d3e794f,
32c13624,
39855c5b,
3effef16,
316de454,
2df261ab,
316de454,
3a5d37f9,
39de4cbc,
3eff9506,
39bf1976,
3eff9506,
38909a14,
3efffb7b,
3efffb7b,
3b9270c7,
3efedb20,
3efedb20,
3ef692d0,
3d16d2f7,
3ef692d0,
3f000000,
3f000000,
3d19001c,
3ef64d13,
3a0bacff,
3ef64d13,
3ea84715,
3884aa32,
3e830e06,
31767940,
327e1323,
3db16e16,
3ea84715,
389601bf,
2bd01bf4,
3d139c57,
3ee71d64,
3d7a3951,
371154a6,
2a90a7e4,
328fa4cd,
3ee71d64,
3f000000,
3f000000,
36e1c1ed,
3efffeab,
37642758,
3efffeab,
38789d7d,
3efffbf9,
36142bef,
3efffbf9,
3f000000,
3f000000,
344fa574,
3efffff8,
34891111,
3efffff8,
3f000000,
3f000000,
3f000000,
3f000000,
2d7451bd,
2d7451bd,
3a7cc8d8,
3effc0ce,
3effc0ce,
392ef02b,
3d8db97d,
3ecbe463,
3e063d5e,
35d290b8,
3b4a0c8b,
3ecbe463,
3f000000,
3f000000,
3f000000,
3f000000,
3f000000,
3f000000,
2e0a6421,
2e0a6421,
30dc9ef1,
30dc9ef1,
3932a4c7,
3eca81c1,
3e55cc50,
3eca81c1,
2b6afa05,
3551e1a1,
3d0d43a5,
3ef72bb7,
3ef72bb7,
2f1feab9,
2f1feab9,
2f1feab9,
2f09e58c,
2f1feab9,
2f09e58c,
2f09e58c,
3a81f2ec,
3effbf06,
3effbf06,
2d7451bd,
2d7451bd,
2d7451bd,
2d7451bd,
2d7451bd,
3f000000,
3f000000,
3f000000,
3f000000,
2e9d437f,
2e9d437f,
3f000000,
3f000000,
3f000000,
3f000000,
3f000000,
3f000000,
3effffb9,
368fdcec,
2f689e86,
3effffb9,
2e9d437f,
2e9d437f,
3e1f1753,
3ed83a2b,
3ed83a2b,
3d2a52ef,
3ef55ad1,
3ef55ad1,
2d7451bd,
2d7451bd,
3f000000,
3f000000,
3efffffb,
34add662,
3efffffb,
3f000000,
30ac0af0,
3f000000,
3d098635,
3ef76799,
3470c174,
3ef76799,
3dee7c2f,
379aca61,
36b16498,
3ee22eed,
3ee22eed,
3f000000,
3f000000,
2b3de068,
2b3de068,
2b3de068,
2b3de068,
363dae2d,
3effffa0,
363dae2d,
3effffa0,
3eff547f,
3b2b802e,
3eff547f,
2f18c70b,
3eff0a32,
3b75cf80,
3eff0a32,
3f000000,
3f000000,
3d5287b7,
2cee4a14,
353db7d4,
3ef2d777,
34596baa,
3ef2d777,
3daf1519,
3c17c964,
3ee7be38,
327ab68a,
3ee7be38,
3effff93,
36da398d,
3effff93,
38e13ca3,
34dee954,
3effa7d1,
3aa23a9a,
3effa7d1,
39c4babd,
3effe768,
3effe768,
3465338f,
3efffffb,
33787975,
3efffffb,
3cabcc41,
3ef102b9,
3d19ee5b,
3ef102b9,
3ef7679c,
3d09863b,
3ef7679c,
3f000000,
3f000000,
3efe816e,
3bbf48d0,
3efe816e,
3650bac5,
356247fb,
3eee75ec,
3d8c4e8e,
3eee75ec,
3f000000,
3f000000,
3f000000,
3f000000,
3f000000,
3f000000,
3f000000,
3f000000,
3f000000,
328a7a52,
3f000000,
3f000000,
3f000000,
3f000000,
3f000000,
3f000000,
3f000000,
3f000000,
3f000000,
3f000000,
3f000000,
3f000000,
3f000000,
3b3f98ad,
3eff4067,
3eff4067,
3e4c966a,
3eccda65,
3eccda65,
3ef8ec88,
3ce26ef4,
3ef8ec88,
3ef00557,
3a8f30c9,
3d7b311e,
3ef00557,
3ed451e6,
3b333404,
37537786,
36c0841c,
3e2be6c5,
3ed451e6,
3f000000,
3f000000,
2af993b4,
2af993b4,
3f000000,
3f000000,
2fbf839d,
2fbf839d,
3f000000,
3f000000,
3c1f62aa,
39050c02,
39b329ac,
3efd4e7e,
39aa0126,
3efd4e7e,
35b12799,
3ccfebd3,
3ee8d848,
3d840574,
37536671,
3a1b0852,
3ee8d848,
3efd262e,
3c367493,
3efd262e,
3f000000,
3f000000,
3f000000,
3f000000,
3cddb998,
3ef91233,
3ef91233,
30d693a1,
2f531eee,
30d693a1,
3c1d1a6c,
3cf31432,
3c0e5417,
3eb2e746,
39d92a92,
3847a453,
3e8161e4,
3618c75d,
38406206,
3eb2e746,
3d838506,
3a1549c8,
3a0cc902,
393b1b58,
3eef3b27,
32c14a82,
3eef3b27,
31975284,
2e31b29e,
31975284,
3f000000,
3f000000,
3050b2ca,
3f000000,
3f000000,
37f47f98,
3efffe17,
3efffe17,
2c86e831,
2c86e831,
3bc980c2,
3cf7abde,
389f9b45,
36b9d921,
3ef6aa46,
3ef6aa46,
36c1ee62,
39f1d569,
3e835646,
3ebb4c7e,
35ac05d2,
3a14b1c5,
3c311f14,
348db1c6,
3ebb4c7e,
3ae2ddb5,
3ed983d8,
3e15fea7,
3b0b0fb5,
3ed983d8,
2cebdb7e,
2e92091c,
2e92091c,
2d4ce7d4,
2d4ce7d4,
2af993b4,
2af993b4,
2af993b4,
2af993b4,
32b6d13b,
3f000000,
3f000000,
3f000000,
3f000000,
30e32104,
3effffdf,
36043065,
3effffdf,
3ed532e1,
334eee74,
3af26f78,
3e2147ff,
3c0079bc,
2a55b440,
3ed532e1,
3a79a0d3,
3cfb40af,
3b0ba9c7,
3daabe6f,
3ee2001e,
387f54c7,
3ee2001e,
3e2baec8,
38a9400f,
3e7659fb,
3de25c48,
3e7659fb,
319d38e4,
3e7659fb,
3effe6eb,
36faa533,
39c4ba5c,
329f0cb5,
3effe6eb,
3d9f9571,
3eec0d52,
2ec51694,
3eec0d52,
3b113b02,
3eff6ec4,
3eff6ec4,
37b8eccf,
3ef89c74,
3ca30bdb,
2e8cb21d,
37b8eccf,
37b8eccf,
3c11b60b,
3ef89c74,
3ec071ae,
3e7dbbe1,
39fac9eb,
3ec071ae,
3ea990b4,
30967141,
2e3fec50,
39cb4e33,
3ea990b4,
3bc6c3b9,
3ea990b4,
3ed926c6,
3e1b64e6,
3ed926c6,
3f000000,
3f000000,
2af993b4,
2c3386eb,
2c3386eb,
3f000000,
3f000000,
3f000000,
3f000000,
3f000000,
3f000000,
3f000000,
3f000000,
3ee72223,
3d139f5f,
3d7a3e75,
3ee72223,
325db09e,
3effe8bc,
39ba1a15,
3effe8bc,
38f81b1b,
38f81b1b,
3e3968f9,
312e597d,
3e3968f9,
399b1fda,
3e08981b,
3d1c8a1e,
332f41bb,
383bb018,
3a377eea,
3e6e123a,
3233b9f7,
350d1092,
3e6e123a,
3e99419f,
36a7bfab,
3c3e2813,
3caa6166,
35d6d5dd,
3dfc05b1,
3d106941,
3a294765,
3c3e2813,
3d679230,
3caa6166,
3321ada0,
3dafa27b,
3777cec5,
3d106941,
3e99419f,
3cdf44d2,
34c9328f,
3e80c48a,
2fe43215,
3e04391e,
3681acd3,
34c9328f,
33e69381,
3e29c720,
3c12ff3f,
373f9030,
35a61319,
3805d8f7,
2c7cb52d,
3681acd3,
3e29c720,
3e80c48a,
3e1e147f,
37cd34c5,
3d093979,
3e456b0b,
32bf9d60,
3d093979,
3712d895,
29c5e2d7,
39299a73,
3e456b0b,
3be15dbb,
3e456b0b,
39c89f6d,
357e9d53,
3e456b0b,
34791ebe,
3efffffc,
2ef5971d,
314082aa,
2db47602,
3efffffc,
3effe3db,
36250378,
3700d8ba,
39dbd643,
3effe3db,
3efa6bf3,
3cb2819b,
3efa6bf3,
2e218808,
2bb8661f,
3700c5da,
3a81f290,
3624eb4b,
3effbe5d,
3effbe5d,
327ecfb1,
3f000000,
3f000000,
32c46542,
3c3e6b13,
3efd0654,
3efd0654,
3a4ed43d,
3ef7358d,
35bc1547,
3d096a62,
3ef7358d,
395388b0,
38421dd1,
3e0d45d0,
3edc9e4b,
3edc9e4b,
3effffbe,
36845c3a,
3effffbe,
3f000000,
3f000000,
3eefc667,
3d81ccd1,
3eefc667,
2af993b4,
30dc9ef1,
30dc9ef1,
3efbc925,
3c843970,
39a87693,
3efbc925,
3f000000,
3f000000,
3ef9db8b,
3c8e9d5e,
3bd7c56e,
3ef9db8b,
3f000000,
3f000000,
2fbfc340,
3f000000,
3f000000,
3f000000,
3f000000,
3effb962,
3a8d3acf,
3effb962,
3c08c308,
3c08c308,
3ed0cdb9,
3e2baef6,
36e48c77,
3ed0cdb9,
3effe530,
2bb8821f,
39bf555e,
32b1bc70,
38395e79,
3effe530,
2ed5be54,
3f000000,
3f000000,
3f000000,
2f689ec6,
3f000000,
3bba12b2,
3efe8b92,
33b64031,
368f0bc9,
3efe8b92,
32de9dce,
37613b13,
3dc1e56c,
3c069a09,
2e8d437b,
3ee5a809,
3ee5a809,
3eff13da,
3b2b54c4,
3a819beb,
347838f4,
325cf833,
3eff13da,
36bee17f,
3e004f1d,
310323f1,
3edfebd9,
3edfebd9,
3f000000,
3f000000,
2c3386eb,
2c3386eb,
3f000000,
3f000000,
3f000000,
3f000000,
3f000000,
3f000000,
3f000000,
3f000000,
2c3386eb,
2c3386eb,
3ef7679c,
3d098635,
3ef7679c,
3f000000,
3f000000,
3ebb15f0,
3e89d421,
3ebb15f0,
2b77e73e,
3993b033,
3eabe8b7,
322b1c66,
3cafd621,
35ddb705,
2ca8afbb,
3ac37bc9,
3e89a76c,
3d150918,
3eabe8b7,
2caec859,
2b72fb38,
2deddcd3,
3ad040da,
3eff9742,
371c5194,
2caec859,
3eff9742,
2d4f6d4e,
3ad6d232,
3e12efa1,
33cd2cf1,
3a359b3a,
3b7060d6,
3a359b3a,
34bd42d2,
39913b03,
3ed90fe9,
3ad6d232,
2c186b1a,
3ed90fe9,
3b5b44d3,
3ddcb21b,
3ee38068,
35412df8,
3025f63c,
39604738,
3ee38068,
2d7451bd,
2d7451bd,
37be55e3,
39dbd520,
3700d810,
3effe288,
3effe288,
3e2a9cff,
3ed558c1,
3ed558c1,
3f000000,
3f000000,
3f000000,
3f000000,
3effffef,
35840490,
3effffef,
3f000000,
3f000000,
3efffffe,
332d2983,
3efffffe,
3efff1e3,
31ac73d2,
3961c8dc,
3efff1e3,
2af993b4,
2fbf839d,
2fbf839d,
3eecc3d7,
3cccfef5,
3d4d4315,
3eecc3d7,
3f000000,
3f000000,
3f000000,
3f000000,
3f000000,
3f000000,
3f000000,
3f000000,
3f000000,
3f000000,
3f000000,
2c13feba,
3f000000,
34df362e,
3efffff9,
2af9e69b,
3efffff9,
3f000000,
3f000000,
3eec8e98,
3d9b8b3c,
3eec8e98,
3efe2fe6,
3be80cd8,
3efe2fe6,
3ac225fd,
3ef4fdc7,
3d2a1259,
3ef4fdc7,
3f000000,
3f000000,
39891ddd,
3effeedc,
3effeedc,
39a6899e,
3effeb2f,
3effeb2f,
3b2b0d96,
3b2b0d96,
3efea9e4,
3efea9e4,
3efffffe,
33f1fb29,
3efffffe,
3f000000,
3f000000,
2c3386eb,
2c3386eb,
3f000000,
3f000000,
3f000000,
3f000000,
3f000000,
3f000000,
3f000000,
3f000000,
3d38758d,
3ef478a7,
3ef478a7,
3eaaaaab,
3eaaaaab,
3eaaaaab,
3efff246,
395b99b1,
3efff246,
34c7d07d,
3d86d67f,
3804ed6b,
3e7fc3dc,
3e4cccf7,
38afb7b8,
3b9a205b,
3e6b50b3,
3e7fc3dc,
3817e396,
2d485eb8,
3ce91b0d,
3db10734,
3683ade5,
3ed1ad68,
2f9d104c,
3c761a60,
3d50dce9,
31c52b54,
3ed1ad68,
3d0f686b,
36a69554,
3ea56aee,
2b6e8ad8,
3a281a55,
3e98310e,
3ca93260,
398e1c8c,
36a69554,
3ea56aee,
3eff73f1,
3ac4e494,
2c0bb2b5,
31bb1434,
3a26733c,
3eff73f1,
364e2587,
2f75e2ea,
38a624ba,
3720f6db,
3efff9fa,
3efff9fa,
2be6846b,
3f000000,
3f000000,
3effac98,
3aa6cf83,
3effac98,
37987979,
3efffecf,
3efffecf,
3eff0a30,
3b75cf79,
3eff0a30,
3f000000,
3f000000,
3cb76bf7,
3efa44a0,
3efa44a0,
2bb892b2,
3efffc2d,
376d7c29,
38396f1f,
3efffc2d,
3b9958b9,
36244fbe,
3efecd25,
3efecd25,
3c18d3ea,
36ff65ae,
3efd9c31,
3efd9c31,
3cddb998,
3ef91233,
3ef91233,
3f000000,
3f000000,
3f000000,
3f000000,
38f51cba,
3efff858,
3efff858,
3f000000,
3f000000;