memory_initialization_radix=16;
memory_initialization_vector=030,
000,
032,
002,
033,
063,
003,
064,
005,
009,
035,
007,
007,
00b,
009,
009,
00b,
00e,
00c,
00c,
03f,
070,
00e,
011,
040,
041,
071,
00f,
011,
012,
040,
041,
042,
071,
072,
010,
00f,
010,
012,
040,
041,
042,
071,
073,
011,
010,
011,
013,
014,
040,
041,
042,
071,
073,
012,
012,
014,
042,
073,
013,
012,
013,
042,
046,
073,
014,
073,
015,
017,
018,
016,
016,
018,
019,
017,
016,
017,
019,
01a,
018,
017,
018,
01a,
01b,
019,
018,
019,
01b,
01c,
04c,
01a,
019,
01a,
01c,
01d,
04a,
04b,
04c,
04d,
07d,
01b,
01a,
01b,
01d,
04a,
04b,
04c,
04d,
07d,
01c,
01b,
01c,
04b,
04d,
07c,
01d,
04f,
07f,
01f,
02a,
029,
029,
02a,
02d,
02b,
02e,
02c,
02b,
02f,
02d,
02c,
02f,
05f,
02e,
02d,
02e,
02f,
000,
060,
091,
030,
002,
062,
093,
032,
003,
063,
092,
033,
007,
035,
09a,
03a,
09f,
03e,
00e,
03f,
00f,
010,
011,
012,
041,
042,
071,
0a0,
040,
00f,
010,
011,
012,
040,
042,
071,
073,
041,
010,
011,
012,
013,
014,
040,
041,
071,
073,
0a0,
042,
074,
0a5,
043,
075,
0a6,
0a7,
045,
014,
047,
077,
046,
046,
048,
047,
047,
049,
048,
048,
04a,
049,
01b,
01c,
049,
04b,
07c,
04a,
01b,
01c,
01d,
04a,
04c,
04d,
07c,
07d,
04b,
01a,
01b,
01c,
04b,
04d,
07d,
04c,
01b,
01c,
01d,
04b,
04c,
07d,
04d,
07e,
04e,
01f,
0af,
04f,
07f,
050,
05e,
05d,
05d,
05e,
02e,
05f,
030,
090,
091,
0c0,
0c1,
060,
032,
063,
093,
0c3,
062,
003,
033,
062,
063,
005,
095,
064,
06b,
069,
069,
06b,
09b,
06d,
00e,
0d0,
070,
00f,
010,
011,
012,
040,
041,
042,
073,
0a0,
071,
010,
0a4,
0d4,
072,
011,
012,
013,
014,
015,
041,
042,
071,
0d4,
073,
043,
075,
076,
0a5,
074,
045,
074,
0a6,
0a7,
075,
074,
077,
078,
0a5,
076,
046,
076,
078,
079,
0a5,
077,
076,
077,
079,
07a,
078,
077,
078,
07a,
07b,
079,
078,
079,
07b,
07a,
079,
07a,
0ac,
07b,
01d,
04a,
04b,
07c,
01b,
01c,
04b,
04c,
04d,
07d,
04e,
07e,
01f,
050,
07f,
0b1,
0e0,
0e1,
081,
0b1,
0b2,
0e0,
0e2,
082,
084,
0b2,
0b3,
0b4,
0b5,
083,
083,
0b3,
0b4,
0b5,
0e3,
084,
0b6,
0e4,
085,
060,
0c0,
0c1,
090,
030,
060,
0c1,
091,
033,
0c4,
092,
0be,
0bd,
0bd,
0be,
060,
090,
0c1,
0f1,
0c0,
060,
090,
091,
0c0,
0c1,
0f4,
122,
124,
0c2,
11d,
11f,
14d,
0ed,
11e,
0ee,
14d,
14e,
14f,
0ef,
0f1,
121,
151,
0f0,
0c0,
0f0,
121,
151,
0f1,
122,
154,
0f2,
0ed,
14c,
17d,
17e,
11d,
0ee,
17f,
11e,
0ed,
14d,
17d,
11f,
150,
120,
0f0,
0f1,
151,
181,
121,
0c2,
0f2,
124,
154,
184,
122,
0ed,
0ef,
11b,
11f,
14e,
14d,
0ef,
11c,
14d,
14e,
0ef,
14f,
120,
180,
1b0,
1b1,
150,
0f0,
0f1,
121,
181,
1b2,
151,
198,
168,
199,
169,
11d,
11f,
14c,
17e,
17d,
11d,
14c,
17d,
17e,
11e,
17f,
150,
1b0,
1e0,
1e1,
180,
121,
151,
1b2,
181,
168,
198,
169,
199,
1dc,
20d,
1ad,
150,
180,
1b1,
1e0,
211,
1b0,
150,
1b0,
1b2,
1e0,
1e2,
210,
1b1,
151,
181,
1b1,
1e2,
210,
212,
1b2,
180,
1b0,
1b1,
1e2,
210,
211,
1e0,
180,
211,
1e1,
1b1,
1b2,
1e0,
210,
241,
1e2,
1ad,
1dc,
20d,
1b1,
1b2,
1e0,
1e2,
241,
271,
210,
1b0,
1e0,
1e1,
272,
211,
1b2,
240,
241,
270,
271,
212,
264,
234,
23f,
23d,
23d,
23f,
212,
241,
242,
270,
271,
2a0,
240,
1e2,
210,
212,
240,
270,
271,
2a0,
2a1,
241,
240,
270,
2a0,
242,
234,
264,
29c,
2cb,
26d,
29d,
29e,
26e,
29f,
26f,
212,
240,
241,
242,
2a0,
2d0,
270,
210,
212,
240,
241,
2a1,
2d0,
271,
211,
2a2,
2d1,
2d2,
272,
26e,
29c,
29e,
2cb,
2fb,
29d,
26e,
29c,
29d,
29e,
26f,
29f,
240,
241,
242,
270,
2d0,
300,
302,
2a0,
241,
271,
2d1,
300,
301,
302,
2a1,
272,
2d2,
2a2,
2cc,
2fc,
2fd,
2fe,
32d,
2cd,
2cc,
2fc,
2fe,
32c,
32d,
2ce,
270,
271,
2a0,
300,
302,
2d0,
272,
2a1,
2d2,
301,
2d1,
272,
2a2,
2d1,
301,
2d2,
30d,
2dd,
2ee,
2ed,
2ed,
2ee,
32b,
35b,
2fb,
32c,
35c,
2fc,
2cc,
2cd,
2fc,
2fe,
32d,
35d,
2fd,
2cc,
2cd,
2ce,
2fc,
2fd,
32c,
32d,
35d,
2fe,
2a0,
2a1,
2d0,
302,
300,
2a1,
2d1,
2d2,
301,
2a0,
2a1,
2d0,
300,
302,
2dd,
30d,
346,
375,
376,
317,
2fb,
35b,
38b,
32b,
2fc,
35c,
32c,
2cc,
2cd,
2ce,
2fc,
2fd,
2fe,
32c,
35c,
35d,
38c,
32d,
38d,
32e,
331,
360,
361,
330,
330,
360,
361,
331,
374,
3a3,
345,
317,
374,
375,
376,
3a4,
346,
377,
347,
2fb,
32b,
38b,
35b,
2fc,
32c,
38c,
35c,
2fc,
2fd,
2fe,
32d,
3bc,
35d,
330,
331,
361,
360,
330,
331,
360,
361,
364,
394,
3c4,
362,
394,
364,
345,
346,
375,
3a3,
374,
317,
346,
374,
376,
3a4,
375,
317,
346,
375,
3a5,
3a6,
376,
347,
377,
32b,
35b,
38b,
35c,
38c,
32e,
3bd,
3eb,
38d,
3bf,
38f,
391,
390,
390,
391,
333,
392,
364,
394,
345,
374,
3a3,
346,
375,
3a4,
376,
3d5,
3a5,
376,
3d6,
3a6,
3d7,
3a7,
38d,
3eb,
3ec,
3bd,
38f,
3bf,
420,
3c1,
363,
3c2,
3a5,
405,
3d5,
3a6,
406,
3d6,
3a7,
3d7,
3ec,
41b,
44b,
3ed,
450,
3f1,
393,
3c3,
3f3,
423,
453,
3f2,
3d5,
405,
3d6,
406,
41c,
41d,
3c1,
420,
480,
421,
423,
452,
482,
422,
3f1,
450,
4b3,
451,
422,
452,
4df,
47f,
421,
480,
453,
4b1,
4e1,
481,
422,
423,
453,
4b2,
4e2,
482,
4de,
4ae,
453,
481,
4e1,
510,
512,
4b1,
453,
482,
4e2,
510,
511,
512,
4b2,
4ae,
4de,
47f,
4df,
481,
4b1,
510,
512,
542,
4e1,
482,
4b2,
510,
511,
512,
540,
541,
4e2,
53f,
56f,
50f,
4b1,
4b2,
4e1,
4e2,
511,
512,
540,
542,
570,
510,
4b2,
4e2,
510,
512,
540,
541,
570,
571,
511,
4b1,
4b2,
4e1,
4e2,
510,
511,
540,
541,
542,
570,
571,
512,
553,
523,
554,
584,
524,
59e,
53e,
50f,
56f,
53f,
4e2,
510,
511,
512,
541,
570,
571,
5a1,
540,
4e2,
511,
512,
540,
571,
5a1,
541,
4e1,
510,
512,
570,
5a0,
542,
551,
581,
550,
550,
552,
581,
582,
551,
551,
582,
552,
523,
583,
553,
524,
584,
554,
59d,
56d,
50f,
53f,
5ce,
56f,
510,
511,
512,
540,
542,
5a0,
570,
511,
512,
540,
541,
5a1,
5d0,
5d2,
5d3,
571,
5a2,
572,
550,
551,
582,
581,
551,
552,
581,
582,
553,
583,
524,
554,
5b4,
584,
56d,
59d,
53e,
59e,
5fe,
59f,
542,
570,
5a0,
540,
541,
571,
5d0,
5d2,
5d3,
5a1,
572,
5a2,
5b2,
5b1,
5b1,
5b2,
584,
5b4,
56f,
5ce,
571,
5a1,
5d2,
5d0,
571,
5a1,
5d0,
5d3,
5d2,
5e2,
5e1,
5e1,
5e3,
5e2,
5e2,
5e3,
59f,
62f,
5fe,
602,
601,
5d4,
601,
602,
65a,
62a,
65d,
62d,
65e,
62e,
5fe,
62f,
633,
631,
62a,
65a,
62d,
6bd,
6bf,
65d,
62e,
65e,
690,
6c2,
660,
691,
6c1,
661,
6c1,
662,
6ec,
68d,
68f,
6ee,
68e,
68e,
6ee,
68f,
660,
6c2,
6f2,
690,
661,
6c1,
6f0,
6f1,
691,
6c0,
692,
697,
696,
696,
697,
65d,
6bf,
6ef,
6bd,
6ed,
6ee,
6be,
65d,
6bd,
6ef,
6bf,
692,
6c0,
661,
662,
691,
6f0,
721,
6c1,
660,
663,
690,
6f2,
6c2,
6be,
6ee,
6ed,
68e,
68f,
6be,
6ed,
6ee,
6bd,
6bf,
6ef,
691,
6c1,
721,
6f0,
691,
720,
721,
6f1,
690,
6c2,
6f2,
71c,
71d,
6f1,
721,
720,
6c1,
6f0,
6f1,
720,
721,
74c,
74d,
77e,
74f,
751,
750,
750,
751,
6f3,
723,
752,
74f,
77e,
781,
780,
780,
781,
7b1,
782,
7c8,
799,
7e0,
7b0,
782,
811,
7b1,
754,
784,
7b2,
799,
827,
7c8,
7ca,
7f8,
828,
7c9,
7c9,
7cb,
7f8,
7f9,
828,
7ca,
7ca,
7cb,
7dc,
7dd,
7b0,
7e0,
783,
7e1,
843,
7e2,
7c9,
7ca,
827,
828,
859,
7f8,
7ca,
7fa,
828,
829,
858,
859,
7f9,
7f9,
829,
7fa,
840,
810,
7b1,
811,
7e4,
814,
812,
7c8,
7f8,
827,
7c9,
7ca,
7f8,
7f9,
829,
858,
859,
85a,
889,
828,
7f9,
7fa,
828,
82a,
859,
889,
829,
829,
859,
82a,
89d,
83e,
86f,
89f,
83f,
810,
8a2,
840,
858,
857,
7f9,
828,
857,
888,
8b9,
858,
7f8,
7f9,
828,
829,
82a,
85a,
889,
8b9,
859,
828,
859,
889,
88a,
85a,
88a,
88b,
85b,
88c,
85c,
86e,
86d,
86d,
86e,
83f,
89f,
86f,
8a0,
870,
8a1,
8d0,
8d1,
871,
813,
844,
874,
875,
8a4,
8a5,
873,
813,
844,
873,
875,
8a4,
8a5,
874,
813,
844,
873,
874,
8a4,
8a5,
875,
814,
816,
846,
8a6,
876,
816,
8a6,
8a7,
877,
847,
8d6,
878,
81a,
848,
849,
87b,
8ab,
8d8,
8da,
879,
84a,
8a8,
8aa,
87a,
81a,
84a,
879,
8aa,
8ab,
8da,
87b,
8ac,
8dc,
87c,
84e,
87e,
81d,
84f,
87f,
883,
882,
882,
883,
886,
884,
827,
885,
884,
887,
8e8,
886,
825,
886,
8e8,
887,
826,
827,
828,
829,
82a,
856,
857,
858,
859,
85a,
889,
88a,
8b8,
8e9,
888,
827,
828,
829,
82a,
857,
858,
859,
888,
88a,
88b,
8b8,
8ba,
8e9,
8ea,
8eb,
889,
828,
829,
82a,
82c,
858,
859,
85a,
85b,
888,
889,
88b,
8b8,
8e9,
8ea,
8eb,
8ec,
88a,
829,
82a,
82c,
859,
85c,
889,
88a,
8b9,
8ba,
8e9,
8ea,
8eb,
8ec,
8ed,
88b,
85c,
8bb,
8bc,
8ed,
8ee,
88c,
85d,
88f,
8bd,
8be,
88d,
82f,
85e,
88e,
82d,
830,
85d,
85f,
88d,
8bd,
88f,
831,
8c0,
890,
832,
862,
893,
892,
832,
862,
865,
892,
893,
832,
836,
864,
865,
894,
896,
8c4,
895,
895,
896,
868,
8c5,
897,
8f6,
8fa,
898,
83c,
8cb,
8fe,
89c,
83e,
89d,
83f,
86f,
8fe,
89f,
870,
8a0,
871,
8d1,
8a1,
840,
8a2,
845,
8d3,
8a3,
844,
873,
874,
875,
8a5,
8a4,
844,
873,
874,
875,
8a4,
8a5,
876,
877,
8a6,
845,
877,
8a7,
84a,
87a,
8aa,
8d7,
8a8,
848,
849,
84b,
8d8,
8d9,
8db,
8a9,
84a,
87a,
87b,
8a8,
8ab,
8aa,
879,
87b,
8aa,
8da,
8ab,
87c,
8ac,
8dd,
8ad,
8de,
8ae,
84d,
8af,
8e3,
8b2,
8e4,
8b3,
853,
8b4,
8b7,
8e6,
8b5,
8e7,
8b6,
8b5,
8e6,
8b7,
857,
858,
859,
888,
889,
88a,
8b9,
8ba,
8e9,
8ea,
8b8,
859,
88b,
8b8,
8ba,
8bb,
8ea,
8eb,
8b9,
858,
859,
85c,
889,
88b,
8b8,
8b9,
8bb,
8e9,
8ea,
8eb,
8ec,
8ba,
85c,
88c,
8b9,
8ba,
8ea,
8ed,
8bb,
88c,
8bc,
85d,
85f,
88d,
88f,
8bd,
85d,
88d,
8be,
8f1,
8bf,
890,
8c0,
8c3,
8f0,
8c2,
8c2,
8c3,
863,
895,
8c4,
897,
8c6,
8f4,
8c5,
868,
8c5,
8c6,
8f6,
8f7,
8f8,
8c8,
8ca,
8c9,
8c9,
8ca,
89c,
8cb,
8ce,
8cc,
8cc,
8ce,
871,
8d1,
8d0,
871,
8a1,
8d0,
8d1,
8a3,
8d3,
8d5,
8d6,
8d4,
8d4,
8d6,
8d5,
878,
8d4,
8d5,
8d6,
8a8,
8d7,
879,
8a9,
8d8,
8a9,
8db,
8d9,
879,
87b,
8ab,
8da,
8a9,
8d9,
8db,
87c,
8dc,
8ad,
8dd,
8ae,
8de,
8b2,
8e3,
8b3,
8e4,
8e7,
8e5,
8b5,
8b7,
8e6,
8b6,
8e5,
8e7,
886,
887,
8e8,
888,
889,
88a,
88b,
8b8,
8ba,
8ea,
8eb,
8e9,
889,
88a,
88b,
8b8,
8b9,
8ba,
8bb,
8e9,
8eb,
8ec,
8ea,
889,
88a,
88b,
8b9,
8ba,
8e9,
8ea,
8ec,
8ed,
8eb,
88a,
88b,
8ba,
8ea,
8eb,
8ec,
88b,
88c,
8bb,
8eb,
8ee,
8ed,
88c,
8ed,
8ee,
8f0,
8f1,
8ef,
8c2,
8ef,
8f0,
8bf,
8ef,
8f1,
8f4,
8f2,
8c5,
8f2,
8f4,
898,
8c8,
8f7,
8f8,
8f6,
8c8,
8f6,
8f8,
8f7,
8c8,
8f6,
8f7,
8f8,
898,
8fc,
8fa,
8fa,
8fc,
8ff,
8fd,
89c,
89f,
8fe,
8fd,
8ff;