memory_initialization_radix=16;
memory_initialization_vector=000,
030,
002,
032,
003,
033,
063,
005,
064,
007,
009,
007,
009,
00b,
00b,
00e,
00e,
03f,
070,
00f,
040,
010,
011,
012,
040,
041,
042,
071,
010,
011,
012,
040,
041,
042,
071,
073,
010,
011,
012,
040,
041,
042,
071,
073,
013,
014,
073,
013,
014,
046,
073,
015,
073,
016,
017,
018,
016,
017,
018,
019,
016,
017,
018,
019,
01a,
017,
018,
019,
01a,
01b,
018,
019,
01a,
01b,
04c,
019,
01a,
01b,
01c,
04b,
04c,
04d,
07d,
01b,
01c,
01d,
04a,
04b,
04c,
04d,
07d,
01c,
01d,
04b,
04d,
07c,
029,
02a,
029,
02a,
02b,
02d,
02c,
02e,
02b,
02d,
02f,
02c,
02e,
02f,
05f,
02d,
02e,
02f,
000,
030,
060,
091,
002,
032,
003,
033,
063,
092,
03a,
03e,
00e,
03f,
00f,
010,
011,
012,
040,
041,
042,
071,
010,
011,
012,
040,
041,
042,
071,
073,
010,
011,
012,
040,
041,
042,
071,
073,
043,
074,
045,
075,
014,
046,
047,
077,
046,
047,
048,
047,
048,
049,
049,
04a,
049,
04a,
04b,
07c,
01b,
01c,
01d,
04a,
04b,
04d,
07d,
01a,
01b,
01c,
04c,
04d,
07d,
01b,
01c,
01d,
04b,
04c,
04d,
07d,
04f,
050,
07f,
05d,
05e,
05d,
05e,
02e,
05f,
030,
060,
090,
091,
0c1,
032,
062,
003,
033,
063,
005,
064,
069,
06b,
069,
06b,
06d,
00e,
070,
00f,
010,
011,
012,
040,
041,
042,
071,
073,
072,
011,
012,
013,
014,
015,
041,
042,
071,
073,
043,
074,
075,
076,
045,
074,
075,
074,
076,
077,
078,
046,
076,
077,
078,
079,
076,
077,
078,
077,
079,
07a,
079,
07a,
07b,
01d,
04a,
07c,
01b,
01c,
04b,
04c,
04d,
07d,
050,
07f,
081,
082,
083,
084,
083,
084,
085,
060,
090,
0c0,
0c1,
030,
060,
091,
0c1,
033,
092,
032,
062,
064,
03a,
06d,
03e,
040,
042,
072,
043,
074,
076,
077,
045,
075,
045,
075,
07b,
04f,
081,
082,
082,
083,
083,
084,
083,
084,
083,
084,
085,
090,
0c0,
0f1,
060,
090,
091,
0c0,
0c1,
0c2,
122,
062,
092,
070,
072,
082,
081,
082,
085,
0ed,
11f,
14d,
0ee,
11e,
0ef,
14e,
0f0,
0f1,
121,
151,
0c0,
0f0,
0f1,
121,
151,
0f2,
122,
0c2,
14e,
0ed,
11d,
17d,
17e,
0ee,
11e,
17f,
0ed,
11f,
14d,
120,
150,
0f0,
0f1,
121,
151,
181,
0c2,
0f2,
122,
0c2,
122,
11d,
17d,
17e,
0ed,
11f,
14d,
0ef,
14e,
120,
150,
180,
1b0,
1b1,
0f0,
0f1,
121,
151,
181,
1b2,
0f2,
122,
11d,
17d,
17e,
11d,
17d,
17e,
11e,
17f,
150,
180,
1b0,
1e1,
121,
151,
181,
1b2,
122,
1ad,
20d,
150,
180,
1b0,
1b1,
1e0,
211,
150,
1b0,
1b1,
1b2,
1e0,
1e2,
210,
151,
1b2,
1e2,
210,
212,
20d,
180,
1b0,
1b1,
1e0,
1e2,
210,
180,
1e1,
211,
1b1,
1b2,
1e0,
1e2,
210,
241,
1ad,
20d,
1b1,
1b2,
1e0,
1e2,
210,
241,
271,
1b0,
1e1,
211,
272,
1b2,
212,
240,
241,
270,
271,
23d,
23f,
23d,
23f,
212,
240,
241,
242,
270,
2a0,
1e2,
210,
212,
240,
241,
271,
2a1,
242,
270,
26d,
26e,
29d,
29e,
212,
240,
242,
270,
2a0,
2d0,
210,
212,
241,
271,
2a1,
2d0,
211,
272,
2a2,
2d2,
26d,
29d,
29e,
26e,
29d,
29e,
26e,
29d,
29e,
240,
242,
270,
2a0,
2d0,
241,
271,
2a1,
2d1,
300,
302,
272,
2a2,
26d,
29d,
2cd,
2ce,
2fd,
2fe,
32d,
2cd,
2fd,
2ce,
2fe,
32d,
270,
271,
2a0,
2d0,
300,
302,
2a1,
2d1,
2d2,
301,
272,
2d1,
2d2,
301,
29d,
2fb,
32b,
2cd,
2ce,
2fc,
2fd,
2fe,
32c,
32d,
35d,
2cd,
2fd,
35d,
2ce,
2fe,
32d,
35d,
2a1,
2d0,
300,
302,
2a1,
2d1,
2d2,
301,
2a1,
2d0,
300,
302,
317,
346,
2fb,
32b,
35b,
38b,
2ce,
2fc,
32c,
35c,
2ce,
2fe,
32d,
32e,
38d,
330,
331,
360,
361,
330,
331,
360,
361,
392,
345,
374,
317,
346,
374,
375,
2fb,
32b,
35b,
38b,
32c,
35c,
38c,
2fd,
2fe,
35d,
330,
331,
360,
361,
330,
331,
360,
361,
362,
3c2,
362,
345,
374,
317,
346,
374,
375,
317,
375,
32b,
35b,
38b,
32d,
35c,
38c,
32e,
38d,
3bd,
38f,
3bf,
390,
391,
390,
391,
392,
3f2,
362,
345,
374,
35d,
38d,
3bd,
38f,
3bf,
3c1,
420,
3c2,
3f2,
38d,
3bd,
3ed,
3ed,
3f1,
450,
3f2,
3f2,
3ed,
41d,
41d,
3c1,
420,
421,
480,
422,
452,
482,
422,
482,
3ed,
3f1,
450,
451,
422,
452,
3f2,
481,
4b1,
4b2,
47f,
4df,
421,
480,
481,
4b1,
4e1,
422,
482,
4b2,
4e2,
4ae,
4de,
481,
4b1,
4e1,
510,
512,
482,
4b2,
4e2,
510,
511,
512,
451,
4ae,
4de,
47f,
4df,
481,
4b1,
4e1,
510,
542,
482,
4b2,
4e2,
510,
511,
512,
540,
541,
50f,
53f,
56f,
4b1,
4b2,
4e1,
510,
511,
512,
542,
570,
4b2,
4e2,
510,
511,
512,
540,
541,
570,
571,
4b1,
4b2,
4e2,
510,
511,
512,
540,
570,
523,
553,
524,
554,
584,
53e,
59e,
50f,
53f,
56f,
4e2,
511,
512,
540,
541,
571,
5a1,
4e2,
511,
540,
541,
571,
5a1,
4e1,
510,
542,
570,
5a0,
551,
581,
551,
552,
581,
582,
551,
552,
582,
523,
553,
583,
524,
554,
584,
56d,
59d,
50f,
53f,
56f,
510,
511,
512,
542,
570,
5a0,
511,
540,
541,
571,
5a1,
5d0,
572,
5a2,
551,
581,
582,
551,
552,
581,
582,
553,
583,
524,
554,
584,
56d,
59d,
53e,
59e,
5fe,
542,
570,
5a0,
540,
541,
571,
5a1,
5d0,
5d2,
572,
5a2,
5b1,
5b2,
5b1,
5b2,
584,
56f,
571,
5a1,
5d0,
5d2,
5a1,
5d0,
5d2,
571,
5a1,
5d2,
5fe,
62f,
62a,
65a,
62d,
65d,
5fe,
62f,
631,
631,
62a,
65a,
62d,
65d,
6bd,
660,
690,
6c2,
661,
691,
6c1,
6c2,
68d,
68e,
68f,
6ee,
68e,
68f,
6ee,
660,
690,
6c2,
6f2,
661,
691,
6c1,
6f0,
6f1,
692,
6c0,
65d,
6bd,
6bf,
6ef,
6be,
6ed,
6ee,
6bd,
6bf,
6ef,
692,
6c0,
661,
691,
6c1,
6f0,
721,
660,
690,
6c2,
6f2,
68d,
6be,
6ed,
6ee,
68e,
6be,
6ed,
6ee,
6bd,
6bf,
6ef,
691,
6c1,
6f0,
721,
691,
6f1,
720,
721,
690,
6c2,
6f2,
752,
71d,
71d,
6f1,
720,
721,
6c1,
6f0,
6f1,
720,
721,
752,
74d,
74d,
74f,
77e,
750,
751,
750,
751,
752,
7b2,
74f,
77e,
780,
781,
780,
781,
782,
7b1,
7b2,
799,
7c8,
7b0,
7e0,
782,
7b1,
811,
7b2,
799,
7c8,
7c9,
7ca,
7f8,
828,
7c9,
7ca,
7cb,
7f8,
7f9,
828,
7ca,
7cb,
7b0,
7e0,
7e2,
812,
7c9,
7ca,
7f8,
828,
859,
7ca,
7f9,
7fa,
828,
829,
858,
859,
7f9,
7fa,
829,
810,
840,
7b1,
811,
812,
873,
874,
875,
812,
876,
876,
877,
879,
87b,
887,
888,
7c8,
7f8,
885,
888,
889,
7c9,
7ca,
7f8,
7f9,
828,
829,
858,
859,
85a,
888,
889,
88a,
7f9,
7fa,
828,
829,
859,
889,
88a,
88b,
829,
859,
888,
889,
88a,
88b,
88b,
88e,
890,
892,
893,
894,
894,
89c,
83e,
89d,
83f,
86f,
89f,
810,
840,
8a2,
7e2,
873,
874,
875,
8a4,
8a5,
8a3,
8a7,
876,
878,
879,
8a9,
879,
8a9,
87a,
8a8,
8aa,
8a9,
8af,
87e,
888,
858,
888,
889,
7f9,
828,
858,
888,
889,
88a,
8b8,
7f8,
7f9,
828,
829,
859,
85a,
888,
889,
88a,
88b,
8b8,
8ba,
828,
859,
85a,
888,
88a,
88a,
88b,
88c,
8ba,
8bb,
88d,
88f,
8bd,
8be,
88e,
88f,
8bd,
892,
893,
8c4,
894,
893,
894,
897,
86f,
89f,
870,
8a0,
871,
8d0,
8d1,
873,
874,
875,
8a4,
873,
874,
875,
8a4,
8a5,
873,
874,
875,
8a4,
8a5,
876,
877,
8a6,
878,
8d6,
879,
8ab,
8d8,
8da,
87a,
8a8,
8aa,
87b,
8aa,
8ab,
8da,
87c,
8ac,
8dc,
87e,
882,
883,
882,
883,
884,
886,
885,
884,
886,
887,
8e8,
886,
887,
8e8,
858,
888,
889,
88a,
8e9,
828,
829,
859,
85a,
888,
889,
88a,
88b,
8b8,
8ba,
8e9,
8ea,
8eb,
85a,
888,
889,
88a,
88b,
8b8,
8e9,
8eb,
8ec,
889,
88a,
88b,
8ba,
8e9,
8ea,
8eb,
8ec,
8ed,
88c,
8bb,
88d,
88f,
8bd,
8be,
88e,
88d,
88f,
8bd,
890,
8c0,
892,
893,
892,
893,
894,
895,
896,
8c4,
895,
896,
897,
8c5,
8fa,
89c,
8cb,
8fe,
83e,
89d,
83f,
86f,
89f,
8fe,
870,
8a0,
8a1,
8d1,
840,
8a2,
8a3,
8d3,
873,
874,
875,
8a4,
8a5,
874,
8a4,
8a5,
876,
877,
8a6,
8a7,
87a,
8a8,
8aa,
8d7,
8a9,
8d8,
8d9,
8db,
87a,
87b,
8a8,
8aa,
879,
87b,
8aa,
8ab,
8da,
87c,
8ac,
8ae,
8de,
8af,
8b2,
8e3,
8b3,
8e4,
8b5,
8b7,
8e6,
8b6,
8e7,
8b5,
8b7,
8e6,
888,
889,
88a,
8b8,
8ba,
8e9,
8ea,
858,
859,
8b9,
8ba,
8bb,
8ea,
889,
88b,
8b8,
8b9,
8ba,
8bb,
8e9,
8ea,
8eb,
88c,
8b9,
8ba,
8bb,
8ed,
88d,
88f,
8bd,
88d,
8be,
8bf,
8f1,
890,
8c0,
8c2,
8c3,
8f0,
8c2,
8c3,
895,
8c4,
897,
8c5,
8f4,
8c8,
8f6,
8f7,
8f8,
8c9,
8ca,
8c9,
8ca,
89c,
8cb,
8cc,
8ce,
8cc,
8ce,
871,
8d0,
871,
8a1,
8d1,
8a3,
8d3,
8d4,
8d5,
8d6,
8d4,
8d5,
8d6,
878,
8d4,
8d5,
8d6,
8a8,
8d7,
879,
8a9,
8d8,
8d9,
8db,
879,
87b,
8ab,
8da,
8a9,
8d9,
8db,
87c,
8dc,
8ae,
8de,
8b2,
8e3,
8b3,
8e4,
8e5,
8e7,
8b5,
8b7,
8e6,
8b6,
8e5,
8e7,
886,
887,
8e8,
888,
889,
88a,
88b,
8b8,
8ba,
8e9,
8ea,
8eb,
889,
88b,
8b8,
8b9,
8ba,
8e9,
8ea,
8eb,
889,
88a,
88b,
8ba,
8e9,
8ea,
8eb,
8ec,
8ed,
88a,
88b,
8eb,
8ec,
88b,
8bb,
8eb,
8ed,
8ee,
8ed,
8ee,
8ef,
8f0,
8f1,
8c2,
8ef,
8f0,
8bf,
8ef,
8f1,
8f2,
8f4,
8c5,
8f2,
8f4,
8c8,
8f6,
8f7,
8f8,
8c8,
8f6,
8f7,
8f8,
8c8,
8f6,
8f7,
8f8,
8fa,
8fc,
8fa,
8fc,
8fd,
8ff,
89c,
89f,
8fe,
8fd,
8ff;