memory_initialization_radix=16;
memory_initialization_vector=3f000000,
3f000000,
2ed8cffb,
2ed8cffb,
2ed8cffb,
2ed8cffb,
35b94589,
3effffe8,
3effffe8,
2fe9b870,
2fe9b870,
3eaaaaab,
3eaaaaab,
3eaaaaab,
35b8faee,
3ace2f9f,
3eff98d2,
3eff98d2,
3f000000,
3f000000,
3f000000,
3f000000,
3f000000,
3f000000,
380d9c0e,
3b433b75,
3eff3a8e,
3eff3a8e,
3efe8eb8,
3bb8a3f8,
3efe8eb8,
3efffdc9,
380e0860,
2ecd9557,
3efffdc9,
2ed8cffb,
2ed8cffb,
35b94589,
3effffe8,
3effffe8,
2ed8cffb,
2ed8cffb,
2ed8cffb,
2ed8cffb,
2ed8cffb,
3f000000,
3f000000,
3f000000,
3f000000,
3972189d,
3effe1bd,
3972189d,
3effe1bd,
3795c908,
3795c908,
3efffda9,
3efffda9,
3f000000,
3f000000,
3f000000,
3f000000,
3f000000,
3f000000,
35b94589,
3effffe8,
3effffe8,
2ed8cffb,
2ed8cffb,
3f000000,
3f000000,
3efffed5,
3795c9b7,
3efffed5,
3f000000,
3f000000,
3f000000,
3f000000,
3f000000,
3f000000,
3effe1bd,
3972189d,
3972189d,
3effe1bd,
2ed8cffb,
2ed8cffb,
3f000000,
3f000000,
3ca3a082,
3efae2fb,
3efae2fb,
3f000000,
3f000000,
3f000000,
3f000000,
3f000000,
3f000000,
3f000000,
3f000000,
3f000000,
3f000000,
3f000000,
3f000000,
3f000000,
3f000000,
3efe8d8f,
3794f1a5,
3bb8a321,
3efe8d8f,
2ed8cffb,
2ed8cffb,
2ed8cffb,
2ed8cffb,
3f000000,
3f000000,
2ed8cffb,
2ed8cffb,
3f000000,
3f000000,
3795c9b7,
3efffed5,
3efffed5,
3286628c,
3f000000,
3f000000,
3543629c,
3efffff3,
3efffff3,
3f000000,
3f000000,
3f000000,
3f000000,
3286628c,
3f000000,
3f000000,
3eaaaaab,
3eaaaaab,
3eaaaaab,
3f000000,
3f000000,
3f000000,
3f000000,
3f000000,
3f000000,
3f000000,
3f000000,
3f000000,
3f000000,
3f000000,
3f000000,
3f000000,
3f000000,
3f000000,
3f000000,
3f000000,
3f000000,
3f000000,
3f000000,
3f000000,
3f000000,
3bb8a3f8,
3efe8eb8,
3efe8eb8,
3f000000,
3f000000,
2ed8cffb,
2ed8cffb,
3f000000,
3f000000,
3efffdc9,
380e0860,
3efffdc9,
3795c908,
3795c908,
3efffda9,
3efffda9,
3f000000,
3f000000,
39e59201,
3effe34e,
3effe34e,
3f000000,
3f000000,
3f000000,
3f000000,
3f000000,
3f000000,
3f000000,
3f000000,
3f000000,
3f000000,
3f000000,
3f000000,
3f000000,
3f000000,
3f000000,
3f000000,
3795c9b7,
3efffed5,
3efffed5,
3eee8416,
3d8bdf57,
3eee8416,
3f000000,
3f000000,
3543629c,
3efffff3,
3efffff3,
3efffdc9,
380e0860,
3efffdc9,
3efae2e5,
353f7b82,
3ca3a074,
353f7b82,
3efae2e5,
3f000000,
3f000000,
3f000000,
3f000000,
3efae2fb,
3ca3a082,
3efae2fb,
3f000000,
3f000000,
3f000000,
3f000000,
3f000000,
3f000000,
3f000000,
3f000000,
3f000000,
3f000000,
3eff98e9,
3ace2fb2,
3eff98e9,
3f000000,
3f000000,
3f000000,
3f000000,
3f000000,
3f000000,
3f000000,
3f000000,
3f000000,
3f000000,
2ed8cffb,
2ed8cffb,
3f000000,
3f000000,
3f000000,
3f000000,
3f000000,
3f000000,
2ed8cffb,
2ed8cffb,
3f000000,
3f000000,
3f000000,
3f000000,
3f000000,
3f000000,
3f000000,
3f000000,
3f000000,
3f000000,
3f000000,
3f000000,
2ed8cffb,
2ed8cffb,
3371aade,
3f000000,
3f000000,
2ed8cffb,
2ed8cffb,
3f000000,
3f000000,
3f000000,
2ecd971e,
3f000000,
3f000000,
3f000000,
2ed8cffb,
2ed8cffb,
2ed8cffb,
2ed8cffb,
2ed8cffb,
3f000000,
3f000000,
3f000000,
3f000000,
3acddcb8,
3acddcb8,
35b8b08d,
3eff320c,
3eff320c,
3f000000,
302f4a54,
3f000000,
3efffb8e,
33e524b0,
380e0724,
380e0724,
3efffb8e,
3ac387b4,
3e7f9e3c,
3e7f9e3c,
3e7f9e3c,
3e7f9e3c,
3f000000,
3f000000,
3f000000,
3f000000,
3f000000,
3f000000,
3f000000,
3f000000,
3f000000,
3f000000,
3f000000,
302f4a54,
3f000000,
2ed8cffb,
2ed8cffb,
3f000000,
3f000000,
2ed8cffb,
2ed8cffb,
3f000000,
3f000000,
3f000000,
3f000000,
3effe34e,
39e59201,
3effe34e,
3eff3cc4,
3b433d26,
3eff3cc4,
3f000000,
3f000000,
3f000000,
3f000000,
3f000000,
3f000000,
3f000000,
3f000000,
3f000000,
3f000000,
3f000000,
3f000000,
3f000000,
3f000000,
3f000000,
3f000000,
3f000000,
3f000000,
2ed8cffb,
2ed8cffb,
3f000000,
3f000000,
3f000000,
3f000000,
2ed8cffb,
2ed8cffb,
3eedda91,
3b35f10e,
3d8b7bed,
3eedda91,
3f000000,
3f000000,
3eee8416,
3d8bdf57,
3eee8416,
3f000000,
3f000000,
3f000000,
3f000000,
3f000000,
3f000000,
3f000000,
3f000000,
3f000000,
3f000000;