memory_initialization_radix=16;
memory_initialization_vector=3f000000,
3f000000,
3eee8416,
3d8bdf57,
3eee8416,
3f000000,
3f000000,
3f000000,
3f000000,
3f000000,
3f000000,
3f000000,
3f000000,
3f000000,
3f000000,
3eaaaaab,
3eaaaaab,
3eaaaaab,
3eff3cc4,
3b433d26,
3eff3cc4,
3efff0df,
397226ed,
3efff0df,
3f000000,
3f000000,
3f000000,
3f000000,
3f000000,
3f000000,
3f000000,
3286628c,
3f000000,
3f000000,
3f000000,
35b94589,
3effffe8,
3effffe8,
3f000000,
3f000000,
3286628c,
3f000000,
3f000000,
3f000000,
3f000000,
3f000000,
3f000000,
3f000000,
3f000000,
3f000000,
3f000000,
3286628c,
3f000000,
3286628c,
3f000000,
3eaaaaab,
3eaaaaab,
3eaaaaab,
3f000000,
3f000000,
3eaaaaab,
3eaaaaab,
3eaaaaab,
3795c9b6,
3efffed4,
3efffed4,
3f000000,
3f000000,
3f000000,
3f000000,
33e528a8,
3efffffe,
3efffffe,
3f000000,
3f000000,
3f000000,
3f000000,
3f000000,
3f000000,
2ed8cffb,
2ed8cffb,
3eee8416,
3d8bdf57,
3eee8416,
2ed8cffb,
2ed8cffb,
3ef67925,
3d186dac,
3ef67925,
3f000000,
3f000000,
3f000000,
3f000000,
380e0860,
3efffdc9,
3efffdc9,
3f000000,
3f000000,
3f000000,
3f000000,
3f000000,
3f000000,
3bb8a3f8,
3efe8eb8,
3efe8eb8,
3f000000,
3f000000,
3f000000,
3f000000,
3f000000,
3f000000,
3f000000,
3f000000,
3f000000,
302f4a54,
3f000000,
3543628b,
3543628b,
3effffdc,
3543628b,
3effffdc,
2e5878ab,
3371498b,
3ace2fb1,
3eff98e8,
3eff98e8,
3d186dac,
3ef67925,
3ef67925,
2ed8cffb,
2ed8cffb,
3f000000,
3f000000,
3f000000,
3f000000,
3eaaaaab,
3eaaaaab,
3eaaaaab,
2ed8cffb,
2ed8cffb,
2ed8cffb,
3efff0df,
397226ed,
3efff0df,
302f4a54,
3f000000,
302f4a54,
3f000000,
3efff0df,
302f3ff8,
397226ed,
3efff0df,
302f4a54,
3f000000,
3f000000,
3efffffe,
33e528a8,
3efffffe,
35b94589,
3effffe8,
3effffe8,
3ac68661,
3d183292,
2e506d85,
3ef61994,
3ef61994,
3f000000,
3f000000,
3ef67925,
3d186dac,
3ef67925,
3f000000,
3f000000,
3efffdc9,
380e0860,
3efffdc9,
3f000000,
3f000000,
3bb8a3f8,
3efe8eb8,
3efe8eb8,
3eff3cc4,
3b433d26,
3eff3cc4,
3f000000,
3f000000,
2ecd971e,
2ecd971e,
3f000000,
3f000000,
3f000000,
3f000000,
3f000000,
3f000000,
2ebf8c91,
3d8bdf57,
3eee8416,
3eee8416,
3f000000,
3f000000,
3f000000,
3f000000,
3f000000,
3f000000,
3eaaaaab,
3eaaaaab,
3eaaaaab,
380e0860,
3efffdc9,
3efffdc9,
3eaa063b,
3232816c,
3eaa063b,
3b76a68f,
3eaa063b,
3ef5f93c,
3ca06c36,
30286ccb,
3ca06c36,
3ef5f93c,
2e5821a0,
3370e887,
3eff3222,
3acddcc9,
3acddcc9,
3eff3222,
3f000000,
3f000000,
3795c9b6,
3efffed4,
3efffed4,
3f000000,
3f000000,
3ace2f9f,
3eff98d2,
35b8faee,
3eff98d2,
3eff3224,
3acddccb,
3acddccb,
3eff3224,
3eaaaaab,
2e890f6a,
3eaaaaab,
3eaaaaab,
3f000000,
3f000000,
3effffe8,
35b94589,
3effffe8,
3eff98ea,
3ace2fb2,
3eff98ea,
3f000000,
3f000000,
3f000000,
3f000000,
3371aadc,
3371aadc,
3efffffe,
2e58cff9,
3efffffe,
3371aadc,
3371aadc,
3efffffe,
2e58cff9,
3efffffe,
397226ed,
3efff0df,
3efff0df,
3efae2f0,
3ca3a07b,
353f7b8b,
3efae2f0,
3f000000,
3f000000,
3286628b,
3286628b,
3effffff,
3effffff,
3f000000,
3f000000,
3f000000,
3f000000,
3eff98ea,
3ace2fb2,
3eff98ea,
3eaaaaab,
3eaaaaab,
3eaaaaab,
35b94589,
3effffe8,
3effffe8,
3ace2fb2,
3eff98ea,
3eff98ea,
3543629c,
3efffff3,
3efffff3,
3f000000,
3f000000,
3f000000,
3f000000,
3f000000,
3f000000,
2ed8cffb,
2ed8cffb,
3f000000,
3f000000,
3f000000,
3f000000,
3f000000,
3f000000,
3eff98e9,
3ace2fb2,
3eff98e9,
3f000000,
3f000000,
3f000000,
3f000000,
3f000000,
3f000000,
3efae2fb,
3ca3a082,
3efae2fb,
3f000000,
3f000000,
3bb8a321,
3efe8d8f,
3794f1a5,
3efe8d8f,
3efe8eb8,
3bb8a3f8,
3efe8eb8,
3d8bdf57,
3eee8416,
3eee8416,
3b433d26,
3eff3cc4,
3eff3cc4,
3f000000,
3f000000,
3f000000,
3f000000,
3bb8a3f8,
3efe8eb8,
3efe8eb8,
3f000000,
3f000000,
3f000000,
3f000000,
3bb8a3f8,
3efe8eb8,
3efe8eb8,
3f000000,
3f000000,
3f000000,
3f000000,
3795c9b7,
3efffed5,
3efffed5,
3f000000,
2ecd971e,
3f000000,
3f000000,
3f000000,
3f000000,
3f000000,
3f000000,
3f000000,
3effffe8,
35b94589,
3effffe8,
3f000000,
3f000000,
3f000000,
3f000000,
3286628c,
3f000000,
3f000000,
3f000000,
3f000000,
3f000000,
3f000000,
3efffed5,
3795c9b7,
3efffed5,
3f000000,
2ecd971e,
3f000000,
3f000000,
3f000000,
3efffffe,
33e528a8,
3efffffe,
3f000000,
3f000000,
3f000000,
3286628c,
3f000000,
3e910636,
3e18f0be,
3e910636,
3a69fa42,
2df5a620,
3e910636,
39e59201,
3effe34e,
3effe34e,
3f000000,
3f000000,
3ea860f6,
350082be,
3ea860f6,
3c5ba1ac,
3ea860f6,
3f000000,
3f000000,
3f000000,
3f000000,
2ebf046e,
3d8b7bed,
3b35f10e,
33d4ea4c,
3eedda91,
3eedda91,
3f000000,
3f000000,
3f000000,
3f000000,
3efe8c68,
3794f0f9,
32859f7b,
3bb8a24b,
3794f0f9,
3efe8c68,
3f000000,
3f000000,
3f000000,
3f000000,
2ed8cffb,
2ed8cffb,
2ebf8c91,
2ebf8c91,
3d8bdf57,
3eee8416,
3eee8416,
3f000000,
3f000000,
3f000000,
3f000000,
3f000000,
2ecd971e,
3f000000,
2ed8cffb,
2ed8cffb,
3efffdc9,
380e0860,
3efffdc9,
3f000000,
3f000000,
3f000000,
3f000000,
399911b9,
3eaa9de9,
3eaa9de9,
3eaa9de9,
3f000000,
3f000000,
3f000000,
3f000000,
3f000000,
3f000000,
3b433d26,
3eff3cc4,
3eff3cc4,
380e0860,
3efffdc9,
3efffdc9,
2ed8cffb,
2ed8cffb,
3f000000,
3f000000,
3f000000,
3f000000,
3371aade,
3f000000,
3f000000,
3eaaaaab,
3eaaaaab,
3eaaaaab,
3f000000,
3f000000,
3f000000,
3f000000,
3f000000,
3371aade,
3f000000,
3f000000,
3f000000,
3f000000,
3f000000,
3f000000,
3f000000,
3286628c,
3f000000,
3f000000,
3f000000,
3f000000,
3b433d26,
3eff3cc4,
3eff3cc4,
33e528a8,
3efffffe,
3efffffe,
3b433d26,
2eccfa54,
3eff3cc4,
3eff3cc4,
3effe1bd,
3972189d,
3972189d,
3effe1bd,
3efffed5,
3795c9b7,
328661ef,
3efffed5,
3f000000,
3f000000,
3eaaaaab,
3eaaaaab,
3eaaaaab,
3ace2fb2,
3eff98e9,
3eff98e9,
328661ef,
3efffed5,
3795c9b7,
3efffed5,
3f000000,
3f000000,
3f000000,
3f000000,
33714871,
37958d64,
3eff97bd,
3ace2ebf,
3eff97bd,
3f000000,
3f000000,
3efffdc9,
380e0860,
3efffdc9,
3eee8412,
3d8bdf55,
33d58208,
3eee8412,
3f000000,
3f000000,
3f000000,
3f000000,
37958d65,
3eff97bf,
3ace2ec1,
3eff97bf,
3f000000,
3f000000,
3f000000,
3f000000,
3eee8416,
3d8bdf57,
3eee8416,
3eaaaaab,
3eaaaaab,
3eaaaaab,
3eaaaaab,
3eaaaaab,
3eaaaaab,
3f000000,
3f000000,
3f000000,
3f000000,
3ca3a082,
3efae2fb,
302bca02,
3efae2fb,
3effffe8,
35b94589,
3effffe8,
3f000000,
3f000000,
397226ed,
3efff0df,
3efff0df,
2e58cffb,
3f000000,
2e58cffb,
3f000000,
3d8bdf57,
3eee8416,
3eee8416,
3f000000,
3f000000,
3f000000,
3f000000,
3f000000,
3f000000,
3bb8a3f8,
3285a0b2,
3285a0b2,
3efe8eb8,
3285a0b2,
3efe8eb8,
2e5878ac,
3eff98ea,
3ace2fb2,
3eff98ea,
3efad473,
396d50ff,
3ca39708,
3efad473,
3368ac8e,
3ef67925,
3d186dac,
2e50be74,
3ef67925,
3eaaaaab,
3eaaaaab,
3eaaaaab,
302f4a54,
302f4a54,
3f000000,
3f000000,
2e5878ab,
3eff98e8,
3ace2fb1,
3371498b,
3eff98e8,
3c9d576e,
3c9d576e,
3c9d576e,
3ef13fce,
3ef13fce,
302f4a54,
302f4a54,
3f000000,
3f000000,
3f000000,
3f000000,
3f000000,
3f000000,
3f000000,
3f000000,
2ecd971e,
3f000000,
2ecd971e,
3f000000,
3e55a4c1,
2e2b930c,
3eca95e2,
376d12cf,
3eca95e2,
3e55a4c1,
2e2b930c,
3eca95e2,
376d12cf,
3eca95e2,
3effe1bd,
3972189d,
3972189d,
3effe1bd,
3f000000,
3f000000,
3543629c,
3efffff3,
302f4a4b,
3efffff3,
3eaaaaab,
3eaaaaab,
3eaaaaab,
2aaee65b,
2aaee65b,
2aaee65b,
2aaee65b,
3d3e79b0,
2e826c7d,
3ea2672d,
3ea2672d,
3af8743f,
37b436a6,
3ea2672d,
3ca06c30,
3ca06c30,
3ef5f932,
30286cc4,
353bbb9a,
3ef5f932,
30286cc4,
3ca06c30,
353bbb9a,
3ca06c30,
3ef5f932,
3ef5f932,
3f000000,
3f000000,
3efffdc9,
2ecd9557,
380e0860,
3efffdc9,
2e2b93ab,
333f3f02,
3eca969e,
3e55a588,
3eca969e,
3306f009,
37274641,
3306f009,
3e8ef0bc,
3e16be25,
3e16be25,
2df21e7f,
3e16be25,
3e8ef0bc,
3ea2b61e,
3d3ed646,
3391a6c1,
3391a6c1,
3391a6c1,
2e82abe3,
2e82abe3,
3ea2b61e,
37b48e3f,
3ea2b61e,
3e8ef11a,
3306f061,
3e16be87,
3e16be87,
2df21f1d,
3e16be87,
3e8ef11a,
3f000000,
3f000000,
333f3f02,
3eca969e,
3e55a588,
3eca969e,
3f000000,
3f000000,
3f000000,
3f000000,
3f000000,
3f000000,
3f000000,
3f000000,
3eaaaaab,
3eaaaaab,
3eaaaaab,
3f000000,
3f000000,
3acddccb,
3eff3224,
3acddccb,
3eff3224,
3eaaaaab,
3eaaaaab,
32332e10,
3eaaaaab,
3eaaaaab,
3eaaaaab,
3eaaaaab,
397226ed,
3efff0df,
3efff0df,
3972189b,
3972189b,
302f359b,
3effe1bc,
3effe1bc,
3f000000,
3371aade,
3f000000,
3effc6a2,
39e57848,
39e57848,
3effc6a2,
2ed8cffb,
2ed8cffb,
3285a0b2,
3efe8eb8,
3bb8a3f8,
3efe8eb8,
3eaaaaab,
3eaaaaab,
3eaaaaab,
3f000000,
3f000000,
3f000000,
3f000000,
3eff320e,
3acddcb9,
35b8b08e,
3acddcb9,
3eff320e,
3eaaaaab,
3eaaaaab,
3eaaaaab,
2e267c03,
3e4f4e39,
3ec49355,
3cf323b8,
3ec49355,
3f000000,
3f000000,
3f000000,
3f000000,
380e0860,
3efffdc9,
3efffdc9,
3f000000,
3f000000,
3f000000,
3f000000,
3efffed4,
3795c9b6,
3efffed4,
3f000000,
3286628c,
3f000000,
3efffda9,
3795c908,
3795c908,
3efffda9,
2e506d85,
33685257,
3ef61994,
2e506d85,
3ac68661,
3d183292,
3ef61994,
3efffdc9,
2ecd9557,
2ecd9557,
380e0860,
3efffdc9,
380cc557,
3b421370,
3b421370,
2ecbc1c4,
3b421370,
3efdb790,
33e31d82,
3efdb790,
2eb2d4f5,
3b2a55cc,
3d829609,
37f719fb,
33c75537,
3d829609,
3edeae37,
2eb2d4f5,
3edeae37,
3371a9c3,
2e58cefd,
3371a9c3,
3795c9b6,
3efffed4,
3efffed4,
3e76f1e1,
3d10d0bb,
3789036f,
3e76f1e1,
3e76f1e1,
3e76f1e1,
3e9b308a,
2e7942f6,
3d3603da,
3d3603da,
3aed6b27,
2e7942f6,
3e9b308a,
3e9b308a,
3b34ecf8,
2ebdf35f,
3b34ecf8,
38033b82,
3d8ab489,
3eec868e,
38033b82,
3b34ecf8,
3eec868e,
38039883,
33d44ffb,
3d8b16d5,
3b356d30,
3eed2e2d,
2ebe79fc,
3b356d30,
38039883,
3eed2e2d,
3e2c6730,
2e0a7467,
3e2c6730,
3ea37ac5,
3cca3437,
3ea37ac5,
3f000000,
3f000000,
3eff98e9,
3ace2fb2,
3eff98e9,
3eaaaaab,
3eaaaaab,
3eaaaaab,
3f000000,
3f000000,
3eca969e,
3e55a588,
3eca969e,
3f000000,
3f000000,
3eff3224,
3acddccb,
3acddccb,
3eff3224,
3efffed4,
3795c9b6,
3efffed4,
2fe9b870,
3eaaaaab,
3eaaaaab,
3eaaaaab,
3eff3cc4,
3b433d26,
3eff3cc4,
3f000000,
3f000000,
3eaaaaab,
3eaaaaab,
3eaaaaab,
397226ed,
3efff0df,
302f3ff8,
3efff0df,
39217277,
3eaaa3f1,
3eaaa3f1,
3eaaa3f1,
3f000000,
3f000000,
333f3f02,
3e55a588,
3eca969e,
3eca969e,
2e2b93ab,
3eca969e,
3e55a588,
3eca969e,
3ca3a082,
3efae2fb,
3efae2fb,
3b433d26,
3eff3cc4,
3eff3cc4,
3eedd6bc,
3d8b79ae,
3b35ee20,
3803f609,
3803f609,
3eedd6bc,
3bb8a3f8,
3efe8eb8,
3efe8eb8,
33e528a8,
3efffffe,
3efffffe,
3f000000,
3f000000,
3efffff3,
3543629c,
3efffff3,
3f000000,
3f000000,
3f000000,
3f000000,
3eff98ea,
3ace2fb2,
3eff98ea,
3c5b9919,
3ea85a63,
3ea85a63,
391f4875,
35007dba,
2fe68d57,
35007dba,
3ea85a63,
3eaa05b7,
3eaa05b7,
323280e2,
3b76a5cf,
3746f77f,
3eaa05b7,
3eaaa9ae,
37bd610c,
3eaaa9ae,
2e890e9f,
3eaaa9ae,
3d8bdf56,
33d58209,
3eee8414,
3eee8414,
3efffb90,
380e0725,
380e0725,
2ecd938e,
3efffb90,
3e2c6730,
2e0a7467,
3e2c6730,
3ea37ac5,
3cca3437,
2e0a7467,
3ea37ac5,
2eccfa51,
3eff3cc0,
2eccfa51,
2eccfa51,
33e479e3,
3b433d23,
3eff3cc0,
3e9b77d1,
37ac8496,
3e9b77d1,
3d365772,
3d365772,
338b2ae0,
3e9b77d1,
3f000000,
3f000000,
3f000000,
3f000000,
3f000000,
3f000000,
3eaaaaab,
32332e10,
3eaaaaab,
3eaaaaab,
3f000000,
3f000000,
3f000000,
3f000000,
3eaaa3f0,
3eaaa3f0,
39217276,
3eaaa3f0,
302f3ff8,
3efff0df,
397226ed,
3efff0df,
3371aade,
3f000000,
3f000000,
3f000000,
3f000000,
3f000000,
3f000000,
3d8bdf57,
3eee8416,
3eee8416,
3f000000,
3f000000,
3f000000,
3f000000,
3795c9b6,
3efffed4,
3efffed4,
3795c9b6,
3efffed4,
3efffed4,
39e59201,
3effe34e,
3effe34e,
3f000000,
3f000000,
3f000000,
3f000000,
3eff3cc4,
3b433d26,
3eff3cc4,
33e528a5,
33e528a5,
3efffffa,
33e528a5,
3efffffa,
380e0725,
2ecd938e,
3efffb90,
380e0725,
3efffb90,
3eff2fce,
2e581fa8,
37955094,
3acddae8,
3acddae8,
3370e654,
37955094,
3eff2fce,
3eaa52d3,
3eaa52d3,
3b024922,
37bd00aa,
3eaa52d3,
3f000000,
3f000000,
3f000000,
3f000000;