memory_initialization_radix=16;
memory_initialization_vector=3f000000,
3f000000,
3f000000,
3f000000,
3f000000,
3f000000,
3f000000,
3f000000,
3f000000,
3f000000,
3f000000,
3f000000,
3f000000,
3f000000,
3f000000,
3f000000,
3f000000,
3f000000,
3f000000,
3f000000,
2ed8cffb,
2ed8cffb,
3f000000,
3f000000,
2ecd971e,
3f000000,
3f000000,
3f000000,
3f000000,
3f000000,
3f000000,
2ed8cffb,
2ed8cffb,
3f000000,
3f000000,
3f000000,
3f000000,
3f000000,
3f000000,
2ed8cffb,
2ed8cffb,
3f000000,
3f000000,
3f000000,
3f000000,
3efffff3,
3543629c,
3efffff3,
3efae2fb,
3ca3a082,
3efae2fb,
3f000000,
3f000000,
3f000000,
3f000000,
3f000000,
3f000000,
3f000000,
3f000000,
3f000000,
3f000000,
3f000000,
3f000000,
3f000000,
3f000000,
3f000000,
3f000000,
3f000000,
3f000000,
2ed8cffb,
2ed8cffb,
3efe8eb8,
3bb8a3f8,
3efe8eb8,
3f000000,
3f000000,
3f000000,
3f000000,
2ed8cffb,
2ed8cffb,
3f000000,
3f000000,
3f000000,
3f000000,
3795c9b7,
3efffed5,
3efffed5,
3f000000,
3f000000,
3f000000,
3371aade,
3f000000,
3f000000,
3371aade,
3f000000,
3eaaaaab,
3eaaaaab,
3eaaaaab,
2ed8cffb,
2ed8cffb,
3f000000,
3f000000,
3f000000,
3f000000,
2ed8cffb,
2ed8cffb,
3f000000,
3f000000,
3f000000,
3f000000,
2ed8cffb,
2ed8cffb,
3efffff3,
3543629c,
3efffff3,
3f000000,
3f000000,
3efae2fb,
3ca3a082,
3efae2fb,
3efffed4,
3795c9b6,
3efffed4,
3f000000,
3f000000,
3795c9b7,
3efffed5,
3efffed5,
3f000000,
3f000000,
3f000000,
3f000000,
3f000000,
3f000000,
3eaaaaab,
3eaaaaab,
3eaaaaab,
3f000000,
3f000000,
3f000000,
3f000000,
3f000000,
3f000000,
39e59201,
3effe34e,
3effe34e,
3795c9b6,
3efffed4,
3efffed4,
3795c9b6,
3efffed4,
3efffed4,
3efffed4,
3795c9b6,
3efffed4,
3efffed4,
3795c9b6,
3efffed4,
39e57848,
3effc6a2,
39e57848,
3effc6a2,
3f000000,
3f000000,
3eaaaaab,
3eaaaaab,
3eaaaaab,
3f000000,
3f000000,
3f000000,
3f000000,
3f000000,
3f000000,
2ed8cffb,
2ed8cffb,
3f000000,
3f000000,
3f000000,
3f000000,
3f000000,
3f000000,
3f000000,
3f000000,
3f000000,
3f000000,
380d9c0e,
3eff3a8e,
3b433b75,
3eff3a8e,
2ed8cffb,
2ed8cffb,
3f000000,
3f000000,
3eff3a8e,
380d9c0e,
3b433b75,
3eff3a8e,
3f000000,
3f000000,
35b94589,
3effffe8,
3effffe8,
3f000000,
3f000000,
3f000000,
3f000000,
3f000000,
3f000000,
397226ed,
3efff0df,
3efff0df,
3f000000,
3f000000,
3f000000,
3f000000,
3f000000,
3f000000,
3f000000,
3f000000,
3286628c,
3f000000,
3f000000,
3f000000,
3f000000,
3f000000,
3f000000,
2e5878ab,
3eff98e8,
3371498b,
3ace2fb1,
3eff98e8,
3f000000,
3f000000,
3f000000,
3f000000,
3972189b,
3972189b,
3effe1bc,
3effe1bc,
3b433d26,
3eff3cc4,
3eff3cc4,
3f000000,
3f000000,
379036bd,
3ef6780e,
3d186d00,
3ef6780e,
379036bd,
3ef6780e,
3d186d00,
3ef6780e,
3e7fff6a,
3e7fff6a,
3715ca0e,
3e7fff6a,
3e7fff6a,
3f000000,
3f000000,
3e800000,
3e800000,
3e800000,
3e800000,
3f000000,
3f000000,
3edf42c5,
3d82ed27,
37f7bed4,
3d82ed27,
3edf42c5,
3f000000,
3f000000,
3abf68c8,
3d12be0f,
378ad62f,
3d12be0f,
3eed4774,
3eed4774,
3ee56647,
3d0dde90,
3d0dde90,
3d0dde90,
3ee56647,
3f000000,
3f000000,
3f000000,
3f000000,
3f000000,
3f000000,
3d82ee25,
3d82ee25,
2eb34d9e,
3edf4476,
3edf4476,
3f000000,
3f000000,
3f000000,
3f000000,
3f000000,
3f000000,
35436294,
3effffe8,
35436294,
3effffe8,
3f000000,
3f000000,
3f000000,
3f000000,
302f4a54,
3f000000,
3f000000,
3eaaaaab,
3eaaaaab,
3eaaaaab,
3543629c,
302f4a4b,
3efffff3,
3efffff3,
3e800000,
3e800000,
3e800000,
3e800000,
3286628b,
3286628b,
3effffff,
3effffff,
3f000000,
3f000000,
380d9c0e,
2eccf88e,
3b433b75,
3eff3a8e,
3eff3a8e,
3ef67925,
3d186dac,
3ef67925,
3f000000,
3f000000,
3f000000,
3f000000,
3effffe8,
35b94589,
3effffe8,
3b433d26,
3eff3cc4,
3eff3cc4,
2ed8cffb,
2ed8cffb,
353f7b8b,
3efae2f0,
3ca3a07b,
3efae2f0,
3f000000,
3f000000,
3794f1a5,
3bb8a321,
3efe8d8f,
3efe8d8f,
3f000000,
3f000000,
3f000000,
3f000000,
3eee8416,
3d8bdf57,
3eee8416,
3eff3cc4,
3b433d26,
2eccfa54,
3eff3cc4,
3f000000,
3f000000,
3f000000,
3f000000,
3eff98e9,
3ace2fb2,
3eff98e9,
3f000000,
3f000000,
3f000000,
3f000000,
3f000000,
3286628c,
3f000000,
3ca3a082,
3efae2fb,
3efae2fb,
3f000000,
3f000000,
3f000000,
3f000000,
3f000000,
3f000000,
2ed8cffb,
2ed8cffb,
3795c9b7,
3efffed5,
3efffed5,
3f000000,
3f000000,
3f000000,
3f000000,
3f000000,
3f000000,
3f000000,
3f000000,
3efae2fb,
3ca3a082,
3efae2fb,
2ed8cffb,
2ed8cffb,
3f000000,
3f000000,
3f000000,
3f000000,
3f000000,
3f000000,
3eee8416,
3d8bdf57,
3eee8416,
3f000000,
3f000000;