memory_initialization_radix=16;
memory_initialization_vector=031,
000,
030,
031,
032,
001,
004,
060,
061,
002,
063,
003,
002,
065,
004,
006,
007,
037,
067,
005,
005,
007,
037,
067,
006,
005,
006,
037,
065,
067,
069,
007,
009,
03a,
06a,
008,
008,
00b,
03a,
03b,
06a,
06b,
009,
038,
039,
03c,
068,
069,
00a,
009,
00c,
03a,
03b,
06a,
06b,
06c,
00b,
00b,
03a,
03b,
06a,
06b,
00c,
03f,
040,
00e,
03d,
06d,
00f,
013,
041,
012,
012,
041,
013,
046,
014,
047,
077,
015,
017,
078,
016,
016,
049,
078,
079,
017,
019,
01a,
047,
048,
049,
018,
018,
01a,
047,
048,
049,
019,
018,
019,
048,
049,
01a,
04a,
079,
07a,
01b,
04c,
07c,
01d,
020,
04d,
04e,
04f,
07d,
01f,
01f,
021,
022,
04e,
04f,
050,
052,
07e,
07f,
080,
081,
020,
020,
022,
04f,
050,
051,
052,
07f,
080,
081,
021,
020,
021,
050,
051,
052,
080,
081,
022,
053,
023,
084,
024,
054,
085,
025,
055,
026,
028,
029,
056,
086,
027,
027,
029,
056,
05a,
086,
028,
027,
028,
05a,
08a,
029,
05b,
05c,
08a,
02a,
05c,
05d,
08b,
08c,
08d,
02b,
02e,
02f,
02d,
02d,
02f,
02e,
02d,
02e,
02f,
001,
031,
032,
030,
000,
001,
030,
031,
001,
030,
032,
064,
035,
038,
068,
036,
005,
006,
007,
065,
067,
097,
098,
037,
00a,
036,
039,
068,
069,
099,
038,
00a,
038,
03b,
068,
06a,
099,
09a,
039,
008,
009,
00b,
00c,
06b,
09b,
09c,
03a,
009,
00b,
00c,
039,
06a,
06c,
09a,
03b,
00a,
03c,
00f,
06d,
03d,
06f,
070,
09f,
03e,
00e,
040,
03f,
00e,
03f,
040,
012,
013,
0a0,
041,
043,
044,
0a1,
042,
042,
044,
0a1,
0a5,
043,
042,
043,
044,
076,
0a6,
045,
014,
046,
015,
018,
019,
048,
049,
0a7,
047,
018,
019,
01a,
047,
049,
0a7,
048,
017,
018,
019,
01a,
047,
048,
049,
01b,
078,
079,
07a,
04a,
07b,
0a9,
0aa,
04b,
01d,
07c,
04c,
01f,
04e,
04d,
01f,
020,
04d,
04f,
07d,
0b0,
04e,
01f,
020,
021,
04e,
050,
07d,
07f,
080,
081,
0af,
0b0,
04f,
020,
021,
022,
04f,
051,
052,
07e,
07f,
080,
081,
0af,
0b0,
050,
021,
022,
050,
052,
07f,
080,
081,
0af,
051,
020,
021,
022,
050,
051,
080,
081,
052,
023,
053,
025,
085,
0b3,
0b5,
054,
026,
085,
055,
027,
028,
086,
056,
058,
087,
0b7,
0b8,
057,
057,
087,
0b7,
0b8,
058,
089,
0b9,
059,
028,
029,
08a,
05a,
02a,
05c,
08a,
0ba,
0bd,
05b,
02a,
02b,
05b,
08b,
08c,
08d,
08e,
0ba,
0bd,
0be,
05c,
02b,
05e,
05f,
08b,
08c,
08d,
08e,
08f,
0bc,
0bf,
05d,
05d,
05f,
08c,
08d,
08e,
08f,
0bc,
0bd,
0be,
0bf,
05e,
05d,
05e,
08d,
08e,
08f,
0bd,
0be,
0bf,
05f,
002,
061,
092,
0c0,
0c2,
060,
002,
060,
092,
0c0,
0c2,
061,
092,
093,
0c1,
0c2,
062,
003,
091,
094,
063,
035,
064,
004,
007,
037,
067,
095,
0c4,
065,
096,
0c7,
066,
005,
006,
007,
037,
065,
095,
097,
098,
0c8,
067,
00a,
036,
038,
039,
069,
099,
0c9,
0ca,
068,
007,
00a,
038,
068,
098,
099,
0c9,
0ca,
0cb,
069,
008,
009,
00b,
00c,
039,
03b,
06c,
09a,
0cb,
0cc,
06a,
009,
00b,
00c,
03a,
09b,
09c,
06b,
00b,
03b,
06a,
09a,
0ca,
0cb,
0cc,
06c,
00f,
03d,
0cd,
06d,
09e,
09f,
0ce,
0cf,
06e,
03e,
070,
06f,
03e,
06f,
09f,
070,
073,
0a2,
0a3,
0a4,
0d1,
0d2,
0d3,
0d4,
072,
072,
074,
0a2,
0a3,
0a4,
0d1,
0d2,
0d3,
073,
073,
0a2,
0a3,
0a4,
0d2,
074,
0a3,
0a4,
0a5,
0d3,
0d4,
075,
045,
0a6,
076,
015,
0a7,
0d7,
077,
016,
017,
04a,
079,
07a,
0d8,
0d9,
0da,
078,
017,
01b,
04a,
078,
07a,
0d8,
0d9,
0da,
079,
01b,
04a,
078,
079,
0a8,
0d9,
0da,
07a,
04b,
0a9,
0aa,
07b,
01d,
04c,
07c,
01f,
04e,
04f,
07e,
07f,
0af,
0dd,
07d,
020,
050,
07d,
07f,
080,
0ad,
0af,
0dd,
0de,
07e,
020,
021,
04f,
050,
051,
07d,
07e,
080,
081,
0ad,
0af,
0dd,
0de,
07f,
020,
021,
022,
04f,
050,
051,
052,
07e,
07f,
081,
0af,
0b0,
0de,
080,
020,
021,
022,
04f,
050,
051,
052,
07f,
080,
0af,
081,
0b0,
0b1,
082,
024,
0b5,
0e2,
0e5,
084,
025,
054,
055,
0b3,
085,
027,
028,
056,
086,
057,
058,
088,
0b8,
0e7,
0e8,
087,
087,
0b8,
0e8,
088,
059,
0b9,
089,
029,
02a,
05a,
05b,
08a,
02b,
05c,
05d,
08c,
08d,
0ba,
0bd,
0ea,
0ed,
08b,
02b,
05c,
05d,
05e,
08b,
08d,
08e,
0ba,
0bd,
0be,
0ea,
0ed,
08c,
02b,
05c,
05d,
05e,
05f,
08b,
08c,
08e,
08f,
0bc,
0bd,
0be,
0bf,
0ed,
08d,
05c,
05d,
05e,
05f,
08c,
08d,
08f,
0bc,
0bd,
0be,
0bf,
0ed,
08e,
05d,
05e,
05f,
08d,
08e,
0bd,
0be,
0bf,
0ed,
08f,
091,
0f0,
0f1,
090,
063,
090,
0f0,
0f1,
091,
060,
061,
062,
093,
0c0,
0c1,
0c2,
092,
068,
0c8,
098,
068,
069,
099,
069,
09a,
039,
06a,
09b,
0d2,
0a3,
0d2,
0d3,
0a4,
07c,
0ac,
07d,
0ad,
07f,
080,
0ae,
081,
0af,
086,
0e6,
0b6,
087,
0e7,
0b7,
088,
0e8,
0b8,
089,
0b9,
0ed,
0bc,
05b,
05c,
05e,
05f,
08b,
08c,
08d,
08e,
08f,
0be,
0bf,
0ed,
0bd,
05c,
05e,
05f,
08c,
08d,
08e,
08f,
0bd,
0bf,
0ed,
0be,
05d,
05e,
05f,
08d,
08e,
08f,
0bd,
0be,
0ed,
0bf,
060,
061,
092,
0c2,
0c0,
062,
092,
093,
120,
121,
0c1,
060,
061,
062,
092,
0c0,
121,
0c2,
098,
0f8,
0c8,
0a3,
0a4,
101,
0d2,
0a4,
102,
0d3,
102,
103,
0d4,
0b6,
0e6,
087,
0b7,
0e7,
088,
0b8,
0e8,
08b,
08c,
08d,
08e,
08f,
0bd,
0be,
0bf,
0ef,
14e,
0ed,
0ef,
11e,
14e,
0ee,
0ed,
0ee,
11e,
14e,
0ef,
090,
091,
0f1,
122,
0f0,
090,
091,
0f0,
122,
123,
0f1,
124,
0f2,
0c8,
0f8,
0d2,
101,
0d3,
0d4,
102,
0d4,
132,
103,
0bb,
0bc,
0ec,
14b,
14c,
14d,
11d,
0ee,
0ef,
17f,
11e,
14f,
17d,
17e,
11f,
0c1,
121,
122,
150,
182,
120,
0c1,
0c2,
120,
150,
153,
180,
182,
183,
121,
0f0,
0f1,
120,
123,
150,
122,
103,
132,
0ec,
11d,
14b,
14c,
14d,
0ed,
0ee,
0ef,
17f,
14e,
11f,
17d,
17e,
14f,
120,
121,
122,
182,
150,
0f3,
152,
1b2,
1b3,
151,
0f3,
0f4,
151,
1b2,
1b3,
152,
16b,
16a,
16a,
16c,
16b,
16b,
16c,
1a2,
172,
11f,
14f,
17e,
1ac,
1dc,
1dd,
17d,
11f,
14f,
17d,
17e,
11e,
14e,
1af,
1de,
1df,
17f,
121,
181,
182,
1b1,
1e0,
180,
180,
182,
183,
1b1,
1b3,
1e1,
181,
120,
121,
150,
153,
180,
181,
183,
1b1,
1b4,
1e0,
182,
1c6,
196,
19a,
199,
199,
19b,
19a,
19a,
19c,
19b,
19b,
19c,
172,
1a2,
14c,
1ab,
1ae,
1ad,
14c,
1ad,
1ae,
17f,
1dd,
1de,
1df,
20d,
20e,
20f,
1af,
210,
1b0,
153,
180,
181,
182,
183,
1e0,
1e1,
212,
1b1,
151,
152,
1b3,
1e1,
1e2,
1e3,
1e4,
1b2,
196,
1c6,
1c9,
1c8,
1c8,
1ca,
1c9,
1c9,
1ca,
200,
1d0,
201,
1d1,
232,
1d2,
17b,
17d,
1ac,
1af,
1db,
1dc,
1de,
1df,
20c,
20e,
20f,
23d,
23e,
23f,
1dd,
17f,
1ac,
1af,
1dc,
1dd,
1df,
20c,
20d,
20e,
20f,
23d,
23e,
1de,
17f,
1af,
1dd,
1de,
20d,
20e,
20f,
23d,
23e,
1df,
180,
182,
1b1,
212,
240,
1e0,
181,
1b1,
1b2,
1b3,
1e2,
1e3,
241,
243,
1e1,
1b2,
1b3,
1e1,
1e3,
1e4,
241,
243,
244,
1e2,
1e2,
1e3,
1d0,
200,
1d1,
201,
262,
202,
1ac,
1af,
1db,
1dc,
1de,
1df,
20b,
20e,
23c,
23d,
26d,
20d,
1ac,
1af,
1dc,
1dd,
1de,
1df,
20c,
20d,
23c,
23d,
26d,
20e,
1af,
1dd,
1de,
1df,
23d,
23e,
23f,
20f,
1b0,
210,
272,
211,
1b1,
1b4,
1e0,
213,
214,
240,
271,
272,
212,
1d2,
262,
232,
1db,
1dc,
1dd,
1de,
1df,
20c,
20d,
20e,
20f,
23e,
29b,
29e,
23d,
1dc,
1dd,
1de,
1df,
20c,
20f,
23d,
23f,
29e,
23e,
1dd,
20f,
23e,
29f,
23f,
1e0,
212,
270,
271,
272,
2a2,
240,
1e1,
1e2,
1e3,
243,
270,
241,
274,
242,
24a,
24b,
249,
249,
24b,
24a,
249,
24a,
24b,
202,
232,
262,
2c5,
265,
20b,
20d,
20e,
23c,
29b,
29e,
2cb,
2ce,
26d,
26f,
29c,
26e,
26e,
29d,
26f,
240,
241,
270,
212,
213,
240,
272,
2a0,
2a2,
2d3,
271,
211,
212,
213,
214,
240,
271,
2a0,
2a1,
2a2,
2a4,
2d3,
2d4,
272,
293,
292,
292,
293,
26c,
26f,
2cd,
2fc,
29d,
23d,
23e,
26d,
2ce,
2ff,
29e,
23f,
2fe,
29f,
271,
272,
2a1,
2a0,
272,
2a0,
2a1,
240,
271,
272,
273,
2a4,
2d3,
2d4,
2a2,
2c3,
2c2,
2c2,
2c3,
265,
2c5,
2c8,
2c7,
2c7,
2c8,
26c,
29d,
2fb,
2fc,
2cd,
26d,
29e,
2ff,
32d,
32f,
2ce,
32e,
2cf,
2d1,
2d0,
2d0,
301,
302,
303,
2d1,
300,
334,
2d2,
321,
2f0,
322,
2f1,
2f8,
2f7,
2f7,
2f8,
29b,
2cb,
32b,
32c,
32f,
2fd,
29f,
32e,
35d,
35f,
2fe,
29e,
2ce,
32d,
32f,
35f,
2ff,
2d2,
300,
2d1,
302,
303,
301,
2d1,
301,
303,
304,
302,
37e,
31c,
351,
320,
2f0,
321,
2f1,
322,
2ce,
2ff,
32f,
35b,
35c,
35d,
35f,
38c,
38d,
32d,
2cf,
2fe,
35d,
38e,
32e,
2ce,
2fd,
2ff,
32d,
32f,
331,
332,
360,
390,
391,
330,
2d3,
330,
333,
360,
363,
390,
391,
392,
331,
2d4,
330,
360,
363,
364,
390,
391,
332,
3a9,
349,
37b,
3aa,
34a,
34d,
34c,
34c,
34d,
320,
351,
2fe,
32d,
32e,
35b,
35c,
35f,
38c,
38d,
3bb,
3bc,
35d,
38f,
35e,
2fe,
2ff,
32d,
35d,
38d,
35f,
330,
331,
332,
390,
391,
3c0,
3c1,
360,
333,
362,
392,
393,
3c2,
3c3,
361,
333,
361,
392,
393,
394,
3c1,
3c2,
3c3,
362,
395,
363,
379,
378,
378,
37a,
379,
379,
37b,
37a,
34a,
37a,
37c,
3dc,
37b,
37b,
37d,
37c,
37c,
37e,
37d,
31c,
37d,
37e,
32d,
35b,
35c,
35d,
35f,
38c,
3bb,
3bc,
3ec,
3ee,
3ef,
38d,
32e,
3ed,
38e,
35e,
38f,
330,
331,
332,
360,
391,
3c0,
3c1,
3f1,
390,
330,
331,
332,
360,
363,
390,
3c0,
3c1,
391,
331,
333,
361,
362,
393,
394,
3c1,
3c2,
3c3,
3c4,
3f2,
3f3,
3f4,
392,
3c3,
393,
362,
394,
363,
395,
3a7,
3a6,
3a6,
3a8,
3a7,
3a7,
3a9,
3a8,
349,
3a8,
3aa,
3a9,
34a,
3a9,
3ab,
3aa,
3aa,
3ac,
3ab,
3ab,
3ad,
3ac,
3ac,
3ae,
3ad,
3ad,
3af,
3ae,
3ae,
3af,
38b,
3bf,
3eb,
3ee,
41b,
3bd,
3bd,
3ee,
3bf,
360,
390,
391,
3f1,
420,
3c0,
360,
362,
363,
390,
391,
392,
393,
3c2,
3f2,
421,
422,
423,
3c1,
361,
362,
392,
393,
394,
3c1,
3c3,
3c4,
3f2,
3f3,
3f4,
421,
423,
424,
3c2,
392,
393,
3c4,
3f3,
3f4,
424,
3c3,
3c3,
3f4,
424,
3c4,
3f5,
424,
3c5,
3d8,
3d7,
3d7,
3d9,
3d8,
3d8,
3da,
3d9,
3d9,
3db,
3da,
3da,
3dc,
3db,
37b,
3db,
3dd,
3dc,
3dc,
3de,
40b,
43f,
3dd,
3dd,
3df,
40c,
440,
3de,
3de,
3e0,
3df,
3df,
3e0,
38e,
41d,
41e,
44c,
44d,
3ed,
38c,
38d,
3bc,
3bd,
3bf,
3ef,
41c,
3ee,
38d,
3ee,
3ef,
390,
3c0,
420,
3f1,
392,
393,
394,
3c1,
3c2,
3c3,
3c4,
3f3,
3f4,
421,
422,
423,
424,
450,
453,
454,
3f2,
392,
3c3,
3f3,
3c3,
3c4,
424,
3f4,
3c5,
3f5,
40a,
409,
409,
40a,
3dd,
40b,
3de,
40c,
40e,
40d,
40d,
40f,
40e,
40e,
410,
40f,
40f,
410,
3bb,
3bc,
3ec,
3ed,
41c,
41e,
44c,
47b,
41d,
3ed,
41d,
44c,
44d,
41e,
44d,
41f,
3c0,
3f1,
420,
3c1,
3c2,
3f2,
3f3,
422,
423,
450,
480,
421,
3c1,
3c4,
3f2,
3f4,
421,
454,
480,
481,
422,
454,
423,
3c3,
3c4,
3c5,
3f4,
424,
43e,
43d,
43d,
43e,
3dd,
43f,
3de,
440,
3ed,
41e,
41f,
44c,
4ac,
4ad,
4af,
44d,
44f,
4ae,
44e,
44e,
4ae,
44f,
3f2,
421,
4b1,
4b2,
450,
3f3,
452,
453,
482,
483,
4b2,
451,
451,
482,
483,
452,
423,
454,
471,
470,
470,
472,
471,
471,
473,
472,
472,
473,
41b,
47e,
47f,
4df,
47d,
47d,
47f,
47e,
47d,
47e,
4df,
47f,
421,
422,
481,
4b0,
4b1,
4e2,
480,
422,
480,
4b0,
4b1,
481,
424,
451,
452,
453,
483,
484,
4b2,
4b4,
4e0,
4e3,
4e4,
482,
4b4,
483,
4c5,
493,
4a7,
4a6,
4a6,
4a7,
4a9,
4a8,
4a8,
4aa,
4a9,
4a9,
4ab,
4aa,
4aa,
4ab,
44d,
4ae,
4af,
4db,
4dc,
4ad,
44e,
44f,
4ad,
4af,
4ae,
44d,
4ad,
4ae,
4af,
480,
481,
4b1,
4e2,
4b0,
450,
480,
481,
4b0,
4b3,
4e2,
4b1,
450,
451,
453,
482,
484,
4b3,
4b4,
4e0,
4e2,
4e3,
4e4,
4b2,
483,
4b4,
4c5,
4c4,
493,
4c4,
4c5,
4d7,
4d6,
4d6,
4d7,
4dd,
4dc,
47b,
4ac,
4db,
4dc,
4dd,
47c,
50f,
4de,
47d,
47f,
50f,
4df,
482,
4b2,
540,
4e0,
483,
540,
541,
4e1,
480,
484,
4b0,
4b1,
4b2,
4b3,
4b4,
4e2,
4e4,
4e3,
4e3,
4e5,
4e4,
4e4,
4e5,
4f5,
4f4,
4f4,
4f5,
52c,
4fd,
506,
505,
505,
507,
508,
506,
506,
508,
507,
506,
507,
508,
50d,
50c,
50b,
50c,
50e,
50d,
50c,
50d,
50e,
4de,
4df,
50f,
511,
510,
510,
543,
573,
511,
513,
542,
512,
515,
514,
514,
515,
4fd,
52c,
55c,
52d,
532,
531,
531,
532,
537,
538,
536,
536,
538,
537,
536,
537,
538,
56b,
59e,
53d,
56c,
59f,
53e,
56d,
53f,
4e0,
4e1,
541,
570,
572,
5a1,
540,
4e1,
540,
570,
541,
512,
513,
5a3,
542,
545,
574,
544,
544,
575,
545,
52d,
55c,
58c,
55d,
5bd,
55f,
567,
568,
566,
566,
568,
567,
566,
567,
568,
53f,
56d,
540,
541,
570,
5a2,
571,
540,
5a1,
5d2,
572,
544,
574,
545,
576,
575,
575,
576,
57e,
57d,
57d,
57e,
5e9,
587,
55d,
58c,
5f7,
596,
598,
5f8,
597,
597,
598,
53b,
53c,
5fd,
5fe,
59d,
53d,
56c,
59e,
53e,
59f,
540,
572,
5d2,
5d3,
5a1,
571,
5a2,
5ea,
5ba,
55f,
5bd,
627,
5c6,
59b,
5cd,
5cc,
5ce,
600,
630,
5d0,
5a3,
5d1,
572,
5a1,
5d2,
608,
639,
5d8,
609,
5d9,
60b,
5db,
60c,
5dc,
587,
5e9,
5ba,
5ea,
5f3,
5f2,
5f2,
5f3,
626,
5f6,
596,
5f7,
597,
5f8,
59d,
5fc,
62e,
62f,
65e,
5fd,
59d,
5ff,
5fe,
5fe,
5ff,
5d0,
630,
660,
600,
631,
661,
601,
632,
633,
662,
663,
602,
5d8,
608,
5d9,
609,
5db,
60b,
5dc,
63c,
60c,
649,
618,
622,
621,
621,
623,
622,
622,
623,
5f6,
626,
5c6,
627,
62d,
62c,
5fb,
5fc,
62b,
62c,
62e,
65c,
65d,
65e,
65f,
68b,
68c,
68f,
62d,
5fc,
5fd,
62c,
62d,
62f,
65d,
65e,
65f,
68c,
68d,
68e,
68f,
62e,
5fd,
62e,
68d,
68e,
62f,
5d0,
600,
660,
690,
630,
601,
661,
691,
631,
602,
603,
633,
662,
663,
692,
693,
632,
636,
637,
635,
635,
637,
636,
635,
636,
637,
5d8,
639,
60c,
63c,
618,
649,
67c,
64c,
65c,
65d,
65b,
65b,
65d,
65e,
65c,
5fb,
5fc,
62b,
62c,
62d,
62e,
65b,
65c,
65e,
65f,
68b,
68f,
6bc,
6bf,
65d,
5fc,
5fd,
62c,
62d,
62e,
65d,
65f,
68c,
68d,
68e,
68f,
6bc,
6bf,
65e,
62d,
62e,
65d,
65e,
68d,
68e,
68f,
6bf,
65f,
600,
630,
690,
6c0,
660,
601,
631,
691,
6c1,
661,
602,
603,
632,
633,
663,
692,
693,
6c2,
6c3,
6c4,
662,
693,
663,
666,
667,
665,
665,
667,
668,
666,
665,
666,
668,
695,
667,
666,
667,
669,
696,
668,
668,
697,
698,
669,
698,
66a,
64c,
6ac,
67c,
684,
683,
683,
684,
68c,
68b,
68b,
68d,
68c,
62e,
62f,
65e,
65f,
68b,
68c,
68e,
6bc,
6bd,
6be,
68d,
62e,
62f,
65e,
65f,
68c,
68d,
6bc,
6bd,
6be,
68e,
62d,
62e,
65d,
65e,
65f,
6bf,
6ed,
6ee,
68f,
630,
660,
6c0,
6f0,
690,
631,
661,
6c1,
6f1,
691,
632,
633,
662,
663,
693,
6c2,
6c3,
6c4,
6f3,
6f4,
692,
663,
6c4,
693,
667,
696,
697,
695,
668,
695,
697,
698,
696,
669,
695,
696,
698,
697,
669,
66a,
696,
697,
699,
698,
698,
69a,
699,
699,
69a,
6a2,
6a1,
6a1,
6a2,
67c,
6ac,
6dd,
710,
6ae,
6b3,
710,
6b2,
6b2,
6b4,
711,
6b3,
6b3,
6b4,
6ba,
6b9,
6b9,
6bb,
6ba,
6ba,
6bc,
6ec,
6bb,
6bb,
6bd,
6bc,
68d,
68e,
6be,
6bd,
68d,
68e,
6bd,
6be,
65d,
65e,
65f,
68f,
6ed,
6ee,
6bf,
660,
690,
6f0,
6c0,
661,
691,
6f1,
720,
6c1,
662,
663,
692,
6c4,
6f2,
722,
6c2,
693,
6c4,
6c7,
728,
6c6,
6c6,
6c8,
726,
727,
728,
6c7,
6c7,
6c9,
727,
728,
729,
72a,
6c8,
6c8,
6ca,
729,
72a,
6c9,
6c9,
6cb,
6fa,
6fb,
6ca,
6ca,
6cb,
6d2,
6d1,
6d1,
6d2,
708,
6da,
709,
6db,
6de,
6dc,
6ae,
6dd,
6dc,
6de,
70f,
710,
6df,
6e1,
6e0,
6e0,
6e2,
6e1,
6e1,
6e3,
6e4,
6e2,
6e2,
6e4,
741,
6e3,
6e2,
6e3,
6e4,
6ea,
6eb,
719,
71a,
71b,
74a,
74b,
6e9,
6e9,
6eb,
719,
71a,
71b,
71c,
74a,
74b,
74c,
6ea,
6e9,
6ea,
6ec,
71a,
71b,
71c,
74b,
74c,
6eb,
6bb,
6eb,
6ed,
6ec,
68b,
68c,
68f,
6bc,
6bf,
6ec,
6ee,
6ed,
68f,
6bf,
6ec,
6ed,
71c,
71d,
71e,
74d,
74f,
6ee,
71d,
71e,
71f,
74f,
6ef,
690,
6c0,
6f0,
691,
6c1,
6f1,
6c2,
6c4,
751,
754,
6f2,
6f7,
6f6,
6f6,
6f8,
6f7,
6f7,
6f9,
6f8,
6f8,
6fa,
6fb,
6f9,
6ca,
6f9,
6fb,
6fa,
6ca,
6f9,
6fa,
6fb,
6da,
708,
6db,
709,
70b,
70a,
70a,
70c,
70d,
70b,
70b,
70d,
70e,
70c,
70b,
70c,
70e,
70d,
70c,
70d,
70f,
70e,
6df,
70e,
740,
70f,
6ae,
6b2,
6df,
711,
710,
6b3,
710,
712,
711,
711,
713,
714,
712,
712,
714,
713,
712,
713,
714,
749,
77a,
718,
6e9,
6ea,
71a,
71b,
749,
74a,
74b,
77b,
719,
6e9,
6ea,
6eb,
719,
71b,
71c,
74a,
74b,
74c,
77c,
71a,
6e9,
6ea,
6eb,
719,
71a,
71c,
74a,
74b,
74c,
71b,
6ea,
6eb,
71a,
71b,
74a,
74b,
74c,
71c,
6bb,
6eb,
6ec,
6ee,
6ef,
71b,
71c,
71e,
74b,
74c,
74d,
74f,
77b,
71d,
6ec,
6ee,
6ef,
71c,
71d,
71f,
74c,
74d,
74f,
77c,
71e,
6ef,
71e,
74f,
77d,
77e,
71f,
6c1,
720,
750,
751,
780,
781,
782,
783,
721,
6c2,
6c3,
6c4,
6f3,
6f4,
752,
753,
722,
6c7,
727,
726,
6c7,
6c8,
726,
728,
727,
6c6,
6c7,
6c8,
727,
729,
728,
6c8,
6c9,
728,
72a,
729,
6c8,
6c9,
729,
72a,
736,
735,
735,
737,
736,
736,
738,
737,
737,
739,
738,
738,
739,
7a0,
73f,
70f,
741,
740,
6e3,
740,
742,
741,
741,
743,
742,
742,
743,
779,
77a,
748,
718,
719,
74a,
77a,
77b,
749,
6e9,
6ea,
719,
71a,
71b,
71c,
749,
74b,
74c,
77b,
77c,
74a,
6e9,
6ea,
6eb,
719,
71a,
71b,
71c,
74a,
74c,
77c,
74b,
6ea,
6eb,
71a,
71b,
71c,
74a,
74b,
74c,
6eb,
6ec,
6ee,
71b,
71c,
71d,
71e,
74b,
74c,
74f,
77b,
7ac,
7ad,
7ae,
7af,
74d,
6ee,
6ef,
71d,
71e,
71f,
74d,
7ad,
7ae,
7af,
74f,
721,
780,
781,
7b0,
7b1,
7b2,
750,
6f2,
721,
780,
782,
783,
751,
6f4,
722,
753,
752,
757,
756,
756,
758,
757,
757,
759,
758,
758,
759,
76a,
769,
769,
76a,
76c,
76b,
76b,
76c,
771,
770,
770,
772,
771,
771,
773,
772,
772,
773,
779,
778,
748,
778,
77a,
779,
718,
748,
749,
779,
77b,
77a,
719,
749,
74a,
77a,
77c,
77b,
71a,
74a,
74b,
77b,
77c,
71f,
77c,
77e,
77f,
77d,
71f,
77c,
77d,
77f,
77e,
77d,
77e,
77f,
721,
750,
751,
781,
7b1,
7b2,
7e1,
7e2,
780,
721,
750,
780,
7b1,
7b2,
7e1,
7e2,
781,
721,
751,
754,
783,
7e2,
782,
7b6,
785,
787,
7b7,
7e7,
786,
786,
7b7,
7e7,
787,
7b8,
788,
7c4,
794,
7a0,
79f,
73f,
79f,
7a1,
7a0,
7a0,
7a2,
7a1,
7a1,
7a3,
7a2,
7a2,
7a3,
7a8,
7a7,
7a7,
7a9,
7a8,
7a8,
7aa,
7a9,
7a9,
7ab,
7aa,
7aa,
7ac,
7ab,
7ab,
7ad,
7ac,
74b,
74c,
74d,
74f,
77b,
77c,
7ae,
7af,
7ad,
74c,
74d,
74f,
77c,
7ad,
7af,
7ae,
74d,
74f,
7ad,
7ae,
7af,
750,
7e0,
7e1,
810,
7b0,
750,
780,
781,
7b2,
7e1,
7e2,
811,
812,
7b1,
750,
780,
781,
784,
7b1,
7e1,
7e2,
811,
812,
7b2,
7e6,
7b5,
785,
7b6,
786,
787,
7e7,
7b7,
788,
7b8,
7f3,
7c3,
794,
7f4,
7c4,
7ce,
7fe,
7ff,
82f,
7cd,
7cd,
7cf,
7ff,
800,
830,
7ce,
7ce,
7d0,
800,
830,
831,
7cf,
7cf,
7d1,
7d2,
801,
7d0,
7d0,
7d2,
7d3,
7d1,
7d0,
7d1,
7d3,
7d2,
7d1,
7d2,
7d3,
836,
7d6,
7d8,
837,
838,
839,
7d7,
7d7,
7d9,
837,
838,
839,
7d8,
7d8,
7da,
7d9,
7d9,
7db,
7da,
7da,
7dc,
7db,
7db,
7dd,
7de,
7dc,
7db,
7dc,
7de,
7df,
80b,
80c,
80d,
80e,
80f,
83d,
7dd,
7dc,
7dd,
7df,
80c,
80d,
80e,
80f,
7de,
7dd,
7de,
80d,
80e,
80f,
7df,
7b0,
810,
840,
7e0,
780,
781,
7b0,
7b1,
7b2,
7e2,
811,
812,
841,
842,
843,
7e1,
780,
781,
782,
783,
784,
7b1,
7b2,
7e1,
811,
812,
841,
842,
7e2,
813,
7e3,
7b5,
7e6,
786,
787,
7b7,
7e7,
7f0,
7ef,
7ef,
7f0,
7c3,
823,
7f3,
7c4,
7f4,
7f6,
7f5,
7f5,
7f7,
825,
7f6,
7f6,
7f8,
825,
826,
827,
7f7,
7f7,
826,
827,
828,
7f8,
827,
829,
857,
7f9,
82a,
7fa,
7fe,
82e,
7fd,
7cd,
7fd,
7ff,
82f,
7fe,
7cd,
7ce,
7fe,
800,
82f,
830,
860,
7ff,
7ce,
7cf,
7ff,
801,
830,
831,
860,
861,
800,
7d0,
800,
802,
831,
861,
862,
801,
801,
803,
802,
802,
803,
865,
805,
866,
806,
808,
809,
867,
868,
869,
807,
807,
809,
80a,
867,
868,
869,
808,
807,
808,
80a,
80b,
867,
868,
869,
86a,
86b,
809,
808,
809,
80b,
80c,
839,
83a,
83b,
83c,
868,
869,
86a,
86b,
86c,
80a,
809,
80a,
80c,
80d,
839,
83a,
83b,
83c,
83d,
86b,
86c,
86d,
80b,
80a,
80b,
80d,
80e,
83a,
83b,
83c,
83d,
83e,
86c,
86d,
86e,
80c,
7db,
7dc,
7dd,
7de,
7df,
80b,
80c,
80e,
80f,
83d,
83f,
80d,
7dc,
7dd,
7de,
7df,
80c,
80d,
80f,
83d,
83f,
80e,
7dd,
7de,
7df,
80d,
80e,
83d,
80f,
7b0,
7e0,
840,
870,
810,
7b1,
7b2,
7e1,
7e2,
812,
841,
842,
871,
811,
7b1,
7b2,
7e1,
7e2,
811,
841,
842,
871,
872,
873,
874,
812,
7e3,
813,
818,
817,
817,
818,
7f3,
853,
823,
7f6,
7f7,
826,
825,
7f7,
7f8,
825,
827,
828,
826,
7f7,
7f8,
7f9,
826,
828,
829,
827,
7f8,
826,
827,
858,
828,
7f9,
827,
857,
858,
859,
829,
7fa,
85a,
82a,
7fd,
85f,
88f,
82e,
7cd,
7fe,
7ff,
85f,
860,
890,
82f,
7ce,
7cf,
7ff,
800,
831,
860,
861,
890,
891,
892,
830,
7cf,
800,
801,
830,
832,
861,
891,
892,
831,
831,
833,
832,
832,
833,
7d6,
866,
836,
7d7,
7d8,
838,
839,
867,
868,
869,
897,
898,
899,
837,
7d7,
7d8,
837,
839,
83a,
867,
868,
869,
86a,
897,
898,
899,
89a,
838,
7d7,
7d8,
80a,
80b,
837,
838,
83a,
83b,
867,
868,
869,
86a,
86b,
897,
898,
899,
89a,
89b,
839,
80a,
80b,
80c,
838,
839,
83b,
83c,
868,
869,
86a,
86b,
86c,
898,
899,
89a,
89b,
89c,
83a,
80a,
80b,
80c,
80d,
839,
83a,
83c,
83d,
869,
86a,
86b,
86c,
86d,
899,
89a,
89b,
89c,
89d,
83b,
80a,
80b,
80c,
80d,
80e,
83a,
83b,
83d,
83e,
86a,
86b,
86c,
86d,
86e,
89a,
89b,
89c,
89d,
89e,
83c,
7db,
7dc,
7dd,
80b,
80c,
80d,
80e,
80f,
83b,
83c,
83e,
83f,
86b,
86c,
86d,
86e,
86f,
89b,
89c,
89d,
89e,
89f,
83d,
7dc,
80c,
83c,
83d,
83f,
86c,
86d,
86e,
86f,
89c,
89d,
89e,
89f,
83e,
80d,
80e,
83d,
83e,
86d,
86e,
86f,
89d,
89e,
89f,
83f,
7e0,
810,
870,
8a0,
840,
7e1,
7e2,
811,
812,
842,
871,
872,
873,
8a1,
8a2,
8a3,
841,
7e1,
7e2,
811,
812,
841,
871,
872,
873,
874,
8a1,
8a2,
8a3,
842,
852,
851,
851,
852,
823,
883,
853,
856,
855,
855,
857,
858,
856,
7f9,
829,
856,
858,
859,
857,
828,
829,
856,
857,
859,
858,
829,
857,
858,
887,
888,
859,
82a,
888,
8b8,
85a,
8be,
85d,
88e,
8bf,
85e,
82e,
82f,
88f,
85f,
7ff,
800,
82f,
830,
890,
891,
860,
800,
801,
830,
831,
862,
891,
892,
861,
801,
861,
862,
805,
865,
806,
836,
896,
866,
807,
808,
809,
837,
838,
839,
868,
869,
897,
898,
899,
8c8,
8c9,
867,
807,
808,
809,
80a,
837,
838,
839,
83a,
867,
869,
86a,
897,
898,
899,
89a,
8c8,
8c9,
8ca,
868,
807,
808,
809,
80a,
837,
838,
839,
83a,
83b,
867,
868,
86a,
86b,
897,
898,
899,
89a,
89b,
8c8,
8c9,
8ca,
8cb,
869,
809,
80a,
838,
839,
83a,
83b,
83c,
868,
869,
86b,
86c,
898,
899,
89a,
89b,
89c,
8c8,
8c9,
8ca,
8cb,
8cc,
86a,
809,
80a,
80b,
839,
83a,
83b,
83c,
83d,
869,
86a,
86c,
86d,
899,
89a,
89b,
89c,
89d,
8c9,
8ca,
8cb,
8cc,
8cd,
86b,
80a,
80b,
80c,
83a,
83b,
83c,
83d,
83e,
86a,
86b,
86d,
86e,
89a,
89b,
89c,
89d,
89e,
8ca,
8cb,
8cc,
8cd,
8ce,
86c,
80c,
83b,
83c,
83d,
83e,
83f,
86b,
86c,
86e,
86f,
89b,
89c,
89d,
89e,
89f,
8cb,
8cc,
8cd,
8ce,
8cf,
86d,
80c,
83c,
83d,
83e,
83f,
86c,
86d,
86f,
89c,
89d,
89e,
89f,
8cc,
8cd,
8ce,
8cf,
86e,
83d,
83e,
83f,
86d,
86e,
89d,
89e,
89f,
8cd,
8ce,
8cf,
86f,
810,
840,
8a0,
8d0,
8d1,
870,
811,
812,
841,
842,
872,
873,
8a1,
8a2,
8a3,
871,
812,
841,
842,
871,
873,
8a2,
8a3,
872,
812,
841,
842,
871,
872,
8a3,
873,
812,
842,
8a2,
8a3,
8d3,
8d6,
874,
813,
816,
817,
846,
847,
877,
8a4,
8d4,
8d5,
875,
815,
844,
845,
847,
848,
877,
8a6,
8d5,
876,
845,
846,
847,
848,
875,
876,
8a6,
8a8,
8d5,
8d9,
877,
8a9,
878,
87a,
8aa,
8da,
879,
879,
8aa,
8da,
87a,
84a,
84b,
8ab,
8d9,
8db,
87b,
81e,
84e,
87d,
87e,
8ac,
8ad,
8ae,
8dc,
8dd,
87c,
81e,
84c,
84e,
87c,
87e,
87f,
8ac,
8ad,
8dc,
87d,
81e,
84e,
850,
87c,
87d,
87f,
880,
8ac,
8ad,
8dc,
87e,
81e,
820,
84e,
850,
87d,
87e,
880,
881,
8ad,
8ae,
8b0,
8b1,
8dd,
87f,
81e,
84e,
850,
851,
87e,
87f,
881,
880,
850,
851,
87f,
880,
883,
8b1,
881,
820,
821,
823,
850,
852,
853,
883,
8b0,
8b1,
8b2,
8b3,
8e2,
8e3,
882,
824,
852,
853,
881,
882,
885,
8b1,
8b4,
8b5,
8e4,
8e5,
883,
824,
825,
854,
856,
8b4,
8e4,
884,
824,
853,
883,
886,
8b3,
8b5,
8b7,
8e3,
8e4,
8e5,
8e6,
8e7,
885,
885,
888,
8b5,
8b7,
8b8,
8e5,
8e6,
8e7,
8e8,
886,
825,
828,
858,
859,
888,
889,
8b5,
8e7,
8e8,
887,
828,
82a,
858,
859,
85a,
886,
887,
889,
8e7,
8e8,
888,
82a,
82b,
859,
85a,
887,
888,
88a,
8b7,
8b8,
8e7,
8e8,
889,
82b,
85c,
889,
8b8,
8bc,
8e8,
8ec,
88a,
85b,
8b9,
8e9,
8eb,
88b,
82a,
82b,
85a,
85c,
85d,
85e,
88d,
88e,
8bc,
8bd,
8be,
8ec,
88c,
82b,
85c,
85d,
88c,
88e,
8bc,
8bd,
8be,
8ec,
8ed,
8ee,
8ef,
88d,
82d,
85d,
85e,
88c,
88d,
8be,
8ec,
8ef,
8f0,
88e,
82e,
85f,
8bf,
88f,
82f,
830,
860,
861,
891,
8c0,
8c1,
8c2,
890,
830,
831,
861,
862,
863,
890,
892,
893,
8c0,
8c1,
8c2,
8c3,
891,
830,
831,
861,
862,
863,
864,
891,
893,
8c2,
8f4,
892,
831,
835,
861,
862,
863,
864,
865,
891,
892,
8c1,
8c2,
8f4,
893,
832,
833,
834,
8c4,
8c5,
894,
833,
864,
8c5,
895,
836,
837,
838,
866,
867,
868,
897,
898,
8c6,
8c7,
8c8,
896,
836,
837,
838,
839,
866,
867,
868,
869,
896,
898,
899,
8c6,
8c7,
8c8,
8c9,
8f9,
897,
836,
837,
838,
839,
83a,
866,
867,
868,
869,
86a,
896,
897,
899,
89a,
8c6,
8c7,
8c8,
8c9,
8ca,
8f9,
8fa,
898,
837,
838,
839,
83a,
83b,
867,
868,
869,
86a,
86b,
897,
898,
89a,
89b,
8c7,
8c8,
8c9,
8ca,
8cb,
8f9,
8fa,
8fb,
899,
838,
839,
83a,
83b,
83c,
868,
869,
86a,
86b,
86c,
898,
899,
89b,
89c,
8c8,
8c9,
8ca,
8cb,
8cc,
8f8,
8f9,
8fa,
8fb,
8fc,
89a,
839,
83a,
83b,
83c,
83d,
86a,
86b,
86c,
86d,
899,
89a,
89c,
89d,
8c9,
8cc,
8cd,
8f9,
8fa,
8fb,
8fc,
8fd,
89b,
83a,
83b,
83c,
83d,
83e,
86a,
86b,
86c,
86d,
86e,
89a,
89b,
89d,
89e,
8cc,
8cd,
8ce,
8fa,
8fb,
8fc,
8fd,
8fe,
89c,
83b,
83c,
83d,
83e,
83f,
86b,
86c,
86d,
86e,
86f,
89b,
89c,
89e,
89f,
8cc,
8cd,
8ce,
8cf,
8fb,
8fc,
8fd,
8fe,
8ff,
89d,
83c,
83d,
83e,
83f,
86c,
86d,
86e,
86f,
89c,
89d,
89f,
8cc,
8cd,
8ce,
8cf,
8fc,
8fd,
8fe,
8ff,
89e,
83d,
83e,
83f,
86d,
86e,
86f,
89d,
89e,
8cd,
8ce,
8cf,
8fd,
8fe,
8ff,
89f,
840,
870,
8d0,
8a0,
841,
842,
843,
871,
8a2,
8a3,
8d2,
8d3,
8a1,
841,
842,
871,
872,
874,
8a1,
8a3,
8d3,
8a2,
841,
842,
871,
872,
873,
874,
8a1,
8a2,
8a3,
843,
846,
875,
8d2,
8d3,
8d4,
8d5,
8a4,
844,
8a5,
844,
845,
847,
848,
876,
877,
8d5,
8a6,
846,
849,
8a8,
8d6,
8d8,
8a7,
846,
847,
849,
84a,
877,
8a7,
8d9,
8a8,
878,
8a9,
879,
87a,
8da,
8aa,
849,
84a,
84b,
87b,
8d9,
8dd,
8ab,
84e,
87c,
87d,
87e,
8ad,
8dc,
8ac,
84e,
87c,
87d,
87e,
87f,
8ac,
8dc,
8dd,
8ad,
84f,
87c,
87f,
8af,
8b0,
8dc,
8dd,
8de,
8ae,
84f,
8ae,
8b0,
8de,
8e1,
8af,
84f,
852,
87f,
882,
8ae,
8af,
8b1,
8b2,
8de,
8e2,
8b0,
850,
852,
853,
87f,
881,
882,
883,
8b0,
8b1,
852,
853,
882,
8b0,
8b3,
8e1,
8e2,
8e3,
8b2,
852,
853,
882,
885,
8b2,
8e1,
8e2,
8e3,
8e5,
8b3,
883,
884,
8b5,
8e4,
8b4,
853,
883,
885,
886,
887,
8b4,
8b7,
8e4,
8e5,
8e6,
8e7,
8b5,
8b7,
8b8,
8e5,
8e6,
8b6,
885,
886,
889,
8b5,
8b6,
8b8,
8e5,
8e6,
8e7,
8e8,
8b7,
886,
889,
88a,
8b6,
8b7,
8e6,
8e7,
8e8,
8b8,
85b,
88b,
8ba,
8bb,
8e9,
8ea,
8eb,
8b9,
8b9,
8bb,
8ea,
8ba,
8b9,
8ba,
8e9,
8ea,
8bb,
85c,
85d,
88a,
88c,
88d,
8bd,
8be,
8ec,
8ed,
8ee,
8bc,
85c,
85d,
88c,
88d,
8bc,
8be,
8ec,
8ed,
8ee,
8bd,
85c,
85d,
88c,
88d,
88e,
8bc,
8bd,
8ec,
8ed,
8ee,
8ef,
8be,
85f,
88f,
8f1,
8bf,
860,
861,
890,
891,
8c1,
8c2,
8f2,
8c0,
860,
861,
863,
890,
891,
893,
8c0,
8c2,
8c3,
8c1,
860,
861,
863,
890,
891,
892,
893,
8c0,
8c1,
8c3,
8f4,
8c2,
861,
863,
891,
8c1,
8c2,
8f3,
8f5,
8c3,
894,
8c4,
894,
895,
8c5,
866,
867,
868,
896,
897,
898,
8c7,
8c8,
8f8,
8c6,
866,
867,
868,
896,
897,
898,
899,
8c6,
8c8,
8c9,
8f8,
8f9,
8c7,
866,
867,
868,
869,
86a,
896,
897,
898,
899,
89a,
8c6,
8c7,
8c9,
8ca,
8f9,
8fa,
8c8,
867,
868,
869,
86a,
86b,
897,
898,
899,
89a,
89b,
8c7,
8c8,
8ca,
8cb,
8fa,
8fb,
8c9,
868,
869,
86a,
86b,
86c,
898,
899,
89a,
8c8,
8c9,
8cb,
8cc,
8fa,
8fb,
8fc,
8ca,
869,
86a,
86b,
86c,
86d,
899,
89a,
8c9,
8ca,
8cc,
8cd,
8fa,
8fb,
8fc,
8cb,
86a,
86b,
86c,
86d,
86e,
89a,
89b,
89c,
89d,
89e,
8ca,
8cb,
8cd,
8ce,
8fa,
8fb,
8fc,
8fd,
8cc,
86b,
86c,
86d,
86e,
86f,
89b,
89c,
89d,
89e,
89f,
8cb,
8cc,
8ce,
8cf,
8fb,
8fc,
8fd,
8fe,
8ff,
8cd,
86c,
86d,
86e,
86f,
89c,
89d,
89e,
89f,
8cc,
8cd,
8cf,
8fc,
8fd,
8fe,
8ff,
8ce,
86d,
86e,
86f,
89d,
89e,
89f,
8cd,
8ce,
8fd,
8fe,
8ff,
8cf,
870,
8a0,
8d0,
870,
8d2,
8d1,
8a1,
8a4,
8d1,
8d3,
8d4,
8d2,
874,
8a1,
8a2,
8a4,
8d2,
8d3,
875,
8a4,
8d2,
8d5,
8d4,
875,
876,
877,
8a4,
8a6,
8d4,
8d5,
874,
8a7,
8d7,
8d8,
8d6,
8d6,
8d7,
8a7,
8d6,
8d8,
877,
87b,
8a8,
8ab,
8d9,
879,
87a,
8aa,
8da,
87b,
8db,
87c,
87d,
87e,
8ac,
8ad,
8ae,
8dd,
8dc,
87c,
87f,
8ab,
8ad,
8ae,
8dc,
8dd,
8ae,
8af,
8b0,
8de,
8e0,
8df,
8df,
8e1,
8e0,
8af,
8b2,
8b3,
8e0,
8e2,
8e3,
8e1,
882,
8b0,
8b2,
8b3,
8e1,
8e3,
8e2,
882,
885,
8b2,
8b3,
8e1,
8e2,
8e5,
8e3,
883,
884,
885,
8b4,
8b5,
8e4,
883,
885,
886,
8b3,
8b5,
8b6,
8b7,
8e3,
8e6,
8e7,
8e5,
885,
886,
8b5,
8b6,
8b7,
8b8,
8e5,
8e6,
885,
886,
887,
888,
889,
8b5,
8b7,
8b8,
8e5,
8e8,
8e7,
886,
887,
888,
889,
88a,
8b7,
8b8,
8e7,
8e8,
88b,
8b9,
8bb,
8ea,
8eb,
8e9,
8b9,
8ba,
8bb,
8e9,
8ea,
88b,
8b9,
8e9,
8eb,
88a,
88c,
88d,
88e,
8bc,
8bd,
8be,
8ec,
88d,
8bc,
8bd,
8be,
8ee,
8ed,
88d,
8bc,
8bd,
8be,
8ed,
8ee,
88d,
88e,
8be,
8f0,
8ef,
88e,
8ef,
8f1,
8f0,
8bf,
8f0,
8f1,
8c0,
8f3,
8f2,
8c3,
8f2,
8f5,
8f3,
892,
893,
8c2,
8f4,
8c3,
8f3,
8f5,
8f7,
8f8,
8f6,
8f6,
8f8,
8f7,
89a,
8c6,
8c7,
8f6,
8f7,
8f9,
8f8,
897,
898,
899,
89a,
89b,
8c7,
8c8,
8f8,
8fa,
8fb,
8f9,
898,
899,
89a,
89b,
89c,
8c8,
8c9,
8ca,
8cb,
8cc,
8f9,
8fb,
8fc,
8fa,
899,
89a,
89b,
89c,
89d,
8c9,
8ca,
8cb,
8cc,
8cd,
8f9,
8fa,
8fc,
8fd,
8fb,
89a,
89b,
89c,
89d,
89e,
8ca,
8cb,
8cc,
8cd,
8ce,
8fa,
8fb,
8fd,
8fe,
8fc,
89b,
89c,
89d,
89e,
89f,
8cc,
8cd,
8ce,
8cf,
8fb,
8fc,
8fe,
8ff,
8fd,
89c,
89d,
89e,
89f,
8cd,
8ce,
8cf,
8fc,
8fd,
8ff,
8fe,
89d,
89e,
89f,
8cd,
8ce,
8cf,
8fd,
8fe,
8ff;