memory_initialization_radix=16;
memory_initialization_vector=0202,
0404,
0404,
0202,
0303,
0504,
0505,
0704,
0404,
0707,
0605,
0807,
0606,
0000,
0303,
0303,
0000,
0000,
0303,
0303,
0200,
0303,
0303,
0504,
0606,
0606,
0505,
0404,
0000,
0303,
0000,
0604,
0c0a,
0a09,
0807,
0202,
0202,
0303,
0200,
0505,
0606,
0505,
0403,
0606,
0000,
0303,
0303,
0303,
0404,
0403,
0303,
0000,
0000,
0202,
0300,
0805,
0704,
0803,
0806,
0807,
0202,
0303,
0403,
0303,
0303,
0403,
0403,
0503,
0303,
0302,
0200,
0705,
0706,
0706,
0504,
0402,
0303,
0303,
0705,
0c08,
0d0b,
0907,
0808,
0202,
0503,
0302,
0404,
0502,
0503,
0302,
0404,
0604,
0b09,
0b07,
0b08,
0907,
0606,
0606,
0503,
0403,
0202,
0704,
0301,
0a06,
0906,
0a06,
0b08,
0705,
0803,
0403,
0501,
0303,
0403,
0000,
0901,
0902,
0602,
0601,
0302,
0402,
0906,
0906,
0804,
0402,
0303,
0804,
0a05,
0e0a,
0e0b,
0b0a,
0301,
0000,
0502,
0504,
0404,
0705,
0403,
0302,
0504,
0a07,
0d0a,
0f0e,
0d0c,
0a09,
0403,
0502,
0806,
0002,
0001,
0001,
0001,
0001,
0303,
0305,
0205,
0302,
0002,
0000,
0001,
0000,
0001,
0001,
0003,
0205,
0306,
0002,
0002,
0002,
0001,
0002,
0001,
0000,
0200,
0202,
0300,
0207,
0003,
0001,
0000,
0002,
0000,
0001,
0300,
0304,
0305,
0202,
0004,
0001,
0202,
0d0a,
0b09,
0a09,
0505,
0604,
0706,
0000,
0001,
0000,
0000,
0000,
0302,
0002,
0003,
0001,
0001,
0001,
0001,
0001,
0000,
0002,
0405,
0305,
0303,
0000,
0000,
0001,
0002,
0003,
0003,
0000,
0000,
0003,
0001,
0000,
0000,
0000,
0001,
0000,
0000,
0001,
0200,
0303,
0303,
0000,
0002,
0000,
0001,
0b09,
0403,
0503,
0503,
0603,
0201,
0001,
0001,
0000,
0000,
0000,
0200,
0000,
0000,
0000,
0000,
0000,
0000,
0000,
0000,
0202,
0303,
0301,
0000,
0000,
0000,
0000,
0000,
0000,
0000,
0000,
0000,
0000,
0000,
0000,
0000,
0000,
0000,
0000,
0000,
0000,
0000,
0000,
0000,
0000,
0000,
0000,
0000,
0702,
0404,
0404,
0604,
0905,
0601,
0001,
0001,
0000,
0000,
0000,
0000,
0000,
0000,
0000,
0000,
0000,
0000,
0000,
0000,
0000,
0200,
0000,
0000,
0000,
0000,
0000,
0000,
0000,
0000,
0000,
0000,
0000,
0000,
0000,
0000,
0000,
0000,
0000,
0000,
0000,
0000,
0000,
0000,
0000,
0000,
0002,
0002,
0502,
0503,
0404,
0503,
0503,
0603,
0002,
0000,
0000,
0000,
0000,
0000,
0000,
0000,
0000,
0000,
0000,
0000,
0000,
0000,
0000,
0000,
0000,
0000,
0000,
0000,
0000,
0000,
0000,
0200,
0300,
0200,
0000,
0000,
0000,
0000,
0000,
0200,
0000,
0000,
0000,
0000,
0000,
0000,
0000,
0000,
0000,
0000,
0705,
0404,
0606,
0605,
0705,
0b06,
0003,
0000,
0000,
0000,
0000,
0000,
0000,
0000,
0000,
0000,
0000,
0000,
0000,
0000,
0000,
0000,
0000,
0000,
0000,
0200,
0000,
0000,
0202,
0302,
0301,
0200,
0000,
0000,
0000,
0000,
0000,
0200,
0000,
0000,
0000,
0000,
0000,
0000,
0000,
0000,
0001,
0003,
0402,
0302,
0808,
0202,
0905,
0804,
0005,
0001,
0000,
0000,
0000,
0000,
0000,
0000,
0000,
0000,
0000,
0000,
0000,
0000,
0000,
0000,
0000,
0000,
0000,
0200,
0000,
0200,
0302,
0202,
0000,
0000,
0000,
0000,
0000,
0202,
0200,
0200,
0000,
0000,
0000,
0000,
0000,
0000,
0000,
0000,
0003,
0005,
0f09,
0d09,
0a0a,
0606,
0903,
0903,
0204,
0002,
0000,
0000,
0000,
0000,
0000,
0000,
0000,
0000,
0000,
0000,
0000,
0000,
0000,
0000,
0000,
0000,
0000,
0000,
0000,
0000,
0000,
0000,
0000,
0000,
0000,
0000,
0000,
0202,
0200,
0200,
0000,
0000,
0000,
0000,
0000,
0000,
0000,
0000,
0002,
0004,
0c06,
0c07,
0808,
0202,
0200,
0905,
0003,
0002,
0000,
0000,
0000,
0000,
0000,
0000,
0000,
0000,
0000,
0000,
0000,
0000,
0000,
0000,
0000,
0000,
0000,
0000,
0000,
0000,
0000,
0000,
0000,
0000,
0000,
0000,
0000,
0000,
0000,
0300,
0000,
0000,
0000,
0000,
0000,
0000,
0000,
0000,
0000,
0002,
0d08,
0a07,
0504,
0706,
0604,
0201,
0002,
0001,
0000,
0000,
0000,
0000,
0300,
0300,
0300,
0000,
0000,
0000,
0000,
0000,
0000,
0000,
0000,
0000,
0000,
0000,
0000,
0000,
0000,
0000,
0000,
0000,
0000,
0000,
0000,
0000,
0000,
0300,
0000,
0000,
0200,
0000,
0000,
0000,
0000,
0000,
0000,
0002,
0903,
0302,
0303,
0302,
0805,
0d05,
0000,
0001,
0000,
0000,
0000,
0000,
0000,
0000,
0000,
0000,
0000,
0000,
0000,
0000,
0000,
0000,
0000,
0000,
0000,
0000,
0000,
0000,
0000,
0000,
0000,
0000,
0000,
0000,
0000,
0000,
0000,
0202,
0202,
0000,
0000,
0000,
0000,
0000,
0000,
0000,
0003,
0001,
0503,
0605,
0303,
0403,
0302,
0804,
0000,
0001,
0000,
0000,
0000,
0000,
0000,
0000,
0000,
0000,
0000,
0000,
0000,
0000,
0000,
0000,
0000,
0000,
0000,
0000,
0000,
0000,
0000,
0000,
0000,
0000,
0000,
0000,
0000,
0000,
0000,
0202,
0202,
0000,
0200,
0000,
0200,
0200,
0000,
0000,
0002,
0000,
0502,
0605,
0202,
0202,
0504,
0302,
0004,
0003,
0000,
0000,
0000,
0000,
0000,
0000,
0000,
0000,
0000,
0000,
0000,
0000,
0000,
0000,
0000,
0000,
0000,
0000,
0000,
0000,
0000,
0000,
0000,
0000,
0000,
0000,
0000,
0200,
0200,
0000,
0000,
0000,
0000,
0000,
0200,
0200,
0000,
0000,
0001,
0002,
0602,
0504,
0606,
0202,
0403,
0503,
0003,
0001,
0000,
0000,
0000,
0000,
0000,
0000,
0000,
0000,
0000,
0000,
0000,
0000,
0000,
0000,
0000,
0000,
0000,
0000,
0000,
0000,
0000,
0000,
0000,
0202,
0000,
0000,
0000,
0200,
0200,
0200,
0000,
0000,
0000,
0000,
0000,
0000,
0000,
0000,
0001,
0001,
0a05,
0504,
0503,
0606,
0904,
0804,
0003,
0001,
0000,
0000,
0000,
0000,
0000,
0000,
0000,
0000,
0000,
0000,
0000,
0000,
0000,
0000,
0000,
0000,
0000,
0000,
0000,
0000,
0200,
0301,
0000,
0200,
0200,
0000,
0000,
0000,
0200,
0000,
0000,
0000,
0000,
0000,
0000,
0000,
0000,
0000,
0003,
0003,
0b04,
0202,
0605,
0808,
0702,
0904,
0203,
0001,
0000,
0000,
0000,
0000,
0000,
0000,
0000,
0000,
0000,
0000,
0000,
0000,
0000,
0000,
0000,
0000,
0000,
0000,
0000,
0200,
0300,
0301,
0502,
0302,
0302,
0302,
0000,
0000,
0000,
0000,
0000,
0000,
0000,
0000,
0000,
0000,
0000,
0000,
0001,
0004,
0c05,
0303,
0202,
0907,
0906,
0e07,
0206,
0204,
0200,
0000,
0000,
0000,
0000,
0000,
0000,
0000,
0000,
0000,
0000,
0000,
0000,
0000,
0000,
0000,
0000,
0200,
0300,
0300,
0400,
0400,
0300,
0300,
0300,
0300,
0200,
0000,
0000,
0000,
0000,
0000,
0000,
0000,
0000,
0000,
0000,
0000,
0003,
0002,
0602,
0000,
0303,
0605,
0d06,
0f07,
0706,
0404,
0302,
0000,
0000,
0000,
0000,
0000,
0000,
0000,
0000,
0000,
0000,
0000,
0000,
0000,
0000,
0000,
0000,
0000,
0200,
0300,
0301,
0301,
0301,
0401,
0501,
0503,
0303,
0202,
0000,
0000,
0000,
0000,
0000,
0000,
0000,
0000,
0000,
0000,
0001,
0002,
0604,
0802,
0303,
0000,
0404,
1106,
0304,
0404,
0202,
0000,
0000,
0000,
0000,
0000,
0000,
0000,
0000,
0000,
0000,
0000,
0000,
0000,
0000,
0000,
0000,
0000,
0000,
0000,
0200,
0200,
0200,
0201,
0200,
0300,
0300,
0200,
0000,
0000,
0000,
0000,
0000,
0000,
0000,
0000,
0000,
0000,
0001,
0002,
0901,
0503,
0202,
0303,
0905,
0904,
0204,
0506,
0000,
0000,
0000,
0000,
0000,
0000,
0000,
0000,
0000,
0000,
0000,
0000,
0000,
0000,
0000,
0000,
0000,
0000,
0000,
0000,
0000,
0000,
0000,
0000,
0200,
0200,
0200,
0202,
0000,
0000,
0000,
0000,
0000,
0000,
0000,
0000,
0000,
0000,
0000,
0003,
0806,
0303,
0303,
0505,
0703,
0403,
0003,
0201,
0000,
0000,
0000,
0000,
0000,
0000,
0000,
0000,
0000,
0000,
0000,
0000,
0000,
0000,
0000,
0000,
0000,
0000,
0000,
0000,
0000,
0000,
0000,
0000,
0000,
0000,
0000,
0200,
0300,
0300,
0200,
0000,
0000,
0000,
0000,
0000,
0000,
0000,
0001,
0001,
0504,
0303,
0404,
0705,
0505,
0c05,
0203,
0002,
0000,
0000,
0000,
0000,
0000,
0000,
0000,
0000,
0000,
0000,
0000,
0000,
0000,
0000,
0200,
0000,
0000,
0000,
0000,
0000,
0000,
0000,
0000,
0000,
0000,
0000,
0000,
0000,
0000,
0000,
0000,
0000,
0000,
0200,
0200,
0200,
0300,
0300,
0200,
0001,
0604,
0503,
0403,
0504,
0706,
0c04,
0002,
0202,
0000,
0000,
0000,
0000,
0000,
0000,
0000,
0000,
0000,
0000,
0000,
0000,
0000,
0000,
0000,
0200,
0300,
0000,
0000,
0000,
0000,
0000,
0000,
0000,
0000,
0000,
0000,
0000,
0000,
0000,
0000,
0000,
0000,
0200,
0200,
0000,
0000,
0000,
0001,
0201,
0501,
0302,
0403,
0404,
0402,
0802,
0204,
0304,
0201,
0000,
0000,
0000,
0000,
0000,
0000,
0000,
0000,
0000,
0000,
0000,
0000,
0000,
0000,
0202,
0202,
0000,
0000,
0000,
0000,
0000,
0000,
0000,
0200,
0000,
0000,
0000,
0000,
0000,
0000,
0000,
0200,
0400,
0300,
0300,
0000,
0000,
0001,
0202,
0402,
0302,
0303,
0202,
0402,
0302,
0002,
0202,
0202,
0000,
0000,
0000,
0000,
0000,
0000,
0000,
0000,
0000,
0000,
0000,
0000,
0000,
0000,
0000,
0000,
0000,
0000,
0000,
0000,
0000,
0000,
0200,
0202,
0000,
0000,
0000,
0200,
0200,
0000,
0000,
0000,
0300,
0300,
0300,
0000,
0000,
0000,
0000,
0301,
0301,
0200,
0705,
0404,
0402,
0001,
0302,
0303,
0000,
0000,
0000,
0000,
0000,
0000,
0000,
0000,
0000,
0000,
0000,
0000,
0000,
0000,
0000,
0000,
0000,
0000,
0000,
0000,
0000,
0000,
0202,
0200,
0000,
0200,
0000,
0000,
0000,
0000,
0000,
0000,
0302,
0302,
0302,
0000,
0000,
0001,
0001,
0200,
0000,
0000,
0303,
0200,
0404,
0001,
0201,
0303,
0202,
0000,
0000,
0000,
0000,
0000,
0000,
0200,
0200,
0000,
0000,
0000,
0000,
0000,
0000,
0000,
0000,
0200,
0000,
0000,
0000,
0000,
0200,
0000,
0000,
0000,
0000,
0000,
0000,
0000,
0000,
0000,
0200,
0302,
0202,
0000,
0000,
0001,
0000,
0500,
0300,
0200,
0000,
0504,
0200,
0002,
0000,
0000,
0000,
0000,
0000,
0000,
0000,
0000,
0000,
0000,
0000,
0000,
0000,
0000,
0000,
0000,
0000,
0000,
0000,
0000,
0000,
0000,
0200,
0000,
0000,
0200,
0000,
0000,
0000,
0000,
0000,
0000,
0000,
0000,
0200,
0000,
0000,
0000,
0000,
0000,
0001,
0201,
0201,
0000,
0302,
0201,
0303,
0000,
0000,
0000,
0000,
0000,
0300,
0200,
0000,
0200,
0200,
0000,
0000,
0000,
0000,
0000,
0000,
0000,
0000,
0000,
0000,
0000,
0000,
0200,
0200,
0000,
0000,
0000,
0000,
0000,
0000,
0000,
0200,
0200,
0000,
0000,
0200,
0200,
0201,
0000,
0000,
0002,
0004,
0602,
0302,
0202,
0402,
0302,
0503,
0001,
0000,
0000,
0000,
0000,
0200,
0200,
0000,
0200,
0300,
0000,
0000,
0000,
0000,
0000,
0000,
0000,
0000,
0000,
0000,
0000,
0200,
0000,
0000,
0000,
0000,
0000,
0000,
0000,
0000,
0200,
0300,
0200,
0000,
0000,
0200,
0200,
0000,
0000,
0000,
0001,
0205,
0d07,
0d08,
0504,
0504,
0404,
0804,
0004,
0000,
0302,
0302,
0302,
0000,
0200,
0000,
0000,
0200,
0000,
0000,
0000,
0000,
0000,
0000,
0000,
0000,
0000,
0000,
0000,
0000,
0200,
0000,
0000,
0200,
0000,
0000,
0000,
0000,
0000,
0000,
0000,
0000,
0000,
0000,
0000,
0000,
0000,
0000,
0302,
0404,
0f09,
0e08,
0907,
0505,
0505,
0b04,
0202,
0000,
0303,
0404,
0505,
0505,
0404,
0202,
0000,
0000,
0000,
0000,
0000,
0000,
0000,
0000,
0000,
0000,
0000,
0000,
0000,
0000,
0000,
0000,
0000,
0300,
0000,
0000,
0000,
0000,
0000,
0000,
0200,
0200,
0000,
0000,
0000,
0000,
0000,
0000,
0203,
0304,
0b04,
0a05,
0908,
0504,
0505,
0b04,
0303,
0000,
0404,
0505,
0505,
0606,
0302,
0201,
0000,
0000,
0000,
0000,
0000,
0000,
0200,
0200,
0000,
0000,
0000,
0000,
0000,
0000,
0000,
0000,
0000,
0200,
0000,
0301,
0000,
0000,
0000,
0301,
0400,
0200,
0000,
0000,
0000,
0000,
0202,
0303,
0403,
0305,
0402,
0402,
0706,
0403,
0504,
0702,
0003,
0203,
0000,
0301,
0602,
0705,
0504,
0503,
0202,
0000,
0000,
0000,
0000,
0000,
0200,
0200,
0000,
0000,
0000,
0000,
0000,
0000,
0000,
0202,
0202,
0200,
0200,
0200,
0303,
0200,
0301,
0403,
0404,
0303,
0000,
0000,
0000,
0000,
0807,
0a0a,
0906,
0404,
0803,
0a04,
0504,
0303,
0303,
0503,
0001,
0001,
0000,
0200,
0300,
0301,
0402,
0404,
0404,
0000,
0000,
0000,
0000,
0000,
0000,
0000,
0000,
0000,
0000,
0000,
0000,
0202,
0202,
0201,
0403,
0403,
0403,
0403,
0403,
0502,
0402,
0403,
0303,
0303,
0000,
0000,
0000,
0302,
0909,
0b0a,
0a0c,
080b,
0e05,
0b05,
0605,
0200,
0704,
0802,
0000,
0000,
0000,
0302,
0502,
0603,
0503,
0403,
0000,
0000,
0000,
0000,
0000,
0000,
0000,
0000,
0000,
0000,
0202,
0303,
0302,
0301,
0200,
0000,
0000,
0000,
0000,
0000,
0201,
0303,
0403,
0303,
0202,
0000,
0000,
0000,
0000,
0303,
0604,
0c0a,
0b0d,
0809,
1005,
0000,
0a09,
0707,
0603,
0402,
0002,
0002,
0000,
0200,
0300,
0300,
0200,
0000,
0000,
0000,
0000,
0000,
0000,
0000,
0000,
0000,
0000,
0000,
0000,
0000,
0000,
0000,
0200,
0200,
0200,
0200,
0000,
0000,
0000,
0201,
0302,
0303,
0202,
0000,
0000,
0000,
0000,
0201,
0403,
0605,
0608,
0506,
0504,
0504,
0303,
0908,
0808,
0602,
0003,
0001,
0200,
0404,
0404,
0200,
0000,
0000,
0000,
0000,
0000,
0000,
0000,
0000,
0000,
0000,
0000,
0200,
0000,
0000,
0000,
0000,
0000,
0000,
0000,
0000,
0000,
0000,
0201,
0402,
0303,
0303,
0202,
0000,
0000,
0000,
0202,
0303,
0303,
0303,
0303,
0303,
0906,
0704,
0504,
0502,
0909,
0a09,
0000,
0000,
0200,
0200,
0404,
0200,
0000,
0000,
0000,
0000,
0000,
0000,
0000,
0000,
0000,
0000,
0200,
0300,
0000,
0000,
0000,
0000,
0000,
0000,
0000,
0000,
0504,
0606,
0605,
0504,
0404,
0403,
0303,
0000,
0000,
0202,
0503,
0603,
0303,
0303,
0305,
0407,
0b07,
0807,
0606,
0404,
0c09,
0d0a,
0200,
0000,
0000,
0200,
0404,
0000,
0000,
0000,
0000,
0000,
0000,
0000,
0200,
0200,
0000,
0000,
0300,
0200,
0202,
0404,
0606,
0505,
0404,
0202,
0000,
0000,
0301,
0504,
0808,
0908,
0706,
0303,
0202,
0000,
0200,
0201,
0604,
0705,
0a06,
0e05,
0d08,
0d0a,
0c0a,
0a08,
0706,
0505,
0909,
0c0b,
0201,
0000,
0000,
0000,
0200,
0200,
0000,
0000,
0000,
0000,
0000,
0003,
0000,
0002,
0001,
0000,
0300,
0002,
0406,
0606,
0707,
0507,
0606,
0304,
0003,
0000,
0001,
0402,
0705,
0b0a,
0909,
0304,
0204,
0001,
0001,
0305,
0b09,
0e0c,
130d,
120e,
130f,
1410,
1712,
0e0d,
0b09,
0505,
0c0a,
0d0c,
0002,
0002,
0003,
0004,
0003,
0003,
0002,
0002,
0002,
0000,
0000,
0007,
0002,
0005,
0202,
0204,
0306,
0000,
0200,
0403,
0604,
0605,
0606,
0403,
0001,
0005,
0205,
0302,
0404,
0709,
080a,
0304,
0005,
0003,
0201,
0408,
0e0e,
1314,
1712,
1612,
1712,
1714,
1515,
1111,
0c0c,
0606,
0a09,
0806,
0704,
0707,
0a05,
0903,
0b06,
0202,
0404,
0404,
0603,
0a04,
0a04,
0b06,
0e07,
0803,
0704,
0e05,
0c08,
0703,
0d08,
0a09,
0a05,
0b06,
0c08,
0805,
0504,
0d05,
0d07,
0a05,
0403,
0908,
0d0a,
0b05,
0d05,
0602,
0402,
0c07,
110f,
1614,
1716,
1914,
1613,
1716,
1817,
1413,
0f0d,
0404,
0904,
0907,
0908,
0804,
0201,
0803,
0603,
0801,
0202,
0404,
0702,
0704,
0908,
0905,
0604,
0b06,
0905,
0905,
0a06,
0503,
0c08,
0502,
0b0a,
0907,
0806,
0404,
0504,
0b07,
0a06,
0c07,
0403,
0804,
0a06,
0c08,
0804,
0200,
0303,
0a07,
0d09,
110d,
110f,
100e,
0f0c,
130e,
1412,
1010,
0c0b,
0303,
0303,
0605,
0604,
0505,
0703,
0505,
0202,
0303,
0504,
0404,
0202,
0804,
0706,
0403,
0202,
0303,
0707,
0706,
0807,
0605,
0b0a,
0807,
0b09,
0909,
0604,
0504,
0404,
0805,
0605,
0605,
0505,
0403,
0302,
0302,
0403,
0404,
0303,
0303,
0303,
0706,
0b0a,
0e0e,
0f0e,
0f0d,
0e0d,
0b09,
0906;
