memory_initialization_radix=16;
memory_initialization_vector=3f000000,
3ee2d942,
3efffdbd,
3efffffb,
39939ed4,
3efecd4f,
3ea57dc6,
3ef81218,
3ea3b2ee,
3d942fa8,
3f000000,
3eb85ee5,
3ea57dc6,
3ef81218,
3dbaf245,
3ef931b6,
3ed4160b,
3d0a6595,
394cc42b,
3ef931b6,
3ed4160b,
33089b7e,
3e7fa7cd,
3bb35f71,
3ef54e35,
38345b08,
3e1e73bc,
3bb35f71,
3efeb2bc,
3eaa6ba8,
3b4b2d43,
3556a51e,
3efeb2bc,
3eaa6ba8,
3ebc6a13,
3a2b8a31,
355001cd,
370a579c,
3a2c12c2,
3eac1c16,
3e9fe408,
3f000000,
3e437021,
3ea8a2d2,
3eaa6ba8,
3ebc6a13,
3efc663f,
38e7f0ae,
3706105f,
388ecb25,
38e8a954,
3e870139,
3efc663f,
3b4b2d43,
33813664,
3556a51e,
3b4bcf04,
3ef0ff0b,
3efc162c,
3eff8191,
3ed926c6,
38850a83,
378f3654,
3efe816e,
3ef51156,
3effdbd5,
3bbf48d0,
3ef51156,
3a094139,
3efffffc,
34d16db1,
3eff5480,
3ecf16ca,
3eefa84c,
3dcff864,
3ecf16ca,
3eefa84c,
3cee5682,
3a0b5877,
3ea326e8,
3e0d3f83,
3e3ca7e2,
3adab4a6,
3e90565b,
3d8106f3,
3e0278f7,
3ed68973,
3b96164a,
3ef03120,
3eaf513a,
39ffb8b7,
3e3b37cf,
3ba13e89,
3ec7b131,
3cdff261,
3eee58e3,
3eff4ab5,
346b43ba,
3b3870e1,
3efcf71a,
3ef0ff0b,
3d700f66,
3eaaaaab,
3eff6091,
3ee9e8f9,
3ed43cdf,
38f22c9d,
3ecc2cea,
36036c7a,
3e8805c9,
32659c72,
3ee24e86,
3c8e8f6c,
3a086592,
38030b51,
3b9035b3,
39d548f3,
36803959,
3ea3310a,
39e39bb6,
3c1f1b73,
3e489e1c,
3dcb113f,
3e49e632,
3ccf77ab,
3d9ec4eb,
3ecc2cea,
39af1660,
3e8805c9,
3e0f1dbc,
3c8948cc,
3d7c5317,
3c56ac43,
3f000000,
3f000000,
3f000000,
35745156,
3efffb7b,
3e9e442a,
3cfbd941,
3ea7a436,
3e629807,
370bc3f6,
3d30cd4a,
3e62980e,
3ea7a436,
3eb0b356,
3386b529,
3ea34cc8,
35594782,
3eb0b35c,
37000b18,
3326cec4,
3eff61a0,
3effe215,
3ee9e837,
3effffff,
3eff622e,
3747a6ee,
3ec34887,
37e7996e,
3596ad0d,
3e622114,
3d22dae0,
3e88e8da,
3effbf06,
3e3b0081,
3eff6ec5,
3a81f2e6,
3ed13fe0,
3b113b04,
3effbf06,
3ed13fe0,
3eff6ec5,
3efffdbd,
3efffffb,
3de8a254,
3b9958d0,
3f000000,
32c142e5,
3ee2d942,
38106b6c,
34add662,
3efecd4f,
3f000000,
3f000000,
3cd7c1e0,
3e299ae8,
39527876,
3eb76c46,
3e61779f,
3eac1c16,
3e9fe408,
3e608ebf,
3e5253ee,
3efff3a5,
388a60aa,
370a579c,
3ba69b04,
3a3c3cd0,
390cb1fa,
3be66b0d,
3ead8de9,
3eae1814,
3510b5c5,
36ce3b3a,
33b9cdf4,
392fd88a,
3ef4f6a4,
3efcc7e0,
3d082682,
38ec7cfd,
3f000000,
3ed926c6,
3efffbd8,
3ec0886b,
3ec08943,
3e954d87,
3eb6cf1b,
3d700f66,
3efc162c,
3afcde3d,
3ef0ff0b,
3c7a74ef,
3eff8191,
3efe816e,
3d2eeaa7,
3effdbd5,
3effff3c,
363723a0,
3edf2291,
37438752,
3ef72b9a,
3e0375bd,
3effff3c,
3d0d4394,
3edf2291,
3efffffb,
3efffdbd,
34791ebe,
38809fb8,
3c98ed42,
3ef03120,
3af8f831,
3ea326e8,
3ed68973,
3cff152f,
3d6f424a,
3eaf513a,
3bb323d2,
3d568e2f,
39e62cf3,
3ec7b131,
32ba6f51,
3b83c462,
3eee58e3,
348eb91d,
3ef1c30c,
3e7cefa6,
3d8c9de1,
3effffbd,
3f000000,
3d700f66,
3ef0ff0b,
3eaaaaab,
3b1dd13f,
3ee9e8f9,
39c62e3d,
3eff6091,
32c5eaa5,
3db0b838,
3ed43cdf,
3a5fae10,
37ce774a,
3e0a3670,
391e7c26,
3ee24e86,
3810dfd7,
3ea88a92,
3670fec7,
33bbe85d,
3d4b61e3,
3c68a73f,
3e8805c9,
39a935c6,
3e803b71,
3621c622,
3e09d1d7,
399ab996,
3d2f4337,
3e5c2cc2,
3dd7828f,
3b754e98,
33074768,
3ec8e0c7,
3747abe7,
39589ddc,
34baf54b,
371c1d38,
3aca1142,
3e1a2c27,
3d077e87,
3e0f1dbc,
3a77f455,
3e89ffa3,
3e3f9fa4,
3e57ca2b,
3f000000,
3f000000,
3efffb7b,
3eb0dd95,
3b73ff6e,
3f000000,
3ef63937,
3c9125b8,
3db534fa,
3ea34cc8,
3db53500,
3ef478a4,
3ee135d1,
3d38758c,
3ee135d1,
370a29ff,
3eff9ab8,
3effff4c,
35064398,
3eff61a0,
3effe215,
3db0b7a5,
3effffff,
3eff622e,
329af4fd,
35469e5c,
37914211,
328a24f3,
3e9fdb79,
3afa6b56,
3cc0241b,
3689dfd3,
379b702e,
3e08eb15,
3e0ce509,
35189042,
3e91e69c,
3d843b6c,
3e1500ea,
35b09349,
35234170,
3c236742,
3e060fab,
3eaf0681,
3eb53856,
34282f60,
3b24cac2,
3aeda045,
3eb2c270,
36855b94,
3e91e69c,
3eaf0681,
3eb53856,
3a0b21ca,
39b386ed,
3e4d20b5,
34b92705,
3e984264,
3ea3b2ee,
3e2145f1,
33f1f248,
3e86f0d3,
38376714,
3d661089,
3e0698e7,
3ec4247e,
39018dce,
3ebc532f,
3c1463ae,
3ed45936,
36a0bf4a,
3d080c93,
3f000000,
3eb85ee5,
3f000000,
3f000000,
3f000000,
3cfdbcf0,
3ef54e35,
3ec0b622,
3568d8b8,
3f000000,
3981d94e,
3bc19da0,
3d2a4a2e,
3eb76c46,
360ec9ca,
3ec47c07,
3e89d08e,
3e931b4a,
3e7af287,
3d8a7a16,
3eff77dd,
3800700a,
3d6f43f5,
3d0a9dc8,
3c0b500b,
3ea8a2d2,
3efffe00,
3f000000,
355845ed,
36ba8937,
3854ddf8,
35958dfd,
37aa5d3d,
3ef4f6a4,
3efcc7e0,
3c206d0b,
3a3c3cd0,
390cb1fa,
3be66b0d,
3ead8de9,
3eae1814,
3d082ad0,
3c2590e1,
3ef4eee6,
3e1b64e6,
3efffbd8,
3ec0886b,
3edacb4b,
3e7ddaf7,
3eb5593d,
3e9261ca,
3ec08943,
3eb5593d,
3eb6cf1b,
3efed1ab,
3eb22012,
3e714bbf,
3d1a6cb6,
3ec17728,
3effea79,
3efffffb,
3efffdbd,
3efffffc,
3eff5480,
3e43a4d4,
3d81bc85,
3ef1c30c,
3e89756a,
3e2b0514,
33995076,
3a009049,
3b35455f,
3d63cf02,
3d90ef50,
3ea68cf4,
39590ae6,
3eff4ab5,
33056af9,
395ede82,
3efcf71a,
3effffbd,
3f000000,
3ef0ff0b,
3ef0ff0b,
3eaaaaab,
3cc3f0e2,
3ea88a92,
35e84754,
3b17bef1,
396f7a5c,
393497ba,
3eb41988,
3d2f4337,
3a881027,
38ceaf0e,
3ea3310a,
329d2f56,
3d41c26b,
3c8f30c0,
3ea88a92,
3d7a5f84,
3e49e632,
3db5087d,
3e280ea5,
3c6fa532,
3d30af42,
3e0bac33,
3823ef6e,
3e803b71,
3802365e,
3e56f262,
3acccc25,
3dbebda9,
3e5c2cc2,
3e280ea5,
3aca1142,
3e1a2c27,
3d077e87,
3591bf4a,
3e0f1dbc,
3a77f455,
3e89ffa3,
3e49e632,
3e3f9fa4,
3e57ca2b,
3eefc667,
3f000000,
3efa6a1e,
38909a22,
36ad3b7e,
3f000000,
3ef63937,
3ea7a436,
3eb0b356,
3ea34cc8,
3eb0b35c,
3946abf4,
3edbb7cd,
3ef931b6,
3b9958d8,
3aa8e14c,
39ebbbfb,
3ef931b6,
3ef876cd,
3aca8f15,
3effff4c,
3b1dd1e7,
338708b2,
39eeef6a,
3ee9e837,
3e48860a,
3b310757,
3e912d86,
3e77ad0f,
3dcf23ba,
3ce7326e,
3a58578a,
3d294cba,
3d1f3c84,
342a5255,
3e912d86,
3e77ad0f,
3c8c0992,
3d352a2c,
3e08eb15,
3e0ce509,
3c730627,
3ec34887,
371cc6da,
3678bec4,
3b64fa7d,
3a482a88,
3e2697b0,
3cc0241b,
3e88e8da,
3ed0f827,
3d6b1491,
3a078132,
3a0b70a3,
3e0fbf0c,
36094835,
37e7996e,
3596ad0d,
3ad852d3,
39a937a1,
3d22dae0,
3e88e8da,
3ed0f827,
3d0aad63,
3a97a028,
3a9c0774,
3e5a0c5b,
36d662e7,
3c687279,
3e7ad287,
3e1500ea,
3ced62ca,
3cd5be50,
3eb2c270,
33016ba4,
33052dda,
398e13e9,
3eb8408d,
3eb8408d,
3eaaaaaa,
3e3d5171,
3f000000,
332cb1d6,
385d9926,
3701df2b,
3efff699,
36ce222d,
3efd2e4b,
3ed45936,
3e9061d3,
3dc265f8,
3ec0b622,
3f000000,
369c5bb3,
369c5bb3,
3a977140,
3eff77dd,
3d5e475d,
35177681,
3db8a303,
3a26adb9,
3efffe00,
3efff3a5,
3c20721d,
3b1c367b,
3ef4eee6,
3f000000,
3e9b4da3,
3e9bc946,
3c40b242,
3c414baa,
3e141bc4,
37edad0d,
3ef72b9a,
3276b001,
3e06bfae,
3b8d6c73,
3880cebe,
3b5666cb,
36597145,
34df236f,
37f47f32,
3276b001,
3e06bfae,
3b8d6c73,
3eff9d7e,
3705592d,
3efdc476,
32625a06,
39ab39ff,
34add662,
38106b6c,
3adab4a6,
3b2b8031,
37eafcf6,
367a6a42,
32c142e8,
34add638,
3acccc25,
34c4fbcd,
3ba7fa87,
3ec8e0c7,
3c4066bf,
3e6d7547,
3e2638d4,
3c74c6b0,
3d5d4b03,
3e2e81d1,
3db9d56e,
3eefc667,
3d81ccd1,
3eb0dd95,
3b73ff6e,
3cb2804d,
3ef478a4,
3b8789b1,
3efecd4e,
3effab8f,
341cd587,
3ded7587,
3e10a8c3,
3981d94d,
3ef876cd,
3eff9ab8,
3733e520,
3b1dd23e,
3cb1b80e,
325b3287,
35f2460d,
3d724f9a,
3e91e69c,
3ad852d3,
3e9fdb79,
3d3eeb11,
3e40e3e9,
3a0b21ca,
3aeda045,
33839825,
3e891894,
3e8d13da,
3e5a0c5b,
3e210b7a,
3e9fdb79,
3e40e3e9,
3a0b21ca,
3aeda045,
33839825,
3e891894,
3e8d13da,
3e5a0c5b,
3e210b7a,
35f559f4,
3430598b,
3d3e549d,
3ddc55ba,
393a4b52,
3d8c97a6,
3d90acea,
3e5a0c5b,
3b801ef3,
3e6a9741,
3ec4247e,
377b07dc,
3ebc532f,
3afa911d,
3e2e991f,
3e9061d3,
3e8744b4,
3e427fd0,
378458af,
3b804d75,
32427679,
3efff699,
3a50038a,
3efd2e4b,
3a9d050c,
3ec47c07,
3b082287,
3e7af287,
3d8a7a16,
3a8ac584,
33717b63,
346e59c2,
37c605b2,
3936e653,
3e7dd9dc,
3a370e2f,
3edacb4b,
3b9527ea,
383926f5,
3eb22012,
3ec17728,
3ac50491,
3efffd92,
3f000000,
3efed1ab,
3effea79,
3eff9d7e,
3efdc476,
3e1bcd30,
35c2b518,
3eeda32d,
3ed90cb4,
325d3034,
3c1ceb18,
38a898c3,
3e89756a,
3de17c88,
329d396f,
3ba5aaee,
3ea68cf4,
3c3e5f9f,
3a0d02db,
3eb41988,
3d84ed77,
383b345c,
37e89e61,
3efa6a1e,
32888f71,
3efecd4e,
3effab8f,
3edbb7cd,
3cd7c1e7,
3cf12652,
36ddc584,
333653ce,
389de316,
3a5fcb66,
3c567160,
35b09349,
36d2711d,
3dc9bd3d,
3dcf991e,
3bf8eab8,
3eaa7749,
3f000000,
3ef7679c,
3effca7f,
3efc94ab,
3ef7679c,
3effca7f,
3c3e158a,
3eb8408d,
3eb8408d,
3eaaaaaa,
3e8f7ee7,
3e8f7ee7,
3eaaaaaa,
3f000000,
3d28435e,
3eaa004e,
3efffd92,
3f000000,
3c0ee23c,
3eeda32d,
3ed90cb4,
3d92e697,
3edfce60,
3e123f16,
3d098635,
3a560253,
3efc94ab,
3ed49365,
3ec6696e,
3eec0c30,
3ee95e9e,
3d09821f,
3e7b5192,
3eadb023,
3d83a99c,
3eec0d52,
3e2123ff,
3d6ad840,
3eae4582,
3d9f9571,
348827a5,
3f000000,
3f000000,
3f000000,
3d724f9a,
3eb6e075,
3bf15ea8,
3e123f16,
3edfce60,
3eb6e075,
3eaa7749,
3f000000,
38cb8f01,
3e63adcd,
3eec0c30,
3d350ae0,
38f38e10,
3eadb023,
3d83a99c,
3eec0d52,
3ed8e58b,
3b7f8b0b,
3e6388b1,
358084a5,
3eaa004e,
38336171,
3eae4582,
36442231,
3ec6696e,
3d9f94ad,
3ee95e9e,
3ef76041,
34154db6,
3b2b1f27,
379d1da6,
3d350ae0,
3ef76041,
3ae5fc7b,
329f1c4c,
3ed49365,
37873636,
35d4d207,
350b41fb,
3eb7ce0f,
3a4197f5,
3ec881cf,
3ee71490,
3bdcb090,
370c638d,
3ee763bb,
33939a94,
3ae4b1cc,
3c14954d,
34299685,
3eb7ce0f,
36ba967c,
3ec881cf,
3dc31930,
3dc6825e,
3a407dbc,
3dd3698f,
399a9c16,
3f000000,
3efff39a,
3f000000,
3efff39a,
394656be,
37be6ab3,
3d67d42b,
3c3c5f7f,
36cdb16d,
3efffe83,
3f000000,
3efffe83,
3f000000,
3e181ea8,
3ea73e3a,
35d71313,
3e97d1a5,
3e8ebb9b,
3b38d4bb,
3e5db76f,
325dec5c,
3f000000,
3f000000,
3e8f25bd,
3dc35c0a,
3d83d702,
3ee71490,
38905c11,
3ed8e58b,
3eaa004e,
3e8a2f7a,
3eda35c7,
3de4b17e,
33207bc1,
3bcffce5,
39a99e2a,
3a8a77af,
3c37485f,
3f000000,
3f000000,
3f000000,
3f000000,
3f000000,
3f000000,
37781560,
39f9e946,
3c011ffe,
3d109267,
3ca8c84e,
37a09c33,
3ec524d5,
39ade235,
349e7863,
35ea712b,
3e8587fe,
37757bc5,
3839489d,
3e92fbb5,
3de1ee3e,
3dd5689e,
35f0665a,
3c83e11a,
3ea73e3a,
37781560,
3ea5033a,
3eb24073,
39f9e946,
3da32142,
34479e64,
3c011ffe,
3b9fc531,
3e918e47,
382d56c2,
3ea5033a,
3eb24073,
393d0db7,
3d36107e,
352e2f38,
3c749c70,
324975f3,
3b1e861b,
3d1b8c6c,
382764a7,
3ecca184,
3e378028,
3efb6f20,
3ee763bb,
3efd82f3,
398349fb,
3e8a2f7a,
3eda35c7,
3ac232fa,
3d6fe8c0,
369f351f,
3c9b8b8c,
3efbf53d,
3e313421,
3dbd6bea,
3f000000,
3f000000,
322f9e44,
39abbc39,
3e8587fe,
3500ea2e,
3cdb2bfa,
3e856e3a,
3a38ba58,
38e2bc85,
3839489d,
3ebfc54d,
3ea82919,
3ee5af1c,
3d7cb480,
3ca8c84e,
3c4b7c86,
3ebfc54d,
3ea82919,
352766da,
3ba7e643,
3234eee9,
3e5bded0,
3413bd21,
350b41fb,
3eb287f7,
3c749c70,
3ea211cf,
39c28163,
3f000000,
3f000000,
3ecca184,
3eb2b489,
3b28e245,
3e5427a0,
3a402184,
3df1f12f,
3ea570d7,
3dc75841,
3b45e6b2,
3ebd0fdc,
37b72904,
3d471f8b,
3dafd486,
3bc6e050,
3c4b7c86,
35f931df,
3c7e85a7,
3ec524d5,
3ae62802,
3d94dfaf,
3dafd486,
32316c98,
3eb287f7,
3af3a934,
3ea211cf,
3c39310d,
3499bf0a,
352e2f38,
37968d50,
3efd02cd,
3ac5049a,
3dc6825e,
396f2243,
3efb6f20,
3ef9c834,
352169af,
3aa3fe29,
39a99e2a,
3a8a77af,
3efbf53d,
3cc6f983,
3f000000,
3efd82f3,
3c665052,
3d0b5e5b,
3cd7cf89,
3e103ef9,
3e7cd899,
3b221341,
3ee5af1c,
3effffff,
39a6899e,
33eb5a1b,
3effeb2f,
34ae067c,
336d5b62,
3ef9c834,
3eb2b489,
37400b21,
3ea570d7,
3cc16197,
3e2a266f,
3ab0dc33,
3cd354aa,
3ebd0fdc,
38fc03f4,
395dbc5d,
3f000000,
3f000000,
3f000000,
3f000000,
3f000000,
3255481b,
3d471f8b,
3d089a79,
3effffff,
3effeb2f,
3ef9417a,
34f54964,
3d39c406,
34353679,
3ee269b1,
3ebafced,
3d00201a,
3efd02cd,
3eff9d7d,
3ef931b6,
36be64e9,
3efff820,
3f000000,
3efff820,
3f000000,
3c79cef7,
3dd9d908,
3901e40a,
3ed4c486,
3aa3fe29,
3f000000,
3f000000,
3f000000,
3f000000,
38f5c9d2,
3ee2195e,
34ae067c,
3edb171f,
3ee269b1,
3ebafced,
3e3d8509,
3d473f4c,
3b3f98a1,
3f000000,
353dee3b,
3f000000,
35911b41,
3f000000,
3eaaaa72,
36fd904f,
3c7fd597,
3efffffb,
3f000000,
3c6bdc22,
35f3d660,
3ed4c486,
3cf0c5db,
3e0f05ad,
34907aff,
3339ed82,
3edb171f,
3ef9417a,
3b591c1a,
3ee2195e,
3eff4056,
3eff9d7d,
3ef931b6,
3e5f62a5,
3bf56929,
3d2fa546,
3e5691ea,
3ec89b48,
3eb807f9,
3583a1c2,
37b8f248,
3efffffb,
3f000000,
3685d9e9,
3eaaaa56,
3c070cac,
3eaaaa72,
3eaaaa56,
3ee66b9e,
3eaaaa72,
3eaaaa56,
3ee66b9e,
3d9bc6c6,
3f000000,
3effcc71,
34302e31,
383204b3,
3d75e6bb,
3ec89b48,
3eb807f9,
39d59bb7,
3925c8e1,
3f000000,
3cd7c1e0,
3ec8274b,
3eaaaaaa,
3636e8cc,
3daad183,
3eff4056,
3ed1a37e,
37256ae6,
3b5a1c60,
3ec8cd93,
3e8625fa,
3d059521,
3523c74c,
3ed892f0,
3433c859,
3c1d6674,
3859e8a2,
3efce50a,
3909f50c,
3c55b92a,
334c72d6,
3cec2ad2,
3e5d49ad,
34add662,
3b134461,
39c57233,
3d3580a5,
3e4668a4,
3a698ecd,
3c99707a,
3e40f927,
3981d94e,
3ed74188,
3a7cad0b,
39c41b11,
3f000000,
3f000000,
37ba59b1,
39c57233,
3d3580a5,
3effa4b1,
3e4668a4,
3ed1a37e,
363d925c,
3c10293e,
3ec8cd93,
3eb61714,
3c951665,
3a1b9794,
32b4540f,
3efffe76,
37abbec8,
37be6aaa,
3eb8e256,
3d272ef6,
3da45367,
3ed892f0,
3ef05048,
3d676c1a,
364baa2c,
3cd6c6b1,
3ef74bdc,
3eff1028,
3ef74bdc,
3eff1028,
3b6fd666,
3a4e3bf5,
3f000000,
3effcc71,
3dfd9b95,
3e6bfe8e,
342c74a7,
3bdc4ac2,
3a7998f9,
39c57233,
3d3580a5,
3effa4b1,
3e4668a4,
38396fcb,
3ec8274b,
3eaaaaaa,
3cf96311,
3f000000,
3f000000,
3e1e968d,
3efce50a,
3e4e3101,
3eb61714,
39e0659b,
3d087948,
38138f09,
3cd66d91,
3dff305f,
3c653af0,
3a1858c9,
3ef05048,
3c2ed710,
3da07e06,
3e5d49ad,
35c587f9,
3e47dae9,
3381b56d,
3e51f321,
3dc75bf5,
3547fe45,
3eb8e256,
3df6f905,
3e2df058,
33cffeac,
3d364040,
3614e4bc,
3b10c035,
39dcbfdc,
3c8617c1,
3ed74188,
3e1a8559,
3d3f53d6,
3a5b6fb5,
3c4e8f87,
3ec0991b,
3f000000,
3ec0991b,
3f000000,
32af65d6,
3909f50c,
3c55b92a,
3eeec9f1,
3e512a6a,
3c9387e6,
39e0659b,
32e972be,
3ee8531e,
35a91467,
3b118ae7,
3c166881,
327ece35,
3e2eaa89,
3e5d49ad,
33c48237,
3e59392d,
3e069d9c,
3d237e27,
3efffe76,
36e884f3,
3efff8b2,
36ba5bb5,
3ee71482,
3b6e5be8,
34354215,
3effe239,
3eff0f80,
3dc75797,
3effffd3,
3f000000,
3e9c3fdf,
3eb1e011,
3eb1e011,
3bb55541,
38e9bd72,
3ec40f30,
3ebe2662,
3f000000,
3e6ae9fb,
3ebe2662,
3f000000,
3e83b33c,
3f000000,
3dfd9b95,
3d91fb23,
3ea29635,
3eaaaaaa,
3ef3d119,
3ef80e32,
3e5cb4e9,
3efc875a,
3efffd19,
36425542,
3efc875a,
3efffd19,
3803e7ae,
3eeec9f1,
3ecbb318,
3efb63c2,
3e40979c,
38833cf4,
3ddf0d69,
3e51f321,
3ed8af05,
3ef76668,
34bbe739,
365ac107,
3efff8b2,
3ee71482,
38e89580,
3effe239,
3eff0f80,
3dc75797,
3effffd3,
3f000000,
3b9781e5,
3ed59805,
32af65d6,
3a2539d9,
3ea29635,
3ef3d119,
3ef80e32,
3ec5c0e0,
3f000000,
333aae86,
3d087948,
3ecbb318,
3efb63c2,
3cced13a,
3bf7f9a2,
3dc658b2,
3ed8af05,
3d09858a,
3ee8531e,
3e83c180,
3eaf26f1,
3e718fc7,
34ca91a2,
3e59392d,
3e2cd995,
3d927d5e,
3c5e2f9c,
343dd8cc,
39eb46e4,
3633fc2e,
3a0539cf,
3808f61a,
3ec40f30,
3f000000,
39278245,
3ea29635,
3880eba8,
3c8b2aab,
3cfdb8f3,
3f000000,
3ec5c0e0,
3d4d0b34,
333a8c98,
3efff246,
3f000000,
3d81cccb,
3efff246,
3f000000,
350638da,
3e069d9c,
3d237e27,
3ef76668,
3907ec0f,
36e11c0c,
3efcb51f,
39dbd6d5,
3d81007a,
3b7a6c4f,
3effe485,
32941c1f,
341111ca,
39ffabe2,
3e29199a,
3e727146,
360e50c9,
3b3f98ad,
3ed59805,
3efff503,
3ef26893,
34df3617,
3e219482,
3efff503,
3b511123,
3c00b6af,
392fd97b,
3ef26893,
3effffdb,
3e83c180,
3eaf26f1,
3eb73647,
3ef78976,
3c10cf51,
3d372a76,
3db8adaa,
3eb73647,
3cd6528d,
364c94cb,
3efcb51f,
327eb463,
3eee4cee,
352ea26c,
3efffe24,
3c141cab,
3effe485,
33906d2d,
3debb12e,
361fd4a1,
3effffe8,
3c447990,
3ef32cd5,
33dc6f7d,
3efdbd6c,
395b99b1,
3eefc65c,
3c10a498,
3ef32cd5,
3eefc65c,
3efdbd6c,
3e66ef4e,
3d465c43,
3ef78976,
3e7db411,
369b5e93,
38f0ab2e,
3428a748,
3be1faab,
3e7db411,
3b952a2a,
3772a1e9,
35687fa8,
3e658866,
329f1b24,
3e7db411,
3efed582,
3e658866,
345de835,
35c2c567,
381da149,
3effffe8,
3eff4067,
3effffb8,
3d4c65b8,
3effffdb,
368fdce7,
3eee4cee,
325e7f23,
3efffe24,
3ed131b4,
3f000000,
3c8f8f44,
3e7db411,
3efed582,
394c75d8,
3e658866,
3f000000,
3effff56,
3bb31ad5,
3d41cab6,
3f000000,
3effff56,
372a2c81,
3f000000,
3f000000,
3f000000,
3f000000,
3c4e106b,
3e908a7a,
3e7ddaf7,
3eb48282,
3ec08943,
3eb48282,
3ec08943,
3eff4067,
35f33d46,
3effffb8,
3f000000,
3efc9779,
3f000000,
3efc9779,
3ef72bc6,
3efff4b6,
3d0d43ad,
38b4914a,
3f000000,
3f000000,
3f000000,
3f000000,
3f000000,
3f000000,
3f000000,
3f000000,
37edccec,
3ed131b4,
362230e9,
3700e6a6,
32a56f5c,
3f000000,
3d355c10,
3efb835d,
3effff7f,
3ef72bc6,
3efff4b6,
3bda21df,
3efff711,
3eff70fe,
3efff711,
3eff70fe,
3a202601,
3f000000,
3f000000,
3bc6754b,
39255319,
3efe7316,
3efff5ab,
3efe7316,
3efff5ab,
3f000000,
3f000000,
3e0d9c29,
3efb835d,
3effff7f,
3409fbac,
3eccda65,
3eaaaaab,
3eccda65,
3bda21df,
390f00de,
3b0f02e6,
3effd7f6,
3f000000,
3effd7f6,
3f000000,
3effeeea,
3f000000,
3effeeea,
3f000000,
3f000000,
398bf75e,
3e4c966a,
3eaaaaab,
3e4c966a,
38b4914a,
3f000000,
3f000000,
3f000000,
3f000000,
3f000000,
3e9261ca,
3f000000,
3eccda65,
3eaaaaab,
3eccda65,
3988b1ab,
3d77b58d,
3822cec6,
3597b01d,
3638410e,
3e30c38e,
3d29103c,
3effffed,
3ee269b5,
3f000000,
3f000000,
3f000000,
3f000000,
3f000000,
3eaaaaaa,
3effd01e,
36035cc0,
3ee0b11c,
3d9c9cdd,
3b661937,
33398bf6,
3822cec6,
3f000000,
3e16a22f,
35368c97,
3e901b00,
37910e2b,
3f000000,
3e92b272,
3a6d7558,
3d07c9d6,
3beb07d2,
3e339ff1,
3e01d8d7,
3a912eb6,
3ebb1ac6,
33180645,
3e9c2703,
3decd4f7,
34577e6e,
353e8190,
367eb089,
3effffed,
3ee269b5,
3d50aa1d,
3cf96bd9,
3f000000,
3eb6cf1b,
3238a318,
3ef2d784,
3effd01e,
3ecbb4d3,
3e8f7ece,
3ebfd567,
3ee0b11c,
3e9488c1,
3e109d36,
3e94b670,
3dd9f855,
3e6ddfae,
3e9912f3,
3e88d27f,
39329587,
3a177fbb,
3efff4d7,
3effda1f,
3efff4d7,
3effda1f,
3ef40e7d,
38e7272a,
328e333d,
3ef40e7d,
3efff8c7,
39868f98,
3d77b58d,
3362cbe3,
3d3f1836,
3efff8c7,
3e901b00,
35fb827d,
3a125b56,
3e26ba15,
3e3ef07f,
3c2c2e7e,
3ebb1ac6,
35ca01f6,
3e9c2703,
3eaeee40,
3272b7dd,
38adc121,
38c6fcce,
3e16a22f,
3da26b78,
39868f98,
3e483e65,
3eaeee40,
3b986785,
3bae8977,
3f000000,
3235f5d5,
3eaaaaaa,
336bb403,
3efff40e,
3a3f8524,
3e512c33,
3eb8406c,
3e7cedd4,
367a59f8,
3c804020,
3de0ba2b,
3e9912f3,
3e18b408,
395d821e,
3eaf387f,
3ef53a63,
3d05d049,
39040014,
3ef53a63,
3ef78299,
3cadb2a1,
37b9c0f3,
3d2c59d5,
3ef78299,
3efa8a29,
3efff7c9,
3781fc6f,
3a0189bc,
3efa8a29,
3efff7c9,
3d94b77c,
36e5a47b,
38d7f9b8,
3eece408,
3316aee9,
37062537,
3f000000,
381d6bde,
39444d5e,
361b3620,
379e88bd,
3c855f56,
3addc0d6,
3c110ab5,
3c8b2f92,
34513472,
3d94dfb3,
3ef0b090,
3ef3d9af,
35368c97,
3d2fa549,
32421afb,
3ef0b090,
3ef3d9af,
3e92b272,
36eb4fd8,
3e4e831d,
3905fa4f,
3c4d51ee,
3e8203fc,
3e94e595,
3eaaa98f,
3eb6cf1b,
33340b99,
3ef2d784,
3eff9ab8,
3ecbb4d3,
3eb8406c,
3ebfd567,
39855c5b,
3be80cd8,
3e9488c1,
3e444bd0,
3e94b670,
322e683f,
3aa8e739,
3d84e100,
3b32ffb6,
33eaa318,
3efddec5,
3df5b06d,
3543b11b,
345ace06,
3efddec5,
3ee13cd9,
392760b6,
33966683,
3b050923,
3c080dd9,
3ee13cd9,
3efff57d,
3effef94,
3eece408,
3f000000,
394a68e7,
3efff57d,
3effef94,
3efffe66,
3956e5df,
3efffe66,
37cd0e8f,
38fe9f8b,
3b0609cd,
3f000000,
3efffffc,
3f000000,
3efffffc,
3d6de05f,
34923e9c,
3ef10688,
3e7b7375,
3e1385b8,
36f262be,
37b56241,
39db92a8,
36d6a222,
3f000000,
3f000000,
3f000000,
3f000000,
3e4e831d,
3905fa4f,
3c4d51ee,
3e8203fc,
3e94e595,
3eaaa98f,
3eaaaaaa,
3efff40e,
3aca8f15,
36343b93,
3903cb83,
3effef16,
3efe2fe6,
3eaf387f,
3a659ffb,
3a4244fc,
3695c2b4,
3d403fcc,
34052529,
3ea135f8,
391b3d1c,
3b0142ba,
3ec2d551,
3eff9379,
3b8a8591,
3800cd1d,
37c24205,
3bcf3438,
3568344a,
3efc01b4,
37e19726,
3e64148c,
3ef946a4,
356e65ff,
3effee5b,
3f000000,
3effee5b,
3f000000,
3f000000,
3f000000,
3f000000,
3f000000,
3efffffa,
323d7832,
3eff71f0,
35c49538,
3effffe6,
3efeb8df,
35cf2c3b,
3effffe6,
3efeb8df,
3effffe6,
39718884,
32850804,
3ba39066,
3effffe6,
3ee1b652,
3ece59e8,
35840405,
3ebbdd07,
3d1b2167,
37f77391,
3db3fe00,
3ee1b652,
3ece59e8,
36116665,
3416a180,
3e27e3c1,
3edab124,
39afae6b,
37a83e4f,
3d25e5bf,
3bbfc373,
348ad502,
3effe40a,
3915c8ca,
3eff6178,
3986e3e8,
32564f07,
3ef10688,
3ea93d57,
3ab28b36,
3e82ac96,
3e4a8330,
3e67ec01,
3eaaa98f,
3ea93d57,
3bbd3be4,
3eb65ed8,
3417ac9c,
3efdda8f,
3b2ae35a,
3effff04,
36aa9a19,
3d5287c2,
393f20fa,
3eff9ab8,
3b66e6d2,
3effef16,
3efe2fe6,
3a3210a3,
3ee1f500,
3da991a9,
3784149a,
392a418e,
38943766,
3efffb50,
3b0677d3,
3956e4cd,
3efffb50,
3eff7988,
3f000000,
381ceef4,
3560de91,
3eff7988,
3f000000,
3f000000,
3f000000,
3f000000,
3f000000,
373caeae,
3efec6de,
3b1dc32f,
3e4dfcdc,
3b9c32a0,
3eff49c8,
3ecc5aa7,
3efec6de,
3eff49c8,
3ecc5aa7,
39c3a6b0,
3a1885df,
349e76cc,
34c71f8b,
3efffffb,
3efff557,
3efffffa,
3eff71f0,
3589f94a,
33aefff7,
3effffe1,
3efc8ba6,
3885dd59,
3effffe1,
3efc8ba6,
3efffbd1,
35ea6535,
3c5d169c,
3efffbd1,
36d73bdd,
381804f1,
342a020a,
32b15758,
3efe6b98,
3b6e4dd9,
34c9933c,
391b39b6,
3efcc3f5,
398d52e7,
399d4c88,
3dca1354,
3d2519a3,
3bc70c76,
3ebbdd07,
3d51ec00,
356f5d0b,
3c13b07c,
3dbbf0b0,
391b6928,
392bc1e4,
3c70c032,
3e1b23fb,
39de9182,
3572eb98,
3d976f66,
3edab124,
3b088250,
3d081eea,
399efeb6,
3ec4247d,
3da95342,
37937120,
3828149f,
3effe40a,
3ad12c2c,
34e8e077,
3a381a5c,
3eff6178,
3e90754a,
3a98b81b,
34427048,
33b12059,
3beee5c0,
3bddb252,
3e90754a,
394e7e1c,
3ccabf69,
3c416413,
3c08e33f,
38d7be4d,
3ec62418,
371c910a,
3e002789,
3efdda8f,
3641d1b0,
3effff04,
35419a12,
35419a12,
3ef428ac,
389f7fd7,
3e468175,
3c9347df,
3ec0ffb5,
3c8f8f5a,
3e6dcefc,
3a80aa75,
3ec2d551,
3eff9379,
3a0286f5,
3a2ab199,
3c363fb0,
3c7f0eb5,
3ec28376,
3cd729d7,
3efc01b4,
3ec28376,
3ef946a4,
3f000000,
3ef91234,
3f000000,
3ef91234,
3efeb5d8,
3cddb98f,
3efeb5d8,
3ba51402,
35c3fa19,
3efffffb,
3efff557,
3e8a6b5e,
392a8177,
3ebabb39,
3c723844,
3ebabb39,
3efc371f,
3f000000,
3efc371f,
3f000000,
3efff732,
3ee1fe2f,
35a0a74e,
3eb72a01,
374dfcef,
3c16c986,
3e62420f,
36a06019,
36475fa5,
3efe6b98,
3bb1f93b,
3904cc36,
3e8b997b,
3efcc3f5,
3c19a75b,
3761a422,
3ed596e5,
3ba1f7f7,
3b087adf,
38c58161,
3c9d39f3,
3d637639,
33a73193,
3ded8dd9,
3b555715,
3ec4247d,
3ee94c59,
39aa4aa2,
39773865,
3e000cb7,
3631db8d,
34929393,
38dd60f0,
35ca8088,
3ec62418,
3b838291,
3ee94c59,
3c7f1ac5,
3e979484,
3ea93d57,
3ca09967,
3eb65ed8,
35da7d52,
35a0d52a,
3424b0f9,
37f274ab,
3c333d70,
3e635e3d,
35ffa5d3,
3eae2e11,
3e803743,
3d6509cf,
3e152a68,
373a7c9e,
3ea20070,
39815811,
3c9347df,
38188ecc,
3c82c090,
3b0c3258,
3dee3f1a,
3ea0d277,
3e8ebe4f,
3ec0ffb5,
3efb8385,
3e4bc28d,
3efb8385,
3ee1f500,
3e4c8f6b,
3acef9da,
3eff9882,
3edd536b,
3eff9882,
3edd536b,
3f000000,
3e0ab253,
3f000000,
3917f1de,
3efff732,
3ee1fe2f,
3a9ae8db,
390cd059,
3c3fc892,
3defc28c,
3efd54f1,
3ec70200,
32bd2094,
3b3cfd16,
3eb72a01,
34317823,
3efd54f1,
3ec70200,
3e293bae,
3e657719,
34861664,
3ab1e187,
3ed596e5,
392a411a,
392a411a,
331fe8f0,
363dadb9,
3efecb07,
3efecb07,
3eaaaaab,
363dadb9,
3efecb07,
3efecb07,
3eaaaaab,
3b952407,
3b952407,
3eaaaaab,
3ef428ac,
3b881178,
3e711cb5,
3dd9da8f,
3dc167b8,
3e3a886a,
3bfef3ed,
3df1f03e,
3d3d699b,
3ea20070,
3de3c960,
3e940c06,
3e836eb4,
3e3a886a,
3e9bd855,
3bc0b9fc,
3e93f6a8,
3e8ebe4f,
3ea0d277,
3e787758,
331b3591,
359638a7,
3ede7a50,
37ac8260,
3d667aa9,
3effff66,
391d2754,
3efffea6,
3ef19852,
35c06148,
35603107,
3effffda,
3b1fc6f1,
3effffda,
3eff6039,
3effc522,
3eff6039,
3effc522,
3f000000,
3a6b7a4e,
3f000000,
3f000000,
3efc7050,
3f000000,
3efc7050,
3ef1adc1,
3c63ec0c,
3ef1adc1,
3d9b8b40,
3d6523e4,
3eec8e98,
3ebe9a0a,
3eec8e98,
3ebe9a0a,
3bde4db2,
36c79db1,
3e82cbec,
3efe4363,
35ffa5d3,
3eae2e11,
3efe4363,
3e803743,
3d6509cf,
3e152a68,
3d6b8285,
3d2d5c8d,
3e979484,
3eb56acb,
3e002789,
3dbcac04,
3e979484,
3eb56acb,
3effcda4,
36a0c4fe,
3ea20070,
3de3c960,
3e940c06,
3e836eb4,
3e3a886a,
3e9bd855,
3bc0b9fc,
3e2ddfb1,
348f8751,
3d3ea397,
3e711cb5,
3e669922,
3e4cb828,
3e56535c,
3d7ff26e,
3d0aa20f,
3e9bca84,
37217094,
3ede7a50,
3efffea6,
3ef19852,
37014c94,
3efff70b,
33173bed,
33ac4fdd,
3b0da7f6,
3780a760,
3efe86f2,
3abe952d,
37899513,
37393564,
3ad5581c,
394f3845,
3edea213,
3d92e693,
3bbee2d3,
340c9094,
3edea213,
3eeda32e,
3d3900cf,
35ea7d81,
3eeda32e,
3ef46fd1,
3ef0826c,
3789b5b5,
3ef46fd1,
3ef0826c,
3efffeed,
36078113,
3d77d93a,
3efffeed,
3f000000,
3effbe38,
3efe62bb,
3eecb903,
365affd2,
3efe62bb,
3eecb903,
3eec0d52,
3d9a37e4,
3eec0d52,
3d834f24,
3d9f9572,
3eef961c,
3ed98e79,
3eef961c,
3ed98e79,
3d55a23f,
34b089fe,
3e1f06c7,
3e19c61b,
3ef2a5dc,
3db96864,
38c30948,
3e61f8e8,
3e6fedcf,
339ac0ad,
3ef2a5dc,
3ea1c8c1,
3cd63278,
3ac4f76b,
3daaf1b8,
3db5808f,
3e94adf6,
326f4ba2,
3c48bcda,
3ef76468,
3eff8c62,
389b3fcb,
38a4d67a,
3b4282e2,
3a32b2c5,
3ef76468,
3eff8c62,
3591b883,
359ab889,
38de0c40,
3effcda4,
3effffae,
3effe7b3,
3387078e,
3aab33e0,
3d482cde,
35c29f2c,
3d31b5ed,
3c04f702,
3e9bd855,
36a1096d,
3b4bd0a3,
374ab841,
3de3c960,
3bad8a71,
3b9a10b2,
3cc9f4b1,
37e1c956,
3e9fe8f7,
3db28a20,
3cb7013e,
3e88445f,
3db5f227,
3e05ef78,
335cf8dd,
348c2974,
3effff66,
3f000000,
3efe7787,
3f000000,
3efe7787,
362e7f1b,
3469893b,
3bb4eb79,
3efff8f8,
393b78a5,
3efce9ec,
3780dac1,
385bdc32,
38c7f0e5,
3effbf6b,
3efa1c9c,
37390dad,
3d1260e6,
3effef05,
3ead1164,
3effffbf,
373e479b,
3f000000,
3effdc48,
33a60bf4,
37970d1e,
3efffcf1,
33991b14,
3ef860c9,
38d8a3eb,
3bb4f66f,
38436d03,
3ee4286e,
370c49f5,
35d7cae6,
3efb8a77,
3efaba5a,
380b3abd,
3e03f9f9,
33a05c41,
3ee83b13,
3de113a3,
3a14f233,
3efafb66,
3efe0963,
32942783,
399bdc13,
3eb9c903,
3ea621e4,
3bea20d6,
37c8fe03,
3eb9c903,
3eacef0d,
3f000000,
3eacef0d,
3f000000,
336df6d6,
3efffe21,
3ee3d8d1,
3620fcec,
349c542d,
3efffe21,
3ee3d8d1,
3ec3a133,
34b2841a,
32ceac96,
35502df9,
3de1297a,
3ec3a133,
3dc40c46,
35a63375,
3496b544,
3e71005e,
3ee77d4b,
3c960f3f,
33f0fc8d,
3350394e,
3b53a7d2,
3ee77d4b,
3efb01c6,
3e70db92,
3d6e4338,
33099ed1,
36fc872b,
386d802a,
3ac7f53f,
32bac35b,
36c1b627,
3efb01c6,
3ebd9223,
3d1d1287,
3d26c609,
329b807f,
37a1d615,
39147e61,
3e0505df,
3980e8ee,
3679f96b,
39f03dbb,
3ebd9223,
3e685657,
3e76afe1,
3e55112d,
354aab91,
32a7c3f4,
3e0505df,
3980e8ee,
3679f96b,
3c99d556,
3e685657,
3e76afe1,
3e55112d,
32a7c3f4,
3ea1c8c1,
3be1d8d8,
398528ec,
3e14f85a,
3e1e2bc0,
3e94adf6,
3a3f834a,
3effffae,
3effe7b3,
37cef66f,
393f1fbb,
3e034316,
3e56535c,
3c86ef0d,
3da89b77,
3e9bca84,
38a6a25e,
3dce2adf,
3b10bfbb,
3b1ee593,
33e4e677,
366a97c7,
3c368c50,
38300288,
3ea49ca8,
3ba43b49,
3df6f835,
3e078de2,
3afcd973,
377b101a,
36a0955d,
3ee3d084,
3ea52ea8,
33082a1f,
3ec50f7c,
3515bbfe,
3e10a716,
3846c2be,
39616f58,
339ab967,
39f50fa0,
3efff8f8,
3efce9ec,
3cb74e99,
3eff4aa6,
36fe9431,
370c85a4,
3effbf6b,
3c45842e,
3efa1c9c,
3c8f8246,
382278da,
35853b4b,
34d24a81,
3987da71,
3a1f7c9f,
3ead1164,
3ef6ce8c,
33e2cb28,
3a5358f7,
35656a1e,
3e9ccab4,
3ef6ce8c,
3b0ee558,
3cb9468f,
34900d69,
3effef05,
39106c49,
3effffbf,
3dfc5813,
37a74917,
3d3d63d5,
3f000000,
3effdc48,
38dccacd,
36ecd546,
39dc37ad,
3db1e238,
38f8698d,
3a7b0d01,
3894a5e7,
39eeef6a,
3efff70b,
3efffcf1,
3ef860c9,
3e7d3f9a,
3c8ce2cd,
3efe86f2,
36083a99,
3ee4286e,
3d6c6181,
3efb8a77,
3524f476,
3c965b2d,
3478bd61,
3c8ce2cd,
3bcc8892,
3437f4f7,
3ced8948,
3e1ffedd,
3efafb66,
3bbc5f3f,
3a52951c,
35dadfd5,
3ebeeda4,
3ab62e19,
3734390d,
3efe8741,
3f000000,
371bfad1,
3efe8741,
3f000000,
3b75ceba,
37288bed,
3eff0965,
382687b4,
3f000000,
3effbe38,
3726060b,
3716e7b1,
39033857,
3bcde508,
33a152ce,
3ee90c57,
3eaa9735,
3d42c5bb,
3340c2f8,
37d48efd,
3388c040,
34634767,
37b80959,
3ee90c57,
3eaa9735,
3e68d715,
3c11a961,
3230e3b5,
35441b3c,
36e19a3b,
37d2e0d8,
33083eaf,
399b382e,
3a25684e,
3532631d,
3db746ce,
3ea060f9,
3ea81695,
3e4bb70f,
3cfbfdbc,
3538efe4,
35d2e556,
365e2dda,
3971301a,
3d210c21,
3d5c1379,
34b20c48,
326fd8ed,
33ce7e8f,
3ca59198,
3ea81695,
3ec18d85,
3e8f8cbc,
3cdb2233,
32b4ed73,
33c7b20c,
3417ad37,
365261b4,
3dc9628b,
3de8f355,
372985b0,
34f49407,
3404976d,
3d8c2c75,
3ec18d85,
3ea4f02a,
3ea4cd67,
355eec8b,
3238fbb7,
35635e87,
3d887445,
3e05d465,
3a819418,
34861da1,
36147961,
37886078,
337136bb,
38e094a5,
390a1b36,
3d13daae,
3ea4f02a,
3ea4cd67,
3b50515b,
3e1a3579,
34fc32d0,
3daf35eb,
3e0a0cfe,
3dea04f6,
3acea1ab,
3ba84eaa,
3c637ce9,
3cc3c9a5,
3a228bf6,
3b335bba,
32db545b,
32e8e03a,
3d3679ca,
3e83f6a2,
3e2cd8b5,
3ca6f58f,
3dac442a,
341aaa64,
38e45496,
3b9d9822,
390b898b,
3e2bab80,
3e136f6b,
3dd21d7a,
3db9b039,
3870d71b,
3b2c4de7,
3d92a2e0,
3c95d928,
3e312f7b,
3e365806,
32c53698,
3d0c1da5,
3dfe0691,
3d2b4151,
3cccf694,
3d4680b4,
3d909d40,
3cf3ab28,
3d82c166,
3e1a3579,
3e518330,
3c07ec95,
3d8dc158,
3c2621c6,
3dd21d7a,
3e019312,
3bc8172e,
33f1fadd,
38396047,
3efffdd5,
3efff262,
370c1a4f,
38a6c5ac,
3e9fe8f7,
3e001862,
3c41356e,
3e88445f,
3d7d98c5,
3d8b3114,
3572e52f,
3eaf9b26,
3d5eeb53,
32587d41,
3df1f03e,
3b4bd0a3,
3ea49ca8,
3d8fadad,
3e774a45,
3e87baed,
377a9055,
32f82613,
3a55ef5e,
3c980b12,
3ea059fa,
34791705,
3a48a8c2,
331c7b63,
3f000000,
3ea138a8,
3b3241fd,
3e9e5a25,
3d9e5a57,
3b84cc6c,
35bf7d08,
3efb1b8f,
3b891aeb,
3cb2f3ef,
3a52173a,
3d6020e5,
3e25495f,
3da263fd,
3ee78fab,
39a8026c,
3c935d87,
3ec1d977,
333c356a,
3e7895c2,
35d50a0b,
3d852175,
3e38f7c0,
36c10332,
3d0d9943,
3df6c310,
3e8209ff,
3ca9344f,
3eb46231,
3cf33e9d,
3a42c5eb,
3a8caee5,
3df6741e,
3722ec43,
3e8e269d,
3d2242f6,
3a425241,
3cd48a87,
3a338477,
3c29205c,
3e991d67,
37f4130b,
3e01a420,
3b37f800,
3404a4d5,
3b4a12e3,
3bf4ea58,
37969edd,
348eb914,
36387c02,
3edad63a,
3ea1a4d4,
3c710f0b,
390dc555,
3edad63a,
3eae9c34,
3ef0642d,
39726373,
358827d6,
3c6d0c16,
3eae9c34,
3ef0642d,
3ea6a78b,
38157609,
3a0edff7,
38157609,
3617a7e3,
3b90aa29,
3e6b2547,
350d3d2c,
3e4b30c7,
3e71bd3c,
3423f717,
3b05b695,
3e6e5d80,
388b98f6,
3ad07d5b,
3e3c0cf0,
326a1586,
3e4b1f78,
3a22572c,
3ec0ab75,
3effe215,
39d5cf89,
3ddeb3ec,
3483d989,
339688ae,
3b933cb2,
3efaba5a,
3c14bdca,
3eeadf5e,
3ae8b2e5,
35c1f72a,
3ee83b13,
3c04ab42,
3c4b6746,
3efe0963,
345cfd8c,
3eae7c99,
3877d8cf,
3da8ec6a,
3603f646,
3d828d41,
3801b036,
352d431f,
3c0fafbe,
340f7059,
3e5fc143,
3b0791c4,
3e80493b,
324bafae,
3b3a1edc,
3d4eb6f4,
36a156be,
3edcabbd,
3e248250,
3a838fcb,
3effff59,
3d9978b6,
3ba92d93,
3df49bff,
336e44c4,
332c2b36,
3cf11190,
37e74923,
37eb12a9,
39be26a8,
3ed91a9b,
3eb1b6f7,
3d7271b9,
3dd051ac,
3e8c5f0b,
3cd45684,
3c7c361d,
3b93bd5f,
3b558225,
3e0ada70,
38a52e77,
345c2e4f,
36263c7e,
38d2a476,
36ecbef4,
33a76002,
3260dc15,
3ed91a9b,
3eb1b6f7,
3e807aed,
3b9bdf11,
3e5096e5,
3dd46081,
3df49bff,
3dbfc94b,
3b89563f,
387f2b51,
38386180,
3e1f8abc,
3b90e286,
39455492,
36473268,
35b5a4e2,
383e69b9,
358097f3,
35300f89,
3250c04f,
3d98c85c,
3e848d22,
3ea073ca,
3e4f1e88,
3c6ba121,
35b50a3a,
3b3815cc,
3ba60d6c,
386e453d,
3e40854a,
3e65b141,
3e6e69db,
3284f945,
349ac947,
376534d7,
361b894f,
33b27de1,
3bf927af,
3ea073ca,
3ec2f938,
3e7089f2,
3c06e92a,
3d67172f,
3d955d03,
3592f75d,
3bc5f49f,
3e40854a,
3d722f5d,
3d341f39,
3e8058c6,
35096918,
3704d174,
345bc7c4,
3246cb89,
3d13f5da,
3ec2f938,
3e9632c6,
3e7244f1,
3c6669ce,
3e05d465,
37ece4f6,
328f19e6,
344cffe0,
3db5e172,
3c6af09d,
3c13e8a0,
3e29390b,
3cdcfb5c,
363de92e,
330035a9,
36bcfe1b,
35977c56,
3527e3d3,
3925732f,
3c879788,
3e9632c6,
3e7244f1,
3c6669ce,
3a1cfb6d,
37ece4f6,
328f19e6,
344cffe0,
3535a35a,
3c6af09d,
3c13e8a0,
3e29390b,
3cdcfb5c,
39c0353d,
34ed250b,
37e9da62,
37a7f148,
39147e61,
3d4b0ed5,
3c68ec20,
3d47f964,
3e6ba1d8,
3e08a19c,
3d8dc158,
3e26ff09,
386be249,
3995d418,
3a9debc1,
3b29bcab,
3e2f46e9,
36827ab3,
3b1a7c40,
3e1ef537,
3d8f145b,
3e28b840,
32a3edbd,
38d1a1bb,
3bc550e4,
3e312f7b,
3de9d4a4,
3d25d24e,
3d887445,
3e0a0cfe,
3da6c79e,
3c16cdb2,
3cb66503,
3d147eae,
3d849816,
380568f3,
3d707f75,
3e3d2344,
3dde742d,
39147e61,
3d4b0ed5,
3c68ec20,
3e08a19c,
3d8dc158,
3e26ff09,
3a9debc1,
3b29bcab,
3e2f46e9,
3e1ef537,
3d8f145b,
3e28b840,
39ab3824,
3efffdd5,
3efff262,
35596067,
338708b2,
3e1b64e6,
3b4bd0a3,
3ea49ca8,
3d8fadad,
3e774a45,
3e87baed,
377a9055,
32f82613,
3c980b12,
3ea059fa,
3aa2e992,
367235d5,
3684f128,
3eff7cba,
3effff02,
376e8c9d,
37217094,
3eff7cba,
3effff02,
331ba341,
364ec16b,
394ea0e9,
3effb3d6,
3e88c31b,
38dc54ee,
34791c4a,
38fc03ef,
3ee3d084,
33982706,
35b678f3,
39aae58a,
3ef7679c,
3ea138a8,
3a9f4e27,
3e9a0396,
335d1e1a,
3a23d69f,
3eceaf9b,
3aaf226d,
3d098636,
3efc62f4,
3f000000,
3f000000,
3e8feacd,
3e93732b,
3e8feacd,
3e93732b,
3e602a67,
3e93732b,
3e602a67,
3e0b4d00,
3effff41,
3c66b49d,
3f000000,
3ea52ea8,
3e1121f8,
3ef0b12a,
3e4eee53,
3eb036fd,
3e38f7c0,
3e960ebb,
3a042662,
3e7c86df,
3e811258,
333a071b,
3e5172f0,
3e960ebb,
3c9091a8,
33082a1f,
3ec50f7c,
3409f5fc,
3e8209ff,
373b7ed9,
3ea61fcd,
3de6f310,
3dd44074,
3e8e269d,
3ed70d49,
333a071b,
3e5172f0,
3ed70d49,
339f3e14,
3e991d67,
3a0cf324,
3ef57ac3,
3cb8afa5,
332cafe3,
3409f5fc,
39a446b3,
3ea877cf,
3c142fad,
3ea61fcd,
3eb6791e,
3908f4cb,
35f66884,
3eff4aa6,
3c4ec1ee,
368fd819,
3c45bc13,
3ea21cc3,
3e72feea,
3e3b5e9f,
3cf13a43,
3d25a25f,
368253b9,
39f7c1da,
3ea21cc3,
3e72feea,
3ccadc9b,
3e0edbca,
3de16711,
3e442ea0,
3a28dea4,
371135f0,
3c4bfd1a,
374aab48,
3ea6a78b,
3e17ce51,
35484211,
3895e20c,
370efebf,
3ea6a78b,
3ece535c,
3c1a77f7,
3dc87548,
3a116863,
36fe9431,
3d32df70,
3ea8fc31,
34b7b4a3,
35b36ed3,
34e8c7a0,
3ebe1e2f,
3edf28b0,
35484211,
3e71c4db,
3e992d4c,
3e3af1bf,
38afee77,
3ef7256b,
3a269832,
3dc7de7f,
3ef83df9,
3eeb2d09,
3cb8eb00,
39c8c3e6,
3d1ec4d4,
3ee05693,
3cf08c78,
3eb4c9a9,
35830799,
383e9460,
3eb722df,
3d427d19,
3908213d,
39219285,
3e9a0eea,
3869302b,
3efe6bbf,
3eff0a32,
3ec0ab75,
3effe215,
3825de7c,
3cdd1ba6,
33636a8d,
3b129232,
3ee317f4,
3417f0ff,
3d7e4ad5,
3ebc4645,
3df75060,
3c2fc93a,
37f7fdad,
3663bfa1,
3be02be8,
345cfd8c,
3eae7c99,
3877d8cf,
3da8ec6a,
3603f646,
3d828d41,
35157104,
383066c0,
3ebeeda4,
3c36e3f5,
3e89d420,
3db2efc8,
3c881919,
3e80493b,
392125a0,
3ebb15ee,
3eff0965,
3e06acff,
3edcabbd,
3ede54c0,
3effff59,
3e5096e5,
3dd46081,
3df49bff,
387f2b51,
38386180,
3e1f8abc,
38ba95d2,
3840baee,
36c62103,
3be744c9,
3c10eacf,
3be5ddbc,
3d9978b6,
3e8c5f0b,
3c846ac7,
3c14c87d,
3c13ee78,
3bd5c919,
3de4a232,
37f9e9fa,
3a31e28f,
37d87c84,
38cfd16a,
365d203a,
3341c080,
3c1740ad,
3c7d5bb8,
3bd0e465,
3a338127,
3e22731a,
3cf36359,
3e18bd76,
3e1175c3,
39e79a6e,
361e4dc2,
35e4c66d,
3db20f5d,
3cd0704e,
3b0a3c3d,
3329e5de,
3c8deecb,
35c451f6,
37a4f47d,
36cbb5ab,
3333eb18,
3d7a0575,
3c513b8a,
3c2800ae,
3a0b5e10,
38912a3c,
3c8f9402,
3e18bd76,
3e1175c3,
3943cb32,
32a69f99,
350a9448,
3d832de6,
3d271f0f,
3b8a6a2d,
3b1bf408,
322e3b1c,
3c1e682d,
3b999a74,
3349bc78,
3472d132,
32689084,
3b05cee5,
3a399fff,
3810c4b1,
35af7f12,
345b35cd,
399b382e,
38f9ee73,
3e6a52b9,
3ceea770,
3d5f1084,
3c315e4e,
32e95c89,
34c88a2e,
3d17c0c4,
3e0e7c7a,
3e2809dd,
3e25477a,
33326c5b,
3267d90c,
3e2cd8b5,
39783a2e,
36d4c0c5,
34c3026e,
339ed0dc,
38369882,
328d2f1b,
3d1e6a38,
3e2bab80,
3e07a59f,
3dacfc72,
37a53a88,
3eaf0b27,
3b2705c1,
3b999a74,
3cdf79a0,
3e4f22e7,
33be718d,
326a1ff1,
32a3be70,
3e2cd8b5,
3d05dd32,
38255092,
36bce589,
3600649b,
39870b9c,
3c0d3463,
3dac67c4,
3e1df1a7,
3e136f6b,
3df16bed,
3de18b33,
39088fd4,
3ca3f8cc,
3c1e682d,
3c825c37,
3d733617,
3e4f22e7,
3d2c47cc,
34aaf26e,
353df36f,
3e0a6798,
3d91afad,
3e365806,
39c4f269,
39a2cede,
3a9ff3a1,
3cbfeabf,
3ac37fd5,
3de257f4,
3e07a59f,
3e033378,
3e0cd5c5,
3a475037,
3a34c19e,
3d476cb7,
3b4b5818,
3d312d8a,
3dd3f296,
3e25dc9f,
3c4aff78,
3a257a9d,
35c7d35a,
3de3e518,
3dc5c05f,
3e518330,
3b74211e,
3b2028c9,
3d118f23,
3b43c0cd,
3dec1d21,
3e033378,
3e0cd5c5,
3ad2f923,
3abf54a1,
3d8f145b,
3bc09ae0,
3e00b836,
3e088d7d,
3bcabc19,
3984555d,
386d802a,
3d05dd32,
3c01fa96,
3e04e362,
3d50ddba,
3e226bda,
3a15316f,
3aa98456,
3e3436cb,
3e236f6d,
3d476cb7,
3e1b3aca,
388e4ef2,
370c1973,
3559555a,
3effff66,
3effffff,
330442e5,
3efff80d,
3706206b,
3efffd77,
3e33aa63,
3c094848,
3c16b34c,
3effb3d6,
38fc03e1,
3eaf9b26,
3bc1422f,
3d3d6ff4,
3e7083f7,
3e840305,
383912c9,
33f1fa3b,
39ab1571,
3c208552,
3ea059fa,
3531fa6e,
3eefd5b4,
3efbd4bb,
3eff6c3e,
3f000000,
3ea138a8,
3b3241fd,
3e9e5a25,
3ee78fab,
34791713,
3c7a74ef,
3efb1b8f,
3f000000,
3f000000,
3e8feacd,
3e93732b,
3e8feacd,
3e93732b,
3ec1d977,
380e62d3,
3eb036fd,
3e811258,
3e960ebb,
3b5a71c4,
3c3c9114,
38471590,
3a9f86da,
3cc40a65,
398c1e68,
3e8209ff,
3c110b12,
37827614,
3eed5f4b,
3a374fc9,
3c606450,
37827614,
38a62545,
3d48269b,
3eb46231,
3efffacf,
3ebf152a,
36c10332,
3e7c1dd1,
3eed5f4b,
3ef57ac3,
3aa468b8,
33112511,
3e44ce17,
3c5a499a,
3ea877cf,
3abd34b0,
3ea61fcd,
3ea2869b,
3e43562f,
3e49bca8,
3e89958a,
3e069762,
3e68e8de,
3e884ea0,
3c0fcd7c,
3e89958a,
3ea3b114,
35f66884,
3b354554,
3efcc4f9,
3efff723,
3ea877cf,
3e01a420,
3c5263ff,
3eb6791e,
396f0c04,
34b2b5b9,
39a42310,
3d7a0470,
3f000000,
3e850f73,
3d55302f,
3e3d3ecc,
36254c97,
3a18aacf,
3e8f0b42,
3e94fb08,
3ec46fd0,
3de0f969,
328f8672,
396890a8,
3e0b6b6d,
35484211,
3e71c4db,
3e8b200f,
3e992d4c,
3e850f73,
38afee77,
39252504,
3effaca2,
3423ac16,
3ece0860,
332a2f79,
3925e07c,
326a23af,
3eb26086,
3e9261c9,
3ea15206,
35591a20,
3e9b3ef5,
3eb6cf1a,
3eaf56fd,
3e58582b,
35e92a7c,
3e4b30c7,
3e92d003,
350f12dd,
3e62980e,
3e62980e,
383beb70,
3e22b3c6,
3e92d003,
37883901,
3db53500,
3db53500,
3d4be266,
3eb4c9a9,
349ebdb0,
37886115,
3eb722df,
3d9befbf,
39be3b27,
35594782,
3effe2ae,
3f000000,
3d55fca3,
3eeadf5e,
3c699b2f,
385a2bb7,
3ee317f4,
35dadfd5,
3ca76c28,
3ebc4645,
3ebbd182,
3ee6a8c9,
3c8ce2cd,
3bcc8892,
376e56b5,
3713b190,
3d316882,
3ebbd182,
3b7f6f9e,
33b0d733,
3e5220a9,
3c765a75,
3ee6a8c9,
3efffe83,
363cf7bb,
3e0d4e6c,
3ede54c0,
37d2e0d8,
3ba92d93,
3544fe06,
3efc664c,
3eb6612d,
3914f998,
350c6c6e,
37d2e0d8,
3ba92d93,
3544fe06,
34634767,
3efc664c,
3eb6612d,
3914f998,
350c6c6e,
3e8c29f7,
32762186,
3e3aa76f,
3e3913af,
3d9cd6b8,
3d5c1379,
3c691c42,
39d2e5dd,
39986425,
3e1f8abc,
3a88b337,
37eec0eb,
378233fe,
3e0e7c7a,
36aa45a4,
38b47443,
38ad4cba,
3920362c,
3c8ffcf4,
3811e8a8,
3c846ac7,
3cca379f,
32dd3446,
3a452fc8,
3e40854a,
3e176c2d,
3e050b0a,
374e6ead,
368058bc,
38d52e71,
3b014c7b,
3bb5e17b,
3d618dc5,
3da9a9ba,
3ab7d8b4,
3b2f4fa3,
37b43f5e,
3e1e802f,
3e65b141,
3e8190f9,
3dc22f30,
33f87934,
32f7676f,
39a2d870,
3ba04303,
3c820b74,
3d0b123b,
3605d31a,
3aaf1574,
3df6e187,
3e65b141,
3e8190f9,
3d8753ce,
36ec79df,
3306aefb,
3b3ed721,
3c4c7132,
3d3d5b1a,
3a9ff3a1,
378f7f2b,
34b20c48,
3dadc227,
3d889cfb,
3e8058c6,
3b3f9436,
370cafd3,
38beaae3,
380479ef,
347b2bdc,
3c60f822,
3d88b25c,
3e04e362,
3d50ddba,
3e226bda,
37b27132,
38fd5347,
3a15316f,
3aa98456,
3e3436cb,
3740c052,
3b9aaf97,
3e236f6d,
3d476cb7,
3e1b3aca,
3dc0d349,
3c246c7e,
388e4ef2,
3c684091,
3d490e2d,
3e0a0cfe,
3d75bce8,
3c7fa2de,
3d0a563d,
3d551423,
3d38cf5f,
373eefe0,
3d279a75,
3e3d2344,
3dad3f49,
3e00b836,
3c53de58,
37fa9234,
34ac7430,
3e04e362,
3db60470,
3e226bda,
3b1e203c,
3ba0c5d1,
3e21433b,
3e123f91,
3dc23690,
3e28b840,
39d27fab,
33a37b2e,
33870184,
3effff66,
3effffff,
37ceed2e,
3ed926c6,
3a7feb3a,
3d6ee737,
3ed926c6,
3efbd4bb,
38216416,
3afcc923,
32f7dd35,
3efff80d,
381ec4d1,
3efffd77,
391c83cd,
3eefd5b4,
3c7a33ea,
3eff6c3e,
3256529c,
3ce904e4,
3b3241fd,
3ef7679c,
377ac662,
35bf7d08,
3efff81b,
3f000000,
3efc162c,
3371a35d,
3f000000,
3dc38122,
3efff81b,
3efc162c,
3eceaf9b,
3effff41,
378c3dc9,
3efc62f4,
3e602a67,
3e0b4d00,
3e602a67,
3e93732b,
373e2c0c,
3f000000,
3ea52ea8,
3d993994,
3ef0b12a,
3eaf6401,
3ca8f4ba,
3c5acb89,
37a3f7e1,
38fe03fe,
3d50aaa3,
3eaf6401,
3b4cb930,
3e90709a,
3efffacf,
3f000000,
3efffff2,
3f000000,
3efffff2,
34a69bed,
3c4deb87,
3bd4e6da,
397e8ee5,
35536c5f,
3ebf152a,
3aaa0c3c,
3838ef96,
33b4b5df,
3ea2869b,
3e884ea0,
3d3e5728,
3e89958a,
3e6a949a,
333998a2,
3e05a1f8,
3e884ea0,
3aadfd4e,
3e452aab,
3ea3b114,
378e1cf7,
37f4130b,
35791379,
3efcc4f9,
33ac7b0d,
3efff723,
3653994d,
3d55302f,
3e3d3ecc,
35bf1370,
3a18aacf,
3e8f0b42,
37845731,
3ec46fd0,
3de0f969,
328f8672,
3274c41b,
35edb20b,
3f000000,
396f0c04,
3a176622,
39a42310,
3e850f73,
39d342d4,
36b99932,
3a295c16,
3ece535c,
3ea8fc31,
3d9a0f55,
323e2b15,
3ebe1e2f,
3deb4bd4,
3bde1f17,
331d52ed,
3aff025b,
3ea8fc31,
37f46c03,
38bf2a6e,
381adb97,
3dc87548,
3edf28b0,
3cf5ddf7,
3effaca2,
3ece0860,
3cf6f511,
346b5b92,
3eb26086,
3eb6cf1a,
3eaf56fd,
3ef7256b,
3a269832,
3dc7de7f,
3ef83df9,
3eeb2d09,
3d1cbb9c,
3917e01e,
3d7e982b,
3ee05693,
3233f2ca,
3e05f393,
3dc15193,
3eb0b35c,
3eb0b35c,
3233f2ca,
3e05f393,
3dc15193,
3eb0b35c,
3eb0b35c,
378679cd,
3e4b1f78,
383e5c5e,
3efe6bbf,
3b75cf80,
3e9a0eea,
3bb9fb6f,
3eff0a32,
3effe2ae,
3f000000,
3f000000,
3effff62,
3f000000,
3effff62,
37be6ab2,
3e346054,
3e248250,
34d2468e,
3ebb15ee,
3dc2be32,
371c9143,
3efffe83,
3ee78fd7,
3efee5b9,
3efada58,
3ee78fd7,
3efee5b9,
3ca4843b,
336e44c4,
332c2b36,
3dc38145,
3b8d2388,
3efada58,
35e1c1f1,
3a0ea65e,
32944004,
3cc5946e,
3e2bab80,
3e8e0991,
3700fc50,
37ba97b0,
3eaf0b27,
3a9dcaaa,
3b196779,
3c1c3ac3,
3ba60d6c,
3dea04f6,
3acea1ab,
3ba84eaa,
3db20f5d,
3732d6cd,
33cda5d5,
32fb83d9,
38b05b05,
3ac70c43,
3e8ac33d,
3e7ee5a8,
3da510a1,
3b2f4fa3,
3e163e50,
3b4ee655,
3c16cdb2,
3cb66503,
36721f98,
32def0b5,
380568f3,
3d707f75,
3b52b136,
3e8ac33d,
3e7ee5a8,
3dd3f296,
3bec75cb,
3e6a52b9,
3ceea770,
3d5f1084,
3dacfc72,
3de18b33,
34c88a2e,
3c2296e2,
3e17731d,
3e0e7c7a,
3e2809dd,
3e25477a,
3d5a66f4,
3a10b398,
3e2bab80,
3e136f6b,
3dd21d7a,
3db9b039,
3870d71b,
385a6ab9,
3c417571,
39ab7560,
3c117dbb,
3d297e8c,
3e4f22e7,
3d920584,
3be7d856,
3c16cdb2,
3b1e203c,
3aa98456,
370cafd3,
32a3c28e,
390a1a43,
3cb3935c,
3ede1338,
3efdf661,
38e16e76,
384183df,
33a956a7,
3af95225,
3ede1338,
3efdf661;