memory_initialization_radix=16;
memory_initialization_vector=3f000000,
3f000000,
3efffdbd,
2e75437c,
38106b6c,
3efffdbd,
3ea57dc6,
3e984264,
3d661089,
3ea57dc6,
3f000000,
3f000000,
3ef81218,
3cfdbcf0,
3ef81218,
3ef931b6,
2d39753b,
3cd7c1e0,
3981d94e,
3ef931b6,
3ed4160b,
319b51d1,
3e299ae8,
3bc19da0,
3ed4160b,
2e8ad333,
33089b7e,
39527876,
3ef54e35,
3d2a4a2e,
2c0dcffe,
3ef54e35,
3efeb2bc,
3ba69b04,
355845ed,
3efeb2bc,
3eaa6ba8,
3eaa6ba8,
3a3c3cd0,
3510b5c5,
36ba8937,
3a3c3cd0,
3eaa6ba8,
3eac1c16,
2a2c8487,
38ec7cfd,
3e89d08e,
3d6f43f5,
3eac1c16,
3ebc6a13,
3e870139,
390cb1fa,
36ce3b3a,
3854ddf8,
390cb1fa,
2cc8f30a,
3ebc6a13,
3efc663f,
3be66b0d,
33b9cdf4,
35958dfd,
3be66b0d,
3efc663f,
3d700f66,
3ef0ff0b,
3ef0ff0b,
3ed926c6,
3e1b64e6,
3ed926c6,
3bbf48d0,
3efe816e,
3efe816e,
3ef51156,
3d2eeaa7,
3ef51156,
2d7451bd,
2d7451bd,
34791ebe,
3efffffc,
3efffffc,
3ecf16ca,
3e43a4d4,
3ecf16ca,
3eefa84c,
2bd7cd2c,
3d81bc85,
3a009049,
3eefa84c,
3e0278f7,
3e3b37cf,
38809fb8,
3ea326e8,
3d568e2f,
3ea326e8,
3e0d3f83,
3ba13e89,
3c98ed42,
3ed68973,
39e62cf3,
3ed68973,
3e3ca7e2,
3b96164a,
3cff152f,
3ec7b131,
3ec7b131,
348eb91d,
3b35455f,
3eff4ab5,
3eff4ab5,
3d700f66,
3ef0ff0b,
3ef0ff0b,
3075f2be,
3b1dd13f,
3eff6091,
37ce774a,
2a8b1d3f,
3eff6091,
30b02fd5,
36803959,
3ecc2cea,
32c5eaa5,
3e0a3670,
3d4b61e3,
3aca1142,
31bffedb,
38ceaf0e,
3c6fa532,
3aca1142,
3ecc2cea,
36036c7a,
39af1660,
2e00b95b,
3c68a73f,
3b754e98,
3e1a2c27,
3ea3310a,
3d30af42,
3e1a2c27,
3ea3310a,
3e8805c9,
39e39bb6,
3e8805c9,
2e27565b,
3d077e87,
3e0bac33,
3d077e87,
3e8805c9,
3f000000,
3f000000,
3f000000,
3f000000,
3efffb7b,
38909a22,
3efffb7b,
2af993b4,
2af993b4,
3ea7a436,
37000b18,
3c9125b8,
3ea7a436,
3ea7a436,
3e629807,
3326cec4,
3db534fa,
35064398,
3eb0b356,
3eb0b356,
370bc3f6,
3386b529,
3eff61a0,
3b1dd1e7,
3eff61a0,
3effffff,
30768c49,
338708b2,
3effffff,
37914211,
35189042,
3e48860a,
3d294cba,
3ec34887,
3ec34887,
3a81f2e6,
3effbf06,
3effbf06,
3e3b0081,
3ed13fe0,
3ed13fe0,
3eff6ec5,
3b113b04,
3eff6ec5,
3efffffb,
32c142e5,
34add662,
3efffffb,
3ee2d942,
39939ed4,
3de8a254,
3ee2d942,
3efecd4f,
3b9958d0,
3efecd4f,
3f000000,
3f000000,
2c3386eb,
2e9d437f,
2e9d437f,
3d0a6595,
3e7fa7cd,
38345b08,
2fba8004,
3eb76c46,
369c5bb3,
369c5bb3,
3eb76c46,
3e9fe408,
2b66927a,
2b66927a,
3e931b4a,
3d0a9dc8,
3d5e475d,
3e9fe408,
2b2992ba,
2c73f4de,
392fd88a,
2ed5b402,
37aa5d3d,
35177681,
3efff3a5,
3efff3a5,
3b4b2d43,
3a2b8a31,
38e7f0ae,
3b4b2d43,
3ead8de9,
3e9b4da3,
3c40b242,
3ead8de9,
355001cd,
3706105f,
33813664,
388a60aa,
3ef4f6a4,
3d082ad0,
3c20721d,
3ef4f6a4,
3f000000,
3f000000,
38850a83,
3efffbd8,
3efffbd8,
3e7ddaf7,
3ec08943,
2df337a0,
3ec08943,
3efc162c,
3c7a74ef,
3efc162c,
3eff8191,
3afcde3d,
3eff8191,
3effdbd5,
3a094139,
37edad0d,
3effdbd5,
37438752,
3effff3c,
301e1479,
3effff3c,
363723a0,
3d0d4394,
3ef72b9a,
32625a06,
3ef72b9a,
3edf2291,
3e0375bd,
3edf2291,
3efffffb,
34add662,
3efffffb,
2d7451bd,
2d7451bd,
34d16db1,
3adab4a6,
3ef03120,
3d6f424a,
32ba6f51,
3adab4a6,
3ef03120,
3e90565b,
3eaf513a,
3cdff261,
3af8f831,
3b83c462,
2a5b76bc,
3eaf513a,
2bd69f26,
3d8106f3,
39ffb8b7,
3eee58e3,
3083dfd5,
3bb323d2,
3eee58e3,
346b43ba,
3ef1c30c,
3d63cf02,
317dba2b,
3ef1c30c,
3effffbd,
367a6a42,
34add638,
3effffbd,
3d700f66,
3ef0ff0b,
3ef0ff0b,
3ee9e8f9,
3db0b838,
3ee9e8f9,
3ed43cdf,
32659c72,
39c62e3d,
391e7c26,
2ce25b96,
3e2e81d1,
3ed43cdf,
38f22c9d,
3ee24e86,
2f4da385,
3a5fae10,
39a935c6,
3cc3f0e2,
329d2f56,
3823ef6e,
3591bf4a,
2e1fbc90,
3db9d56e,
3ee24e86,
3c8e8f6c,
3c1f1b73,
3e0f1dbc,
3810dfd7,
33074768,
3e0f1dbc,
396f7a5c,
3d41c26b,
3e803b71,
3e0f1dbc,
3ba7fa87,
2db0105d,
3e803b71,
3e489e1c,
30d28c00,
3621c622,
3a77f455,
3c8f30c0,
3802365e,
3a77f455,
3ec8e0c7,
3ec8e0c7,
3a086592,
3dcb113f,
3c8948cc,
3e09d1d7,
3747abe7,
3e56f262,
3e89ffa3,
3e89ffa3,
3f000000,
3f000000,
3e9e442a,
36ad3b7e,
3eb0dd95,
322b38bc,
3eb0dd95,
2efc8209,
3f000000,
3f000000,
3d30cd4a,
3ea34cc8,
3ea34cc8,
3ea34cc8,
3d38758c,
2c69039a,
3ef478a4,
341cd587,
3ef478a4,
3ee135d1,
3946abf4,
3b8789b1,
3ded7587,
3ee135d1,
3aca8f15,
3eff9ab8,
3eff9ab8,
35594782,
3effe215,
39eeef6a,
3effe215,
3eff622e,
328a24f3,
318602f1,
3b1dd23e,
2d082fdd,
3eff622e,
3089f1a3,
37e7996e,
329af4fd,
3b310757,
3d1f3c84,
371cc6da,
37e7996e,
3cb1b80e,
3e9fdb79,
3e9fdb79,
3e9fdb79,
3596ad0d,
3e060fab,
3e91e69c,
30aae510,
2c0b102a,
3678bec4,
3596ad0d,
3c687279,
3e91e69c,
2e73a2b1,
3e91e69c,
3d843b6c,
3eaf0681,
342a5255,
3b64fa7d,
3ad852d3,
3e7ad287,
3ad852d3,
2f12530e,
2f12530e,
35f559f4,
3eaf0681,
3e1500ea,
3eb53856,
3a482a88,
39a937a1,
3e1500ea,
2cc146c6,
2cc146c6,
3430598b,
3eb53856,
3ea3b2ee,
3e0698e7,
332cb1d6,
3e6a9741,
378458af,
3ea3b2ee,
3d942fa8,
3e2145f1,
385d9926,
3ec4247e,
3b804d75,
3ec4247e,
3701df2b,
3ed45936,
3e2e991f,
32427679,
3ed45936,
3eb85ee5,
3e3d5171,
3dc265f8,
3eb85ee5,
3f000000,
3f000000,
3dbaf245,
3e1e73bc,
300c9522,
360ec9ca,
3ec0b622,
3a9d050c,
3ec0b622,
3f000000,
31ac7d55,
3f000000,
394cc42b,
3bb35f71,
3bb35f71,
3e61779f,
3568d8b8,
2e3c4028,
30840bba,
3a977140,
3ec47c07,
3ec47c07,
3e437021,
2d9a28e7,
3e608ebf,
2d9a28e7,
3c0b500b,
3db8a303,
3e7af287,
3a8ac584,
3e7af287,
2b732ef3,
3ea8a2d2,
3e5253ee,
3d8a7a16,
2dee0f77,
3a26adb9,
3d8a7a16,
33717b63,
2f193c25,
3ea8a2d2,
3556a51e,
370a579c,
388ecb25,
3556a51e,
370a579c,
3efcc7e0,
3c2590e1,
3b1c367b,
2bc61a1a,
2e2d88fc,
3efcc7e0,
3a2c12c2,
38e8a954,
3b4bcf04,
3eae1814,
3e9bc946,
3c414baa,
3eae1814,
2d029d3b,
3d082682,
3c206d0b,
3ef4eee6,
346e59c2,
37c605b2,
3936e653,
3ef4eee6,
378f3654,
3ec0886b,
3e7dd9dc,
3ec0886b,
3e141bc4,
2c19a270,
3a370e2f,
3edacb4b,
3edacb4b,
3e954d87,
3eb5593d,
3eb5593d,
3eb6cf1b,
3e9261ca,
2cb361d0,
3eb6cf1b,
2bb2b2e6,
3276b001,
3880cebe,
3276b001,
3b9527ea,
2a786cf5,
3efed1ab,
305b9a64,
3efed1ab,
2b806f09,
3d1a6cb6,
3e06bfae,
3b5666cb,
3e06bfae,
383926f5,
3eb22012,
2b806f09,
3eb22012,
3e714bbf,
3b8d6c73,
36597145,
3b8d6c73,
3ec17728,
3ec17728,
34df236f,
2d748e59,
39ab39ff,
3effea79,
35c2b518,
3effea79,
3efffdbd,
38106b6c,
3efffdbd,
3eff5480,
3b2b8031,
325d3034,
3eff5480,
3dcff864,
3cee5682,
3e7cefa6,
3d90ef50,
33056af9,
3c1ceb18,
3e89756a,
3ba5aaee,
3e89756a,
3a0b5877,
3b3870e1,
3d8c9de1,
3e2b0514,
395ede82,
38a898c3,
3de17c88,
3ea68cf4,
3ea68cf4,
3efcf71a,
3198854c,
33995076,
39590ae6,
37eafcf6,
329d396f,
3c3e5f9f,
3efcf71a,
3f000000,
32c142e8,
30ac0af0,
3f000000,
3eaaaaab,
3eaaaaab,
3eaaaaab,
2d8c5b3c,
3009664c,
3ea88a92,
393497ba,
3ea88a92,
3c4066bf,
3a0d02db,
3ea88a92,
312de68d,
399ab996,
35e84754,
3d7a5f84,
3acccc25,
3acccc25,
3e6d7547,
3eb41988,
383b345c,
3eb41988,
38030b51,
3e49e632,
30f37675,
3d2f4337,
39589ddc,
3b17bef1,
3d2f4337,
3dbebda9,
3e49e632,
34c4fbcd,
3e2638d4,
3d84ed77,
30f37675,
3e49e632,
3b9035b3,
3ccf77ab,
3d7c5317,
3670fec7,
3e5c2cc2,
34baf54b,
3e3f9fa4,
3a881027,
3db5087d,
3e3f9fa4,
3c74c6b0,
2b2c8c8c,
29efe04d,
3e5c2cc2,
39d548f3,
3d9ec4eb,
3c56ac43,
33bbe85d,
3dd7828f,
371c1d38,
3e57ca2b,
3e280ea5,
3e280ea5,
3d5d4b03,
3e57ca2b,
3eefc667,
3d81ccd1,
3eefc667,
35745156,
3cb2804d,
37e89e61,
3efa6a1e,
3efa6a1e,
3cfbd941,
3b73ff6e,
3ef63937,
3b73ff6e,
3ef63937,
3e62980e,
3eb0b35c,
3db53500,
3eb0b35c,
2bc5d8c9,
370a29ff,
39ebbbfb,
3e10a8c3,
32888f71,
3edbb7cd,
3edbb7cd,
3ef931b6,
3981d94d,
3cd7c1e7,
3ef931b6,
3effff4c,
3733e520,
3effff4c,
3ee9e837,
3747a6ee,
3db0b7a5,
35469e5c,
3ee9e837,
3e622114,
3afa6b56,
30432194,
3e912d86,
3e2697b0,
325b3287,
3d3eeb11,
36ddc584,
3a5fcb66,
3e912d86,
3d22dae0,
3cc0241b,
2b8771f7,
34282f60,
3e77ad0f,
3cc0241b,
3d22dae0,
35f2460d,
3e40e3e9,
3e40e3e9,
333653ce,
3c567160,
3e77ad0f,
3e88e8da,
3689dfd3,
35b09349,
3b24cac2,
3a0b21ca,
3dcf23ba,
3c8c0992,
3e88e8da,
3ced62ca,
2ff29fcc,
3a0b21ca,
3a0b21ca,
3d3e549d,
35b09349,
3e88e8da,
379b702e,
35234170,
3aeda045,
39b386ed,
3d352a2c,
3ed0f827,
3cd5be50,
2f20bbd8,
3aeda045,
3aeda045,
3ddc55ba,
36d2711d,
3ed0f827,
3c236742,
3eb2c270,
3e4d20b5,
3d6b1491,
3d0aad63,
33839825,
33839825,
393a4b52,
2d0509ce,
3eb2c270,
2de26055,
3eb8408d,
3e8f7ee7,
3eb8408d,
3f000000,
2e9d77c0,
2e9d77c0,
2af9e6a2,
3f000000,
33f1f248,
39018dce,
36a0bf4a,
2fbfbc35,
377b07dc,
2d7499f0,
3efff699,
3efff699,
3eff77dd,
3b082287,
3eff77dd,
3800700a,
3efffe00,
3efffe00,
3f000000,
3f000000,
2b98b588,
2bd71ae0,
2bd71ae0,
30c1cc56,
30c1cc56,
3ac50491,
3eff9d7e,
3eff9d7e,
2da5d121,
2da5d121,
2b4205f9,
2b4205f9,
30b907ba,
2e996d92,
30b907ba,
2ead96b4,
2ead96b4,
2fae93d6,
31598648,
31598648,
3b9958d8,
3efecd4e,
3efecd4e,
3ef876cd,
3cf12652,
3ef876cd,
3007b7d4,
3007b7d4,
2dd8e47f,
2dd8e47f,
2c82d733,
3e08eb15,
2ecd1fa4,
2c82d733,
3ce7326e,
3e08eb15,
3a078132,
3a97a028,
33016ba4,
3e891894,
3d8c97a6,
3dc9bd3d,
3e891894,
3e0ce509,
2ed314af,
2c86a3f7,
3e0ce509,
3a0b70a3,
3a9c0774,
33052dda,
3e8d13da,
3d90acea,
3dcf991e,
3e8d13da,
2e829e4a,
36855b94,
34b92705,
3e0fbf0c,
3e5a0c5b,
398e13e9,
3e5a0c5b,
3e5a0c5b,
3bf8eab8,
3e5a0c5b,
3e86f0d3,
3ebc532f,
36ce222d,
3a50038a,
3ebc532f,
3d080c93,
2c99fcdc,
3e9061d3,
3e7b5192,
3e2123ff,
3e9061d3,
38376714,
3c1463ae,
31ee13da,
3efd2e4b,
3afa911d,
2d71f140,
3efd2e4b,
2eae2003,
2bbbca4c,
2eae2003,
37f47f32,
3705592d,
3efffd92,
3efffd92,
3efdc476,
3c0ee23c,
3efdc476,
3eeda32d,
3d92e697,
3eeda32d,
31598648,
31598648,
3aa8e14c,
3effab8f,
3effab8f,
2c84d757,
311e4973,
311e4973,
3a58578a,
3c730627,
36094835,
36d662e7,
2cd0e53f,
3e210b7a,
3e210b7a,
3b801ef3,
2cd0e53f,
3eaa7749,
3eaa7749,
3ef7679c,
3d098635,
2af182ab,
3ef7679c,
2d746fcb,
3effca7f,
3a560253,
30dcba15,
3effca7f,
3eb8408d,
2de26055,
3e8f7ee7,
2de26055,
3eb8408d,
3eaaaaaa,
2a55a461,
3eaaaaaa,
2a55a461,
2f23f077,
3eaaaaaa,
3f000000,
3f000000,
2bbbca4c,
2bbbca4c,
3f000000,
3f000000,
3e1bcd30,
3ed90cb4,
3ed90cb4,
3084fd6a,
2e14927b,
3084fd6a,
3d724f9a,
3023441c,
389de316,
3d724f9a,
3bf15ea8,
3edfce60,
3edfce60,
3efc94ab,
3c3e158a,
3ae5fc7b,
3efc94ab,
3e63adcd,
3ec6696e,
3b2b1f27,
3ec6696e,
3e8744b4,
3d6ad840,
2ca5c356,
3eadb023,
2b739b64,
3eadb023,
3e427fd0,
2cb9dd9a,
3d83a99c,
3d83a99c,
3eae4582,
3027d64b,
34299685,
3a407dbc,
3eae4582,
2e7545a6,
2ac29f7f,
2d3e85e5,
3f000000,
2d3e85e5,
3f000000,
2e14927b,
2e14927b,
3185edaa,
3e123f16,
3eb6e075,
3e123f16,
3eb6e075,
3f000000,
2aa03b49,
308da433,
329f1c4c,
3f000000,
3eec0c30,
3d9f94ad,
379d1da6,
3eec0c30,
3eec0d52,
3d9f9571,
2ce14811,
2ba589b8,
3eec0d52,
3d28435e,
358084a5,
3ed8e58b,
3de4b17e,
3ed8e58b,
30a3efdd,
3eaa004e,
3b7f8b0b,
3eaa004e,
33207bc1,
3eaa004e,
2e3d030e,
2e3d030e,
2e3d030e,
2aad6509,
2e3d030e,
2aad6509,
2aad6509,
312c9319,
312c9319,
3ee95e9e,
3d350ae0,
3d350ae0,
2bff3e37,
2ab16b19,
349e7863,
3ee95e9e,
3d09821f,
38f38e10,
3ef76041,
3ef76041,
3ed49365,
38cb8f01,
3e181ea8,
3c83e11a,
3b9fc531,
3ed49365,
30770c99,
370c638d,
3eb7ce0f,
3e8f25bd,
3b1e861b,
3eb7ce0f,
3a4197f5,
36ba967c,
2dc0b1d5,
3dc35c0a,
303ca2a2,
3ee763bb,
3ee763bb,
2bdb4ce2,
348827a5,
2bdb4ce2,
36442231,
3ec881cf,
33939a94,
3dd3698f,
3d83d702,
3c37485f,
3d1b8c6c,
3ec881cf,
2e00e853,
2e00e853,
3f000000,
3f000000,
3efff39a,
394656be,
3efff39a,
2ec8b004,
2f4d565d,
2f4d565d,
2f4d565d,
2f4d565d,
312c9319,
312c9319,
2cfb3202,
37be6ab3,
3efffe83,
3efffe83,
2e21b17d,
3f000000,
3f000000,
37873636,
35ea712b,
3ea73e3a,
3e918e47,
3a38ba58,
3d7cb480,
3234eee9,
3ea73e3a,
3f000000,
3f000000,
2d5cd2a9,
3ee71490,
3ae4b1cc,
3dc31930,
399a9c16,
382764a7,
2fad1896,
31d94ba1,
3ee71490,
3e6388b1,
38336171,
3bcffce5,
2dd9ffb9,
3e8a2f7a,
3d6fe8c0,
3e313421,
3e8a2f7a,
2e00e853,
2e00e853,
2d8057fb,
2d8057fb,
30142926,
3f000000,
3f000000,
3f000000,
3f000000,
3f000000,
3f000000,
2fbf839d,
2fbf839d,
3188ab2d,
3188ab2d,
2dd2a80f,
34154db6,
3d67d42b,
35d71313,
37781560,
3d109267,
37781560,
382d56c2,
3e8587fe,
2dd2a80f,
3e5bded0,
3dafd486,
3dafd486,
31210534,
3e8587fe,
35d4d207,
3c3c5f7f,
3e97d1a5,
3ca8c84e,
37757bc5,
3ea5033a,
3500ea2e,
38e2bc85,
3ca8c84e,
3413bd21,
3bc6e050,
311f5530,
3ea5033a,
350b41fb,
3e8ebb9b,
3839489d,
3eb24073,
3839489d,
3c4b7c86,
350b41fb,
3c4b7c86,
32316c98,
3eb24073,
3bdcb090,
3dc6825e,
38905c11,
3ecca184,
3dc6825e,
3ecca184,
3c14954d,
2fbde60e,
2e9befe6,
39a99e2a,
2af778c3,
369f351f,
39a99e2a,
3efd82f3,
3efd82f3,
3eda35c7,
3a8a77af,
2a889425,
3c9b8b8c,
3dbd6bea,
3a8a77af,
30717729,
3d0b5e5b,
3eda35c7,
2d151acc,
2d151acc,
3f000000,
3f000000,
2fbf839d,
2fbf839d,
2cb840f3,
2cb840f3,
300be572,
3b38d4bb,
39f9e946,
31212874,
39f9e946,
393d0db7,
322f9e44,
3ebfc54d,
37b72904,
2ee5c11c,
3e7cd899,
3ebfc54d,
36cdb16d,
3e5db76f,
37a09c33,
2ec977bf,
3da32142,
3d36107e,
2b1fdd48,
3ea82919,
310d5119,
35f931df,
3b221341,
3ea82919,
325dec5c,
3e92fbb5,
34479e64,
352e2f38,
3c7e85a7,
3eb287f7,
352e2f38,
3eb287f7,
3f000000,
3f000000,
2fbf839d,
2fbf839d,
31a80b72,
2e5bd8a0,
3e378028,
3df1f12f,
3b45e6b2,
396f2243,
3eb2b489,
3ab0dc33,
3eb2b489,
3188ab2d,
2aad6509,
3188ab2d,
3c011ffe,
3ec524d5,
3de1ee3e,
3c011ffe,
3c749c70,
3cdb2bfa,
2e075713,
352766da,
3c749c70,
3af3a934,
3255481b,
3d39c406,
3ec524d5,
39ade235,
3dd5689e,
31436f04,
324975f3,
3e856e3a,
3ea211cf,
3ae62802,
37968d50,
34353679,
3ea211cf,
35f0665a,
39c28163,
3c39310d,
3efd02cd,
3efd02cd,
3efb6f20,
3b28e245,
336d5b62,
37400b21,
2c76669f,
3c79cef7,
3efb6f20,
398349fb,
3ac232fa,
3efbf53d,
3c665052,
2f92fca5,
3efbf53d,
3f000000,
3f000000,
2d715250,
2d2937f0,
2d715250,
2d715250,
2cf400a6,
2d715250,
2d2937f0,
2cf400a6,
2d2937f0,
2cb840f3,
2aad6509,
2cb840f3,
2beb3f03,
2beb3f03,
39abbc39,
3ee5af1c,
3ba7e643,
3d471f8b,
3d471f8b,
307e297b,
38f5c9d2,
2ba59bf3,
3ee5af1c,
33eb5a1b,
3effffff,
3effffff,
39a6899e,
3effeb2f,
3effeb2f,
3ef9c834,
3cc6f983,
3ef9c834,
3e5427a0,
3ea570d7,
352169af,
3cd354aa,
2ccabcc9,
3dd9d908,
3c6bdc22,
3ea570d7,
2f116be8,
3a402184,
3dc75841,
3ebd0fdc,
2a3d8296,
3cc16197,
36be64e9,
2cb9848f,
3901e40a,
2a3d8296,
35f3d660,
3e0f05ad,
3ebd0fdc,
3f000000,
3f000000,
3f000000,
3f000000,
3cd7cf89,
34ae067c,
34ae067c,
3ef9417a,
3ef9417a,
3d94dfaf,
3499bf0a,
2f84159d,
3ee269b1,
3d2fa546,
3ee269b1,
3ac5049a,
3eff9d7d,
3eff9d7d,
2ef58f93,
38fc03f4,
3efff820,
3efff820,
2ef59721,
3f000000,
3f000000,
3aa3fe29,
3e2a266f,
395dbc5d,
2aa1c17d,
3aa3fe29,
3ed4c486,
34907aff,
3ed4c486,
3f000000,
3f000000,
3f000000,
3f000000,
2beb3f03,
2beb3f03,
2abb4dac,
2abb4dac,
2abb4dac,
2abb4dac,
3e103ef9,
34f54964,
3edb171f,
3b591c1a,
3edb171f,
2a8e282b,
3ebafced,
3e5691ea,
3d75e6bb,
3636e8cc,
3ebafced,
3f000000,
3f000000,
3f000000,
3f000000,
35911b41,
3685d9e9,
3eaaaa72,
3eaaaa72,
3eaaaa72,
3efffffb,
34add662,
3efffffb,
2d049a8f,
2d049a8f,
2f89a673,
2f89a673,
2b52e26e,
2b52e26e,
2b52e26e,
2b52e26e,
3d089a79,
3ee2195e,
34302e31,
383204b3,
3daad183,
3ee2195e,
3ef931b6,
3cd7c1e0,
3981d94e,
2abd72ed,
3ef931b6,
3d00201a,
3e3d8509,
3ec89b48,
305dfc64,
37ba59b1,
3ec89b48,
3f000000,
3f000000,
36fd904f,
3eaaaa56,
3eaaaa56,
3eaaaa56,
3c7fd597,
3c070cac,
3ee66b9e,
3d9bc6c6,
3ee66b9e,
3f000000,
3f000000,
2c6ad363,
2c6ad363,
2d049a8f,
2d049a8f,
2f89a673,
2f89a673,
3d473f4c,
3eb807f9,
2ce184cf,
39c57233,
3a698ecd,
2ba5b65b,
39c57233,
3e6bfe8e,
39c57233,
3eb807f9,
353dee3b,
3e5f62a5,
311683a4,
3ec8274b,
3ec8274b,
3b3f98a1,
3eff4056,
3583a1c2,
3211c578,
3eff4056,
3523c74c,
3859e8a2,
3ed1a37e,
3e1e968d,
3cd66d91,
3ed1a37e,
3cf0c5db,
37256ae6,
334c72d6,
363d925c,
3ed892f0,
3122dcc1,
3dff305f,
3122dcc1,
3ed892f0,
3339ed82,
3b5a1c60,
3c10293e,
2fcde64a,
364baa2c,
3efce50a,
322165eb,
3efce50a,
311e4973,
311e4973,
2e1f8092,
2badd849,
2e1f8092,
2aa71713,
2aa71713,
2aa71713,
2aa71713,
2c6ad363,
2c6ad363,
3bf56929,
2e80c746,
32096083,
3d3580a5,
3c99707a,
3d3580a5,
342c74a7,
3d3580a5,
3ed74188,
30e19dec,
3ed74188,
3f000000,
3f000000,
2a793aaf,
37b8f248,
39d59bb7,
3a7cad0b,
3effa4b1,
3effa4b1,
3ec8cd93,
3433c859,
3909f50c,
3e4e3101,
3c653af0,
3909f50c,
3031ed2d,
3ec8cd93,
2e21b084,
37be6aaa,
3062d46d,
3547fe45,
327ece35,
3efffe76,
3efffe76,
3cec2ad2,
37abbec8,
3da07e06,
3eb8e256,
3614e4bc,
2a67708d,
3e2eaa89,
36e884f3,
3eb8e256,
2b07a218,
2b07a218,
3112886a,
3112886a,
3112886a,
2e5b31d7,
3112886a,
2e5b31d7,
2fe89eb7,
2fe89eb7,
3b134461,
3cd6c6b1,
3ef74bdc,
3bb55541,
3ef74bdc,
3eff1028,
3b6fd666,
3eff1028,
2e7bda82,
30cc3cf2,
30cc3cf2,
3effcc71,
3a4e3bf5,
3effcc71,
3925c8e1,
3e4668a4,
3e40f927,
39c41b11,
3e4668a4,
3bdc4ac2,
3e1a8559,
3a5b6fb5,
3d91fb23,
2e946e13,
36425542,
3e4668a4,
3eaaaaaa,
3eaaaaaa,
3eaaaaaa,
3f000000,
3f000000,
3e8625fa,
2f886619,
3c55b92a,
3eb61714,
3a1858c9,
3c55b92a,
2ab1c07f,
3803e7ae,
3eb61714,
3d059521,
3c1d6674,
2f48e813,
3c951665,
3ef05048,
39e0659b,
2f48e813,
39e0659b,
3ef05048,
2eb90028,
3e5d49ad,
2fd51e10,
3d272ef6,
3df6f905,
3b10c035,
32e972be,
3e5d49ad,
2eb90028,
2d97ea40,
3e40979c,
34bbe739,
2d97ea40,
3e5d49ad,
2b70128e,
2b70128e,
2c80cdbd,
2c80cdbd,
2b07a218,
2b07a218,
30b5a2a7,
30b5a2a7,
30b5a2a7,
30aa3c63,
30b5a2a7,
30aa3c63,
2bbf4cde,
30aa3c63,
311e4973,
2bbf4cde,
2c4ee9e3,
311e4973,
2badd849,
2c4ee9e3,
2eb66053,
2eb66053,
2eb66053,
311a6d35,
311a6d35,
311a6d35,
2bc99b0b,
311a6d35,
2bc99b0b,
2dbfb3e9,
2dbfb3e9,
2dbfb3e9,
2d0e5be9,
2dbfb3e9,
2d0e5be9,
2d0e5be9,
3dfd9b95,
3ec0991b,
3dfd9b95,
2e17eb6e,
2a711897,
3ec0991b,
3f000000,
319a59b6,
3f000000,
3a1b9794,
3d087948,
302e3225,
3eeec9f1,
3d087948,
3eeec9f1,
32b4540f,
2ccbff03,
3d676c1a,
2ccbff03,
3c2ed710,
35c587f9,
30808acf,
33c48237,
38833cf4,
3cced13a,
3ee8531e,
34ca91a2,
3ee8531e,
31d83700,
3da45367,
3e47dae9,
3e2df058,
39dcbfdc,
30d1bf13,
30d1bf13,
2b1c9fe8,
3ddf0d69,
365ac107,
2b1c9fe8,
3bf7f9a2,
3e59392d,
3c5e2f9c,
3e59392d,
3381b56d,
33cffeac,
34354215,
3efff8b2,
38e89580,
343dd8cc,
3efff8b2,
36ba5bb5,
3effe239,
39eb46e4,
3effe239,
3effffd3,
3633fc2e,
3effffd3,
2b393eda,
2b393eda,
2b393eda,
2d4ecfde,
2d4ecfde,
2d4ecfde,
31578513,
31578513,
3e9c3fdf,
3eb1e011,
3eb1e011,
31755953,
2f9cb3a5,
31755953,
2ec465fc,
2f9cb3a5,
2bf29ec7,
2f9cb3a5,
2bf29ec7,
2e31266e,
2d8a362a,
3074b68c,
3074b68c,
38e9bd72,
3e6ae9fb,
3b9781e5,
3ec40f30,
3ec40f30,
3ebe2662,
3e83b33c,
3ebe2662,
3f000000,
3f000000,
3cf96311,
30580a36,
3ef3d119,
39278245,
3c8b2aab,
3ef3d119,
3a7998f9,
308bb87e,
3c4e8f87,
2f657749,
32af65d6,
3efc875a,
32af65d6,
3efc875a,
38396fcb,
3efffd19,
3efffd19,
38138f09,
3e512a6a,
3ecbb318,
3ecbb318,
3e51f321,
3d364040,
3c8617c1,
35a91467,
3e069d9c,
2b3d0d09,
30fd2bab,
32027d36,
30fd2bab,
3dc658b2,
2a036894,
3e2cd995,
3a0539cf,
3e069d9c,
2b3d0d09,
2c80a3e5,
3e51f321,
3dc75bf5,
3ee71482,
3ee71482,
3b6e5be8,
3eff0f80,
3808f61a,
3eff0f80,
3f000000,
3f000000,
2aa6932c,
2aa6932c,
2aa6932c,
2aa6932c,
2d8a362a,
2d8a362a,
30e5a72d,
30e5a72d,
2e2ef9f1,
2e2ef9f1,
2e2ef9f1,
3013f7fe,
3013f7fe,
3013f7fe,
30452a13,
30452a13,
30452a13,
30452a13,
3d3f53d6,
2e9bf9bd,
3ea29635,
320cd8a4,
3a2539d9,
30f4874d,
3ea29635,
360e50c9,
3ea29635,
3ef80e32,
2f3ecc3a,
3880eba8,
3cfdb8f3,
3ef80e32,
3f000000,
3f000000,
3c9387e6,
3efb63c2,
3efb63c2,
3b118ae7,
3d237e27,
3ed8af05,
2c4e875c,
320a49c4,
3d927d5e,
3d237e27,
30fdcda5,
3ed8af05,
3c166881,
3dc75797,
2a041173,
3dc75797,
30fe7104,
3e727146,
3e83c180,
3d372a76,
3e83c180,
3189f098,
3189f098,
2bdb202e,
2f0410ac,
2ab9015c,
2d1a40fe,
2f0410ac,
2b605002,
2b605002,
2b605002,
2b605002,
3074b68c,
3074b68c,
3f000000,
3f000000,
3e5cb4e9,
3ec5c0e0,
333aae86,
3114b59a,
2ebdb655,
3c447990,
322b4f81,
3ec5c0e0,
3efff246,
395b99b1,
3efff246,
3f000000,
30e32122,
3f000000,
3ef76668,
3d09858a,
369b5e93,
3772a1e9,
3ef76668,
2d522cbf,
3b7a6c4f,
341111ca,
3efcb51f,
3c141cab,
2d522cbf,
3efcb51f,
39dbd6d5,
327eb463,
3effe485,
3effe485,
3189f098,
3189f098,
2d02fa07,
2d02fa07,
2d02fa07,
2df3e1f6,
2df3e1f6,
2df3e1f6,
2ad93681,
2df3e1f6,
2ad93681,
2ad93681,
3ed59805,
3e219482,
3c00b6af,
303d4294,
3ed59805,
3efff503,
392fd97b,
3efff503,
3ef26893,
3b511123,
3d4c65b8,
3ef26893,
301b32a6,
3eaf26f1,
3db8adaa,
3e66ef4e,
38f0ab2e,
2cabde65,
3eaf26f1,
3e718fc7,
3eb73647,
3d465c43,
3428a748,
3eb73647,
2a952745,
3d81007a,
32941c1f,
39ffabe2,
33906d2d,
2e3bf826,
35687fa8,
3083d938,
3eee4cee,
394c75d8,
3bb31ad5,
3eee4cee,
2e00e853,
2e00e853,
2b27d2f9,
2b27d2f9,
2f850e24,
2f850e24,
2f850e24,
2f850e24,
2b9ff1f8,
2b9ff1f8,
2b9ff1f8,
2f8e6761,
2f8e6761,
2f8e6761,
2e5292e0,
2f8e6761,
2e5292e0,
2e5292e0,
3d4d0b34,
30fee13e,
3ef32cd5,
321b31f0,
381da149,
3ef32cd5,
3d81cccb,
350638da,
33dc6f7d,
3eefc65c,
3eefc65c,
333a8c98,
3efdbd6c,
3c10a498,
3efdbd6c,
3ef78976,
3cd6528d,
3be1faab,
31b54820,
3ef78976,
3907ec0f,
3c10cf51,
364c94cb,
3e7db411,
3e7db411,
3e7db411,
3e7db411,
36e11c0c,
2ba12cd4,
3e29199a,
352ea26c,
3debb12e,
2f2befd4,
3e658866,
325e7f23,
2f2befd4,
3e658866,
3d41cab6,
3e658866,
2e00e853,
2e00e853,
2e737242,
2e737242,
2b27d2f9,
2e737242,
2e737242,
2c68a970,
2c68a970,
2c68a970,
2c68a970,
2e1c17e1,
2e1c17e1,
31f0ba6b,
3effffe8,
35c2c567,
2fbfc32e,
3effffe8,
3b3f98ad,
3eff4067,
3eff4067,
34df3617,
3effffdb,
35f33d46,
3effffdb,
3efffe24,
329f1b24,
37edccec,
3efffe24,
2f5c0c99,
2ce0c8dc,
3f000000,
3f000000,
2cf334dd,
361fd4a1,
316f524c,
3b952a2a,
2f3ea44f,
3efed582,
345de835,
3efed582,
3f000000,
3f000000,
3effff56,
372a2c81,
3effff56,
2b0d2f9b,
2b0d2f9b,
3f000000,
3f000000,
3f000000,
3f000000,
31915ee1,
31915ee1,
2bca3a94,
2bca3a94,
2bca3a94,
3086a451,
307df253,
3086a451,
3086a451,
2fbb6bc7,
3086a451,
307df253,
2fbb6bc7,
307df253,
2ba9151d,
2ba9151d,
3c4e106b,
3e908a7a,
3eb48282,
3eb48282,
3e7ddaf7,
3ec08943,
3ec08943,
3effffb8,
368fdce7,
3effffb8,
3f000000,
3f000000,
3efc9779,
3bda21df,
3bda21df,
3efc9779,
3d0d43ad,
3ef72bc6,
3ef72bc6,
3f000000,
3f000000,
3f000000,
3f000000,
31915ee1,
31915ee1,
3f000000,
3f000000,
2c0cae76,
2c0cae76,
2c0cae76,
2c0cae76,
2e3a1e1a,
2f3a06b1,
2f3a06b1,
2e3a1e1a,
2e18c1c4,
2e3a1e1a,
2f3a06b1,
2e18c1c4,
2f3a06b1,
3f000000,
300225b7,
3f000000,
3f000000,
2ce0c8dc,
3f000000,
30dc9ef1,
30dc9ef1,
3ed131b4,
318cf3d4,
3d355c10,
3e0d9c29,
3409fbac,
398bf75e,
3ed131b4,
3c8f8f44,
362230e9,
3efb835d,
3efb835d,
3efff4b6,
38b4914a,
38b4914a,
3efff4b6,
3efff711,
390f00de,
3efff711,
3eff70fe,
3b0f02e6,
3eff70fe,
3f000000,
3f000000,
2e64df8f,
2e64df8f,
2ab12e73,
2ab12e73,
311d5018,
2e82468a,
311d5018,
3bc6754b,
3efe7316,
3efe7316,
39255319,
3efff5ab,
3efff5ab,
30dc9ef1,
30dc9ef1,
3700e6a6,
3effff7f,
3effff7f,
30dc9ef1,
30dc9ef1,
2cc38190,
3e4c966a,
3eccda65,
3eccda65,
2cd3b4fa,
2cd3b4fa,
3a202601,
3effd7f6,
3effd7f6,
3f000000,
3f000000,
2de27869,
2de27869,
2de27869,
2de27869,
2b450a70,
2b450a70,
2e64df8f,
2e64df8f,
30564c82,
30564c82,
3effeeea,
3988b1ab,
3effeeea,
3f000000,
3f000000,
2d7451bd,
2c3386eb,
30dc9ef1,
2fbf839d,
30dc9ef1,
2fbf839d,
2af993b4,
2fbf839d,
2af993b4,
2af993b4,
32a56f5c,
3eaaaaab,
3eaaaaab,
2befae18,
3eaaaaab,
30dc9ef1,
30dc9ef1,
2e8047c9,
2e8047c9,
2ab12e73,
2ab12e73,
2e2bc416,
2e2bc416,
3f000000,
3f000000,
3f000000,
3f000000,
2d1cdb29,
3f000000,
3f000000,
3f000000,
3f000000,
3eccda65,
3e4c966a,
3eccda65,
305afa9e,
2a9c1f03,
305afa9e,
2ca05c5d,
2ca05c5d,
2b724e3d,
2b724e3d,
300cd6c7,
300cd6c7,
2b450a70,
2b450a70,
2e8047c9,
2e8047c9,
2dd6e4da,
2dd6e4da,
2dd6e4da,
2dd6e4da,
2f3228ce,
2f3228ce,
30564c82,
30564c82,
2ca5631e,
2ca5631e,
30ac0ae3,
3597b01d,
2f955843,
3effffed,
2c0bff43,
3effffed,
308da42b,
3f000000,
3f000000,
3f000000,
3f000000,
2d088406,
30768c4a,
3f000000,
3f000000,
3effd01e,
3a3f8524,
3effd01e,
3ee0b11c,
3dd9f855,
3c804020,
395d821e,
3ee0b11c,
305afa9e,
305afa9e,
2ca05c5d,
2ca05c5d,
2b724e3d,
2b724e3d,
300cd6c7,
2f25f35d,
300cd6c7,
2ed6c9be,
2ed6c9be,
2e270f6a,
2e270f6a,
2e270f6a,
2b597eb2,
2e270f6a,
2b597eb2,
2b597eb2,
2f3228ce,
2f3228ce,
2e2bc416,
2e2bc416,
3f000000,
3f000000,
3d77b58d,
3638410e,
307d2ce0,
3e16a22f,
3a912eb6,
328e333d,
3d77b58d,
3c2c2e7e,
3e16a22f,
39444d5e,
3189f22b,
3e92b272,
3e92b272,
3e30c38e,
2f33bab3,
35368c97,
3a6d7558,
2a6a3820,
3362cbe3,
3ebb1ac6,
3da26b78,
3c855f56,
34513472,
35368c97,
36eb4fd8,
3ebb1ac6,
3ee269b5,
2aac212b,
3d94dfb3,
3d2fa549,
3ee269b5,
3e9261ca,
3021fb80,
3235f5d5,
3eb6cf1b,
3eb6cf1b,
36035cc0,
3e512c33,
3ecbb4d3,
3ecbb4d3,
3d9c9cdd,
2c91bff2,
3e6ddfae,
3de0ba2b,
3213d838,
3e9488c1,
3aa8e739,
3e9488c1,
2f05b4ad,
2fe2f263,
2fe2f263,
39329587,
3efff4d7,
3efff4d7,
3a177fbb,
3effda1f,
3effda1f,
2a9c1f03,
2a9c1f03,
2f25f35d,
2f25f35d,
2ed6c9be,
2ed6c9be,
30d34a8a,
30d34a8a,
3ef40e7d,
3d3f1836,
3ef40e7d,
38e7272a,
3efff8c7,
3032d57f,
3efff8c7,
3822cec6,
2c99b152,
3822cec6,
3e901b00,
3d07c9d6,
33180645,
2a1d0005,
39868f98,
35ca01f6,
39868f98,
31173cd0,
3e4e831d,
300ac8ea,
3e4e831d,
3e901b00,
3d29103c,
2b8c9bd3,
37910e2b,
3beb07d2,
3e9c2703,
35fb827d,
3e483e65,
3addc0d6,
313c4c62,
32421afb,
3905fa4f,
3e1385b8,
3905fa4f,
3e9c2703,
3e339ff1,
3decd4f7,
3a125b56,
3eaeee40,
2bf5ab16,
2d272a68,
3c4d51ee,
3c4d51ee,
3eaeee40,
3eaaaaaa,
3238a318,
33340b99,
3eaaaaaa,
3eaaaaaa,
3186ef6c,
3e8f7ece,
3eb8406c,
36343b93,
3eb8406c,
3b661937,
33398bf6,
3e109d36,
3e9912f3,
2b89d634,
3e444bd0,
3d84e100,
2cbb952f,
3a4244fc,
2f130a47,
3e9912f3,
2ded3380,
2ded3380,
3ef53a63,
3d2c59d5,
3ef53a63,
3d05d049,
3ef78299,
3a0189bc,
3ef78299,
39040014,
3cadb2a1,
3efa8a29,
33eaa318,
3efa8a29,
37b9c0f3,
3efff7c9,
38d7f9b8,
345ace06,
3efff7c9,
3d94b77c,
3b050923,
3eece408,
3eece408,
3f000000,
3f000000,
30d34a8a,
2cd504a7,
30d34a8a,
2f96133c,
2f96133c,
2f96133c,
2f96133c,
2c7170b6,
2c7170b6,
2c7170b6,
2f0410ac,
2f0410ac,
34577e6e,
3d50aa1d,
316867ae,
2bad8b69,
361b3620,
3c110ab5,
3ef0b090,
36f262be,
2cec2d81,
2e1805ea,
3ef0b090,
353e8190,
3cf96bd9,
3272b7dd,
2cef4775,
3c8b2f92,
3ef3d9af,
37b56241,
2bafd2d0,
2cef4775,
3ef3d9af,
3e01d8d7,
367eb089,
3e26ba15,
38adc121,
3b986785,
3e8203fc,
3e4a8330,
2d9fbd73,
3e8203fc,
3ef2d784,
336bb403,
316a7bab,
3d5287c2,
3ef2d784,
3ebfd567,
3e7cedd4,
3903cb83,
3b66e6d2,
3ebfd567,
3e94b670,
3e88d27f,
3e18b408,
310f9808,
3b32ffb6,
321405b1,
3695c2b4,
34052529,
2ee4c593,
310f9808,
3e94b670,
2ded3380,
2b94116a,
2ded3380,
3781fc6f,
3efddec5,
3c080dd9,
3efddec5,
36e5a47b,
3df5b06d,
3ee13cd9,
394a68e7,
3ee13cd9,
3316aee9,
3543b11b,
392760b6,
3efff57d,
3efff57d,
37062537,
381d6bde,
33966683,
3effef94,
3956e5df,
3effef94,
3efffe66,
37cd0e8f,
3efffe66,
2d22903c,
2d22903c,
2d66676e,
2d66676e,
2d66676e,
2d66676e,
2cd504a7,
2cd504a7,
2ab01768,
2ee74d5b,
2ee74d5b,
2d363ac6,
30f385f9,
30f385f9,
2d363ac6,
302a03fc,
2e12bfcb,
302a03fc,
302a03fc,
302a03fc,
3f000000,
3f000000,
3efffffc,
34923e9c,
3efffffc,
3d6de05f,
39db92a8,
3ef10688,
3ef10688,
2c991b1c,
2ad1f648,
2c991b1c,
2cfb3378,
2bb89572,
3f000000,
3f000000,
2e21b17d,
2cfb3378,
3f000000,
3f000000,
3e3ef07f,
38c6fcce,
3bae8977,
3e94e595,
3e67ec01,
2db6f01d,
3e94e595,
3efff40e,
31864f7d,
393f20fa,
3efff40e,
367a59f8,
39855c5b,
3effef16,
2c0bf60d,
3effef16,
2cabef9f,
3eaf387f,
322e683f,
3ea135f8,
3a3210a3,
2b7cadcb,
3eaf387f,
2b94116a,
2b94116a,
2e31b29e,
2c0790f9,
2e31b29e,
3b0142ba,
3b8a8591,
3e6dcefc,
3ec2d551,
3a0286f5,
3ec2d551,
2ebe6dde,
2d87acf6,
2acb94b9,
2cc84426,
2f741432,
2af746e6,
2f741432,
3800cd1d,
356e65ff,
3c7f0eb5,
3efc01b4,
3efc01b4,
37e19726,
3effee5b,
3956e4cd,
381ceef4,
3effee5b,
3f000000,
3f000000,
2b1bd795,
2b1bd795,
2b1bd795,
2b1bd795,
3f000000,
3f000000,
3f000000,
3f000000,
2ae1689d,
2ae1689d,
2ab01768,
2ab01768,
2ae1689d,
2ae1689d,
34c71f8b,
3efffffa,
3efffffa,
2bf97451,
2bf97451,
2bf97451,
30bf6b87,
30bf6b87,
35c49538,
3effffe6,
32850804,
3effffe6,
3efeb8df,
3ba39066,
3190d537,
3efeb8df,
35cf2c3b,
3effffe6,
3effffe6,
3ee1b652,
2fe097f8,
342a020a,
3dca1354,
3c70c032,
36a06019,
3ba1f7f7,
3ee1b652,
3ece59e8,
348ad502,
32b15758,
3d2519a3,
3e1b23fb,
3828149f,
36475fa5,
3b087adf,
3631db8d,
3ece59e8,
31570ad8,
36116665,
2f4ce1e6,
306157c0,
39de9182,
3effe40a,
2f928acf,
2e502bde,
3effe40a,
31a81089,
2cfdfde3,
2a92c675,
31a81089,
379e88bd,
2f23ef68,
3eaaa98f,
36d6a222,
3eaaa98f,
2cd122db,
2a55a2ff,
3eaaa98f,
2de85e12,
2de85e12,
3ea93d57,
2a38621c,
3ad12c2c,
3bddb252,
2de85e12,
3ea93d57,
3424b0f9,
3ea93d57,
2cad983f,
3c08e33f,
3efdda8f,
37f274ab,
3efdda8f,
3eff9ab8,
3aca8f15,
3eff9ab8,
3be80cd8,
3efe2fe6,
3efe2fe6,
3a659ffb,
391b3d1c,
3dee3f1a,
3ee1f500,
3ee1f500,
2da1c5df,
2da1c5df,
2da1c5df,
2d3db092,
2da1c5df,
2d3db092,
2f87f609,
2f87f609,
38943766,
3efffb50,
3560de91,
3efffb50,
3188fcbf,
3b0677d3,
3eff7988,
3eff7988,
30487d94,
316cbc30,
3f000000,
3f000000,
3f000000,
3f000000,
3f000000,
3f000000,
2be14c4d,
2be14c4d,
373caeae,
3b9c32a0,
3efec6de,
3efec6de,
3b1dc32f,
3eff49c8,
39c3a6b0,
3eff49c8,
3e4dfcdc,
3ecc5aa7,
3a1885df,
3ecc5aa7,
2ee74d5b,
2f614201,
2d16f4f2,
2f614201,
323d7832,
349e76cc,
3efffffb,
3efffffb,
38fe9f8b,
3b0609cd,
3eff71f0,
3589f94a,
3eff71f0,
2e12bfcb,
2b7aac66,
2e85f1f6,
2e85f1f6,
33aefff7,
3effffe1,
35ea6535,
3effffe1,
3efc8ba6,
3c5d169c,
3efc8ba6,
3885dd59,
3efffbd1,
3efffbd1,
2d7451bd,
2edb7a95,
2edb7a95,
35840405,
3416a180,
3bc70c76,
3572eb98,
31e68b6a,
3efe6b98,
38c58161,
32bd2094,
3efe6b98,
3ebbdd07,
3e27e3c1,
2fdacc93,
3b6e4dd9,
3d976f66,
34e8e077,
3bb1f93b,
3c9d39f3,
34929393,
2e81efa8,
3ebbdd07,
3d1b2167,
3edab124,
3915c8ca,
34c9933c,
3d51ec00,
3a381a5c,
3904cc36,
3d637639,
38dd60f0,
3edab124,
39afae6b,
3eff6178,
356f5d0b,
3b088250,
30cd4588,
33a73193,
2fabb5fe,
3eff6178,
3e7b7375,
3986e3e8,
3ab28b36,
3bbd3be4,
2b626bcc,
3d081eea,
3e90754a,
38d7be4d,
3ded8dd9,
35ca8088,
3ca09967,
3c333d70,
3b3cfd16,
3e90754a,
2bd8b665,
2e3dd673,
3b2ae35a,
3a98b81b,
394e7e1c,
3641d1b0,
3ec62418,
308528b7,
3e635e3d,
31911b64,
3ec62418,
3effff04,
371c910a,
3157218d,
363dadb9,
363dadb9,
3effff04,
2c3386eb,
2c3386eb,
373a7c9e,
30a415c2,
3ef428ac,
3d3d699b,
2e69ed5a,
31b2cece,
3ef428ac,
2df3cd39,
3d403fcc,
30559148,
3784149a,
392a418e,
3ec0ffb5,
3e4bc28d,
3ec0ffb5,
31a375e7,
2d86d747,
31a375e7,
3eff9379,
37c24205,
3a80aa75,
3a2ab199,
3eff9379,
2c0790f9,
2d337058,
2cc84426,
2d32e2c9,
2fd6aebc,
2fd6aebc,
3bcf3438,
3e64148c,
3c363fb0,
3ec28376,
3ec28376,
3568344a,
3ef946a4,
3cd729d7,
3ef946a4,
3f000000,
3f000000,
3ef91234,
3cddb98f,
3ef91234,
3efeb5d8,
3ba51402,
3efeb5d8,
2f369cf2,
2d9816b5,
2f369cf2,
2d9816b5,
2d9816b5,
2c202722,
2c202722,
3efff557,
392a8177,
3efff557,
39718884,
3e8a6b5e,
3ebabb39,
3ebabb39,
3c723844,
3efc371f,
3efc371f,
3f000000,
3f000000,
3efff732,
390cd059,
3efff732,
36d73bdd,
391b39b6,
3e8b997b,
3c3fc892,
3eb72a01,
3eb72a01,
37f77391,
37a83e4f,
3efcc3f5,
3c13b07c,
399efeb6,
30a5b9e6,
374dfcef,
3b555715,
2d88a46b,
3086c446,
34861664,
3efcc3f5,
3db3fe00,
3d25e5bf,
302a150e,
398d52e7,
3dbbf0b0,
3ec4247d,
34427048,
3c19a75b,
3b838291,
2fdf8f39,
3ec4247d,
3bbfc373,
32564f07,
391b6928,
3da95342,
33b12059,
31ae95e2,
3ee94c59,
3ee94c59,
313f657a,
3e82ac96,
3eb65ed8,
37937120,
3beee5c0,
3ccabf69,
302fa314,
39aa4aa2,
2b8eec0d,
35ffa5d3,
34317823,
36c79db1,
35ffa5d3,
2dfa6572,
302fa314,
3eb65ed8,
3417ac9c,
36aa9a19,
3c416413,
3e002789,
30161bbb,
35da7d52,
3eae2e11,
3d6b8285,
3e002789,
3eae2e11,
389f7fd7,
3b881178,
3ea20070,
30f3a60d,
3ea20070,
3d3ea397,
3ea20070,
3da991a9,
300e801b,
2b67ea4f,
3e93f6a8,
3ea0d277,
3ea0d277,
2bb5595b,
3c8f8f5a,
3efb8385,
3efb8385,
2e987bdf,
2e987bdf,
2e987bdf,
2c04ab3d,
2e987bdf,
2c04ab3d,
2b8416af,
2c04ab3d,
2b8416af,
2b8416af,
2abecdf4,
2abecdf4,
2abecdf4,
2abecdf4,
2be418bd,
2be418bd,
2be418bd,
2be418bd,
31975284,
31975284,
3acef9da,
3eff9882,
3eff9882,
3edd536b,
3e0ab253,
3edd536b,
3f000000,
3f000000,
2c8dbc85,
2c8dbc85,
3ee1fe2f,
3917f1de,
3defc28c,
3ee1fe2f,
381804f1,
35a0a74e,
3c16c986,
3a9ae8db,
3efd54f1,
3efd54f1,
399d4c88,
3e62420f,
3761a422,
3ec70200,
3ab1e187,
3ec70200,
392bc1e4,
3ed596e5,
39773865,
3e293bae,
3ed596e5,
35419a12,
392a411a,
3efecb07,
3b952407,
3efecb07,
35419a12,
392a411a,
3efecb07,
3b952407,
3efecb07,
3eaaaaab,
3eaaaaab,
3eaaaaab,
3e468175,
39815811,
2b591c83,
3de3c960,
3de3c960,
3e711cb5,
3aab33e0,
3de3c960,
3e711cb5,
3c9347df,
3c9347df,
3dd9da8f,
3e940c06,
3e669922,
3d482cde,
3bad8a71,
3e940c06,
2dc3fce9,
3e8ebe4f,
3e4c8f6b,
3e787758,
30097919,
3e8ebe4f,
2d6ce4c3,
2d6ce4c3,
391d2754,
3ede7a50,
3e05ef78,
3ede7a50,
37ac8260,
3efffea6,
335cf8dd,
3efffea6,
2ad5e2eb,
2ad5e2eb,
2adc9742,
2adc9742,
2bb735bb,
2bb735bb,
35c3fa19,
35603107,
3effffda,
3effffda,
3b1fc6f1,
3eff6039,
3eff6039,
3effc522,
3a6b7a4e,
3effc522,
3f000000,
3f000000,
3f000000,
3f000000,
3efc7050,
3c63ec0c,
3efc7050,
3ef1adc1,
3d6523e4,
3ef1adc1,
3d9b8b40,
3eec8e98,
3eec8e98,
3ebe9a0a,
3e82cbec,
3ebe9a0a,
3bde4db2,
3efe4363,
3efe4363,
3e000cb7,
3c7f1ac5,
35a0d52a,
3e803743,
3e657719,
29f9ff75,
3d2d5c8d,
3dbcac04,
3e803743,
3e979484,
2dd01ef0,
3d6509cf,
331fe8f0,
3d6509cf,
3e979484,
3e979484,
302eb80a,
3e152a68,
3e152a68,
3eb56acb,
3eb56acb,
38188ecc,
3effcda4,
35c29f2c,
3a3f834a,
3effcda4,
3c82c090,
3dc167b8,
3e836eb4,
3e4cb828,
3d31b5ed,
3b9a10b2,
3e034316,
33e4e677,
3e836eb4,
3b0c3258,
3e3a886a,
3e3a886a,
359638a7,
3e3a886a,
3c04f702,
3cc9f4b1,
3e56535c,
366a97c7,
3e56535c,
2c56b87f,
2c56b87f,
2d6ce4c3,
2d6ce4c3,
3d667aa9,
3ef19852,
348c2974,
3ef19852,
2ad5e2eb,
2ad5e2eb,
2e9e3cc6,
2e9e3cc6,
2adc9742,
2c6249b0,
2c6249b0,
3780a760,
37970d1e,
38d8a3eb,
3efff70b,
3efff70b,
33173bed,
394f3845,
3bb4f66f,
380b3abd,
3efe86f2,
3efe86f2,
3abe952d,
3edea213,
3e03f9f9,
36083a99,
3437f4f7,
3edea213,
3d92e693,
3eeda32e,
3205a253,
32942783,
3eeda32e,
3d3900cf,
3ef46fd1,
36078113,
3ef46fd1,
304cba5c,
3ef0826c,
3d77d93a,
3ef0826c,
3789b5b5,
3efffeed,
3efffeed,
3f000000,
3f000000,
3efe62bb,
3bcde508,
37b80959,
3532631d,
3efe62bb,
3eecb903,
3d9a37e4,
33a152ce,
31e92627,
311be3b6,
3eecb903,
3eec0d52,
3d9f9572,
3eec0d52,
3d834f24,
3eef961c,
3eef961c,
3ed98e79,
3e19c61b,
3ed98e79,
3d55a23f,
3ef2a5dc,
326f4ba2,
3ef2a5dc,
2f074129,
3db96864,
3c48bcda,
3a32b2c5,
3b53a7d2,
3ac7f53f,
3e0505df,
3e0505df,
3ea1c8c1,
2cac8c2c,
3ea1c8c1,
38c30948,
3cd63278,
3ef76468,
32bac35b,
3980e8ee,
3980e8ee,
3be1d8d8,
3ef76468,
3ac4f76b,
3eff8c62,
3679f96b,
3679f96b,
398528ec,
3eff8c62,
36a0c4fe,
3effffae,
33f1fadd,
3effffae,
3bfef3ed,
3e9bd855,
2ddc00ef,
3e9bd855,
3d7ff26e,
37e1c956,
3c86ef0d,
2ca1a8e7,
38a6c5ac,
32587d41,
2ddc00ef,
3e9bd855,
3df1f03e,
3bc0b9fc,
300db135,
331b3591,
2c9ce991,
3bc0b9fc,
3d0aa20f,
36a1096d,
3da89b77,
3c368c50,
3e9fe8f7,
3df1f03e,
3e9fe8f7,
2c93feb9,
2c93feb9,
2c56b87f,
2c56b87f,
3effff66,
35c06148,
37014c94,
3effff66,
2f4ad156,
2f4ad156,
2f4ad156,
2f4ad156,
2e9e3cc6,
2d35aaed,
2e9e3cc6,
2c6249b0,
2c6249b0,
3f000000,
3f000000,
3efe7787,
3bb4eb79,
39f50fa0,
3efe7787,
362e7f1b,
38c7f0e5,
3efff8f8,
370c85a4,
35853b4b,
3efff8f8,
393b78a5,
3effbf6b,
34d24a81,
3a5358f7,
3effbf6b,
3987da71,
3effef05,
2f8b1321,
3effef05,
3f000000,
3f000000,
2cae4bec,
2c890157,
2cae4bec,
33ac4fdd,
33a60bf4,
38436d03,
3efffcf1,
3efffcf1,
30419d8f,
37899513,
33991b14,
33a05c41,
312e3ded,
3ee4286e,
3ddeb3ec,
3ee4286e,
37393564,
3bbee2d3,
370c49f5,
399bdc13,
3d6c6181,
3ced8948,
3483d989,
3ee83b13,
3ee83b13,
35ea7d81,
3de113a3,
3eb9c903,
3e1ffedd,
3c04ab42,
3801b036,
3eb9c903,
3ea621e4,
3eacef0d,
3eacef0d,
3f000000,
3f000000,
2df3e1f6,
2df3e1f6,
2b65361b,
2b65361b,
3efffe21,
35502df9,
37e74923,
345c2e4f,
2fd5a1df,
3efffe21,
3ee3d8d1,
3de1297a,
3184ca5c,
37eb12a9,
36263c7e,
31f877e8,
3ee3d8d1,
3620fcec,
3ec3a133,
3e71005e,
30712c61,
39be26a8,
38d2a476,
36473268,
3284f945,
302ab030,
3ec3a133,
31bbb4db,
3dc40c46,
3ee77d4b,
36c1b627,
3176b97a,
326fd8ed,
30e2b418,
337136bb,
36ecbef4,
35b5a4e2,
349ac947,
35096918,
363de92e,
3ee77d4b,
2d7e5a02,
3c960f3f,
3efb01c6,
39f03dbb,
30ae8338,
33ce7e8f,
34f49407,
38e094a5,
3a228bf6,
2f07cd10,
330035a9,
34ed250b,
3efb01c6,
33f0fc8d,
3e70db92,
3ebd9223,
3c99d556,
31039045,
3404976d,
390a1b36,
3b335bba,
3b2c4de7,
2e72c2bb,
31e7bc98,
32a3edbd,
3ebd9223,
34b089fe,
3e61f8e8,
3daaf1b8,
389b3fcb,
3591b883,
3d6e4338,
3d1d1287,
3e685657,
3e14f85a,
32db545b,
2c5dbc7a,
3e685657,
3e6fedcf,
3db5808f,
38a4d67a,
359ab889,
3d26c609,
3e76afe1,
3e1e2bc0,
32e8e03a,
2c6b6e67,
3e76afe1,
3e94adf6,
3b4282e2,
38de0c40,
3e55112d,
3e55112d,
2ef898fc,
3e94adf6,
31f0a3a8,
3effe7b3,
38396047,
39ab3824,
3effe7b3,
3e2ddfb1,
3e9bca84,
3b4bd0a3,
3db28a20,
38300288,
3e001862,
3b4bd0a3,
3b4bd0a3,
3e9bca84,
348f8751,
37217094,
2be72d4c,
3cb7013e,
38a6a25e,
3c41356e,
3ea49ca8,
3ea49ca8,
3aa2e992,
37217094,
364ec16b,
3ea49ca8,
2c93feb9,
2c93feb9,
2ca87a76,
2ca87a76,
2ca87a76,
2ca87a76,
2d35aaed,
2ede3495,
2ede3495,
3469893b,
3efce9ec,
3c45842e,
3efce9ec,
3780dac1,
3efa1c9c,
3cb74e99,
3a1f7c9f,
35656a1e,
3efa1c9c,
385bdc32,
37390dad,
3ead1164,
3c8f8246,
3e9ccab4,
39106c49,
3ead1164,
3d1260e6,
382278da,
3ef6ce8c,
390dc555,
3ef6ce8c,
3effffbf,
33e2cb28,
36387c02,
3025925a,
358827d6,
3effffbf,
3effdc48,
3a0edff7,
3effdc48,
2c890157,
2d4e2c9d,
2c10a4eb,
2d4e2c9d,
3b0da7f6,
3ef860c9,
35d7cae6,
3a22572c,
339688ae,
3cdd1ba6,
3ef860c9,
3ad5581c,
30784f49,
3efb8a77,
3a14f233,
2fc4be36,
3b933cb2,
310f47a8,
33636a8d,
3c2fc93a,
31340b05,
3efb8a77,
340c9094,
3efafb66,
3bea20d6,
3524f476,
3734390d,
3c4b6746,
37f7fdad,
35157104,
3efafb66,
3bbc5f3f,
3efe8741,
3efe8741,
3f000000,
3f000000,
3effbe38,
3a838fcb,
3effbe38,
365affd2,
2e3864fc,
3ee90c57,
3db746ce,
31ee30cf,
33a76002,
383e69b9,
38ba95d2,
37d87c84,
35c451f6,
3ee90c57,
320f49d6,
2c431243,
3eaa9735,
3ea060f9,
3ca59198,
31bc5736,
3260dc15,
358097f3,
376534d7,
3840baee,
38cfd16a,
37a4f47d,
3349bc78,
3eaa9735,
2f49a46e,
2b3d5c17,
2dc83d71,
2f5a7d99,
3d42c5bb,
3e68d715,
3ea81695,
3d8c2c75,
30174148,
32119cb3,
35300f89,
361b894f,
3704d174,
36c62103,
365d203a,
36cbb5ab,
3472d132,
33326c5b,
3ea81695,
2e6beac6,
321caa13,
2fd00af8,
3c11a961,
3e4bb70f,
3ec18d85,
3d13daae,
2e05b29f,
3250c04f,
33b27de1,
345bc7c4,
36bcfe1b,
3341c080,
3333eb18,
32689084,
3267d90c,
33be718d,
3ec18d85,
2ca56189,
33099ed1,
329b807f,
2fda0346,
3cfbfdbc,
3e8f8cbc,
3ea4f02a,
3d3679ca,
2e90af1e,
30c1ca61,
3246cb89,
35977c56,
37e9da62,
31e6f3e6,
30287139,
30cd7e9b,
326a1ff1,
34aaf26e,
3ea4f02a,
2f2fd24a,
36fc872b,
37a1d615,
354aab91,
3181f8a0,
3cdb2233,
3ea4cd67,
3e83f6a2,
3d92a2e0,
2eaf0d69,
30e84e24,
3527e3d3,
37a7f148,
38d1a1bb,
2ed7ee94,
30432dd7,
32a3be70,
353df36f,
35c7d35a,
3ea4cd67,
3e1f06c7,
339ac0ad,
2c299b3a,
386d802a,
39147e61,
32a7c3f4,
32a7c3f4,
2e84f2f3,
355eec8b,
3b50515b,
3c95d928,
3d82c166,
31ac0b47,
31ac0b47,
39147e61,
3bc550e4,
39147e61,
3e2cd8b5,
3e2cd8b5,
3e0a6798,
3de3e518,
386d802a,
3e2cd8b5,
29c10a44,
31bfb084,
3e1a3579,
3ca6f58f,
3e1a3579,
3925732f,
3d4b0ed5,
3e312f7b,
3d4b0ed5,
3d05dd32,
3d91afad,
3dc5c05f,
3d05dd32,
3e312f7b,
2c5f737c,
2c5f737c,
3dac442a,
3e365806,
3c68ec20,
3de9d4a4,
3c68ec20,
3e365806,
3e518330,
3c01fa96,
3e518330,
3387078e,
37cef66f,
3efffdd5,
370c1973,
3efffdd5,
374ab841,
3e88445f,
3dce2adf,
3ba43b49,
3d8fadad,
3d8fadad,
2ff17c4f,
2a08970f,
330442e5,
3e33aa63,
3d3d6ff4,
3e88445f,
30e83c9f,
3db5f227,
3b10bfbb,
3df6f835,
3d7d98c5,
3e774a45,
367235d5,
31ef661c,
394ea0e9,
2b2d6b42,
3c094848,
3e7083f7,
3e774a45,
2d7a6d3f,
2d7a6d3f,
2d7a6d3f,
2d7a6d3f,
2ede3495,
2a9f0a01,
2ede3495,
2dda3c48,
2dda3c48,
2dda3c48,
2f89a673,
2b65361b,
2f89a673,
373e479b,
3dfc5813,
3bf4ea58,
3edad63a,
3c6d0c16,
3edad63a,
3b0ee558,
37a74917,
37969edd,
3ea1a4d4,
3eae9c34,
3eae9c34,
3d3d63d5,
3c710f0b,
3ef0642d,
374aab48,
370efebf,
3ef0642d,
2cda57d8,
2ffe66b8,
2a9e8c8b,
2ffe66b8,
2e944e6f,
2e944e6f,
2f864b0e,
2d221006,
2f864b0e,
3894a5e7,
3e7d3f9a,
3ec0ab75,
3ec0ab75,
3efaba5a,
3229ae05,
3008d833,
3c965b2d,
3b129232,
3663bfa1,
3efaba5a,
3efe0963,
37c8fe03,
3478bd61,
3a52951c,
352d431f,
3be02be8,
320fbd9e,
3efe0963,
2e098a0f,
2f7293be,
2f7293be,
2df3e1f6,
2df3e1f6,
336df6d6,
3726060b,
3effff59,
3effff59,
349c542d,
34b2841a,
35a63375,
31a78f38,
31b50007,
30483ef0,
3ed91a9b,
3d98c85c,
3be744c9,
3c1740ad,
3d7a0575,
30901cde,
36aa45a4,
3ed91a9b,
30f3a4d8,
32ceac96,
3496b544,
3350394e,
3340c2f8,
3230e3b5,
321dcccb,
2e6f1952,
3eb1b6f7,
3e848d22,
3bf927af,
3c10eacf,
3c7d5bb8,
3c513b8a,
3b05cee5,
317b9b64,
38b47443,
38d52e71,
3eb1b6f7,
2c65230c,
2e95b602,
320a2453,
321ada87,
37d48efd,
35441b3c,
3538efe4,
32b4ed73,
2f291499,
3d7271b9,
3e807aed,
3ea073ca,
3d13f5da,
3be5ddbc,
3bd0e465,
3c2800ae,
3a399fff,
39783a2e,
30b75b0f,
38ad4cba,
3b014c7b,
39a2d870,
3ea073ca,
2dee131c,
30aa5613,
36e19a3b,
35d2e556,
33c7b20c,
31122acb,
2f042484,
3b9bdf11,
3e4f1e88,
3ec2f938,
3c879788,
3a338127,
3a0b5e10,
3810c4b1,
36d4c0c5,
38255092,
32762186,
3920362c,
3bb5e17b,
3ba04303,
3b3ed721,
3ec2f938,
2b3c8221,
30ba8dca,
2d0e3550,
365e2dda,
3417ad37,
3238fbb7,
30d857e6,
30118c61,
3c6ba121,
3e7089f2,
3e9632c6,
3d47f964,
38912a3c,
35af7f12,
34c3026e,
36bce589,
39c4f269,
3c8ffcf4,
3d618dc5,
3c820b74,
3c4c7132,
3c60f822,
3e9632c6,
31cff08d,
30d88f07,
2cd5a9a1,
365261b4,
35635e87,
34fc32d0,
341aaa64,
32c53698,
3c06e92a,
3e7244f1,
3e6ba1d8,
3d25d24e,
345b35cd,
339ed0dc,
3600649b,
39a2cede,
3b74211e,
3da9a9ba,
3d0b123b,
3d3d5b1a,
3d88b25c,
3c684091,
3e7244f1,
29853406,
3d887445,
3daf35eb,
38e45496,
3d0c1da5,
3c07ec95,
3c6669ce,
3c6669ce,
3d887445,
3e08a19c,
38369882,
39870b9c,
3a9ff3a1,
3b2028c9,
3e04e362,
3605d31a,
3a9ff3a1,
3e04e362,
3d490e2d,
3e04e362,
3e08a19c,
2f74a584,
3e0a0cfe,
3b9d9822,
3dfe0691,
3d8dc158,
3a1cfb6d,
3d8dc158,
3d8dc158,
3c0d3463,
3cbfeabf,
3d118f23,
3d50ddba,
378f7f2b,
3d50ddba,
3e0a0cfe,
3db60470,
3e0a0cfe,
390b898b,
3d2b4151,
3c2621c6,
3e26ff09,
3da6c79e,
3ac37fd5,
3b43c0cd,
3e226bda,
3e226bda,
3d75bce8,
3e226bda,
3e26ff09,
393f1fbb,
3efff262,
3559555a,
33870184,
37ceed2e,
3efff262,
3b1ee593,
3e078de2,
3d8b3114,
3e87baed,
3684f128,
3203661f,
2b3e5e78,
3c16b34c,
3e840305,
3e87baed,
3afcd973,
30dc76f8,
377a9055,
377a9055,
3eff7cba,
2c336664,
383912c9,
3eff7cba,
377b101a,
2af9e5aa,
32f82613,
32f82613,
3effff02,
33f1fa3b,
3effff02,
36a0955d,
3a55ef5e,
3effb3d6,
39ab1571,
32f7dd35,
377ac662,
3effb3d6,
3ee3d084,
2f2f3a9d,
2f2f3a9d,
3d9e5a57,
3b891aeb,
335d1e1a,
3531fa6e,
391c83cd,
3ce904e4,
3ee3d084,
3220790b,
331c7b63,
3ea138a8,
311bac06,
3d6020e5,
3a23d69f,
3ea138a8,
2dcba8d1,
3ea138a8,
3b3241fd,
2a9d21d9,
3cb2f3ef,
3e25495f,
33982706,
3a9f4e27,
3b3241fd,
308ae6d1,
3b3241fd,
3eceaf9b,
3eceaf9b,
3f000000,
3f000000,
3e602a67,
3e8feacd,
3e602a67,
3e8feacd,
3e93732b,
3e93732b,
3e0b4d00,
3e93732b,
2e9926ed,
333c356a,
2e9926ed,
3effff41,
373e2c0c,
3effff41,
3ea52ea8,
35d50a0b,
2dd0a9bb,
32246a55,
30125d22,
3c3c9114,
2b6e33ed,
3ea52ea8,
3ca8f4ba,
3ea52ea8,
2f13519b,
2b8a1911,
3d852175,
2df1f1c8,
3e7c86df,
2f13519b,
3eb036fd,
38471590,
2cbbf02e,
3eb036fd,
33082a1f,
3e38f7c0,
3cf33e9d,
320ba320,
3e38f7c0,
33082a1f,
3dd44074,
3e811258,
3a9f86da,
310775ae,
3e811258,
3ec50f7c,
3515bbfe,
36c10332,
3a42c5eb,
2f136bde,
333a071b,
2cbc11ae,
333a071b,
3cc40a65,
2a401dc2,
36c10332,
3e44ce17,
3c5acb89,
3ec50f7c,
2d07d745,
3d0d9943,
3a8caee5,
3e8e269d,
3e5172f0,
2d07d745,
3e5172f0,
3e8e269d,
3df6741e,
3d2242f6,
3409f5fc,
3ed70d49,
3409f5fc,
2eb38df0,
3ed70d49,
3e10a716,
3846c2be,
2a3fabac,
2b89df9e,
3a425241,
3e991d67,
39a446b3,
3e7c1dd1,
3c5a499a,
2cbba1ff,
3138a2b1,
2f131452,
333998a2,
3e991d67,
39616f58,
2bec97a1,
37f4130b,
339f3e14,
3a0cf324,
3c45bc13,
3ea877cf,
30915fcc,
3ea877cf,
37f4130b,
3653994d,
3ea877cf,
339ab967,
3eff4aa6,
2be5e11e,
348eb914,
3b354554,
35791379,
3eff4aa6,
2e1b51a1,
3e01a420,
3c142fad,
3ea21cc3,
2cf14c45,
3e01a420,
3d55302f,
2f3d2551,
2bb14e92,
3d55302f,
3274c41b,
39d342d4,
3ea21cc3,
3e72feea,
2f0dc230,
3c5263ff,
3e3d3ecc,
3e0b6b6d,
3e3d3ecc,
35edb20b,
36b99932,
3bde1f17,
3e72feea,
36fe9431,
3cb9468f,
39726373,
3ea6a78b,
3ea6a78b,
36fe9431,
32105ebc,
3a295c16,
331d52ed,
3ea6a78b,
34900d69,
38dccacd,
2f3b7b83,
38157609,
38157609,
30645074,
3e17ce51,
3d32df70,
3ece535c,
3aff025b,
3ece535c,
2bb8d2e9,
39dc37ad,
2a807865,
2a807865,
35484211,
3c1a77f7,
35484211,
36254c97,
35484211,
3ea8fc31,
3ea8fc31,
3ea8fc31,
3db1e238,
3e6b2547,
34b7b4a3,
3e71c4db,
3e58582b,
37f46c03,
29ebb3f7,
3e71c4db,
3b90aa29,
39252504,
3cf5ddf7,
3ef7256b,
3ef7256b,
36ecd546,
30506228,
3617a7e3,
2a6bbbbf,
3b05b695,
326a1586,
3cf08c78,
39219285,
2ba991a9,
2f34e424,
3d4be266,
3eeb2d09,
3eeb2d09,
38f8698d,
350d3d2c,
3e6e5d80,
3cb8eb00,
30203101,
35e92a7c,
383beb70,
3eb4c9a9,
3d1cbb9c,
3233f2ca,
3233f2ca,
378679cd,
3eb4c9a9,
3a7b0d01,
2c52b39d,
3e4b1f78,
39c8c3e6,
31017736,
320d150d,
3917e01e,
3e4b1f78,
3e9a0eea,
3e9a0eea,
39eeef6a,
3effe215,
35594782,
3effe215,
3c8ce2cd,
3c8ce2cd,
3c14bdca,
345cfd8c,
345cfd8c,
3d55fca3,
3ee317f4,
3c8ce2cd,
3ee317f4,
3bcc8892,
35dadfd5,
3eae7c99,
2ca68678,
3e5fc143,
3417f0ff,
383066c0,
3db2efc8,
2a2a1bdd,
35dadfd5,
3bcc8892,
3123dd7b,
3eae7c99,
2ce9f888,
3ebeeda4,
3877d8cf,
3c0fafbe,
3b0791c4,
3d4eb6f4,
3877d8cf,
3c881919,
2ce9f888,
3e346054,
3ebeeda4,
3ab62e19,
382687b4,
3da8ec6a,
340f7059,
3e80493b,
36a156be,
3e248250,
3da8ec6a,
3c36e3f5,
2ef67565,
376e56b5,
3e248250,
3e80493b,
371bfad1,
3b75ceba,
3eff0965,
303a0c75,
363cf7bb,
3eff0965,
37288bed,
3edcabbd,
3e0d4e6c,
3edcabbd,
3716e7b1,
30c3e457,
37d2e0d8,
3d9978b6,
3dd051ac,
3e5096e5,
3d9978b6,
3e22731a,
37d2e0d8,
37d2e0d8,
3e3aa76f,
3e5096e5,
320bb836,
2a0cb439,
33083eaf,
3971301a,
3ba92d93,
3e8c5f0b,
3dd46081,
35b50a3a,
3dd46081,
3cf36359,
3c8f9402,
3ba92d93,
3ba92d93,
3e3913af,
3811e8a8,
3a0ea65e,
3e8c5f0b,
39033857,
3388c040,
399b382e,
3d210c21,
3dc9628b,
3df49bff,
3cd45684,
3df49bff,
3b3815cc,
3d67172f,
3df49bff,
3c846ac7,
3e18bd76,
399b382e,
3544fe06,
3544fe06,
3d9cd6b8,
3c846ac7,
3ab7d8b4,
32944004,
3c1c3ac3,
3e18bd76,
34634767,
3a25684e,
3d5c1379,
3de8f355,
3e05d465,
3c7c361d,
3dbfc94b,
3ba60d6c,
3d955d03,
3e05d465,
3c14c87d,
3e1175c3,
38f9ee73,
328d2f1b,
34634767,
3d5c1379,
3cca379f,
3b2f4fa3,
3aaf1574,
3190c8e1,
3ba60d6c,
3b2f4fa3,
3e1175c3,
2c5fa1a9,
34b20c48,
372985b0,
3a819418,
3dea04f6,
3b89563f,
2fc9f093,
3592f75d,
37ece4f6,
37ece4f6,
39e79a6e,
3943cb32,
3d1e6a38,
3dac67c4,
3c691c42,
32dd3446,
2eaf4c30,
2d8ff283,
34b20c48,
2c5fa1a9,
3cc5946e,
3dea04f6,
3e163e50,
3e6a52b9,
3e6a52b9,
2c2873aa,
2f981cc4,
34861da1,
3acea1ab,
3e2bab80,
2d58dbc1,
30a5c2cc,
30a5c2cc,
386be249,
32a69f99,
3ceea770,
3e1df1a7,
3de257f4,
29ac13ac,
2c2873aa,
37b27132,
3e2bab80,
3acea1ab,
3b4ee655,
3ceea770,
3e2bab80,
3e2bab80,
3192c031,
36147961,
3ba84eaa,
3e136f6b,
3cccf694,
2f82a37d,
328f19e6,
328f19e6,
3995d418,
3c16cdb2,
3d5f1084,
3e07a59f,
3e07a59f,
3dec1d21,
2e62ce81,
38fd5347,
3c7fa2de,
3ba84eaa,
3c16cdb2,
3d5f1084,
3e136f6b,
3c16cdb2,
3e136f6b,
37886078,
3c637ce9,
3dd21d7a,
3d4680b4,
3dd21d7a,
344cffe0,
344cffe0,
3a9debc1,
3cb66503,
3a9debc1,
3dacfc72,
3df16bed,
3e033378,
3a15316f,
307d5ebb,
3a15316f,
3d0a563d,
3b1e203c,
3cb66503,
3dacfc72,
3dd21d7a,
3b1e203c,
38e16e76,
3e033378,
3cc3c9a5,
3db9b039,
3d909d40,
3e019312,
3535a35a,
3b29bcab,
3d147eae,
3b29bcab,
3de18b33,
3e0cd5c5,
3aa98456,
318c2e63,
3aa98456,
3d551423,
3ba0c5d1,
3de18b33,
3db9b039,
3aa98456,
384183df,
3e0cd5c5,
3870d71b,
3cf3ab28,
3bc8172e,
3e2f46e9,
3d849816,
3e2f46e9,
3a475037,
3ad2f923,
3e3436cb,
3d38cf5f,
3e21433b,
3870d71b,
30a93e6d,
2c2bfdc4,
3e3436cb,
370c1a4f,
35596067,
3effff66,
3effff66,
3572e52f,
2db4706a,
34791705,
2db4706a,
38fc03e1,
2c7ad84e,
2db4706a,
3efff80d,
3efff80d,
3eaf9b26,
3c980b12,
3c980b12,
2bc010bc,
3e88c31b,
3706206b,
3c208552,
2d02b0ff,
3eaf9b26,
3d5eeb53,
3ea059fa,
3ea059fa,
376e8c9d,
331ba341,
38dc54ee,
2a20bb48,
3bc1422f,
3ea059fa,
3a48a8c2,
3b84cc6c,
35b678f3,
3d6ee737,
2c2868b5,
3eefd5b4,
2aea1eed,
3eefd5b4,
3f000000,
3f000000,
32194c89,
3e9e5a25,
32194c89,
3da263fd,
3e9a0396,
3aaf226d,
2eeced56,
3e9e5a25,
35bf7d08,
3ee78fab,
303cc674,
35bf7d08,
3dc38122,
3ee78fab,
3efb1b8f,
3a52173a,
39a8026c,
3c935d87,
30d8af7e,
2d6ff613,
2c30531f,
3efb1b8f,
3f000000,
3f000000,
3e8feacd,
3e602a67,
3e602a67,
3e8feacd,
2dee2af4,
3ec1d977,
3e7895c2,
2b87f138,
378c3dc9,
30270f3d,
3ec1d977,
3df6c310,
30108463,
3e960ebb,
3e960ebb,
398c1e68,
2efae6d3,
3e960ebb,
3e8209ff,
3e1121f8,
3a042662,
3c9091a8,
3e8209ff,
3b5a71c4,
3d993994,
37a3f7e1,
3e8209ff,
3ca9344f,
2e8e0276,
2d456bab,
3d48269b,
3eed5f4b,
2fc142fb,
38fe03fe,
3b4cb930,
3eed5f4b,
3eb46231,
3a374fc9,
301fd553,
3e90709a,
3c4deb87,
3eb46231,
2f8f3520,
3cd48a87,
373b7ed9,
3ef57ac3,
3c606450,
30a4f8f8,
3abd34b0,
31b3c667,
2d36b181,
33b4b5df,
3ef57ac3,
3722ec43,
319c36d7,
3b37f800,
3ea61fcd,
2e4c5e6d,
3cb8afa5,
3ea61fcd,
3aa468b8,
3ea61fcd,
3a338477,
301c8669,
2cad56a7,
312a91cd,
3e68e8de,
3bd4e6da,
3ea2869b,
3e05a1f8,
3ea2869b,
3c29205c,
3404a4d5,
310f0da2,
2c916022,
3e43562f,
397e8ee5,
3e884ea0,
3e884ea0,
35bf1370,
3e884ea0,
31a11bf2,
3c4ec1ee,
2bb64124,
3efcc4f9,
3efcc4f9,
3b4a12e3,
3eb6791e,
3e3b5e9f,
3ccadc9b,
309d75a1,
2ab22032,
3a18aacf,
33ac7b0d,
3a18aacf,
2ab22032,
3d9a0f55,
3eb6791e,
3035a2a6,
31773043,
3035a2a6,
3f000000,
3f000000,
3cf13a43,
3e0edbca,
35b36ed3,
396f0c04,
2b48a085,
3e8b200f,
3e8f0b42,
396f0c04,
320a7ab5,
38bf2a6e,
3e8f0b42,
3de16711,
34e8c7a0,
3e992d4c,
2c923015,
3e94fb08,
3a176622,
310fda43,
381adb97,
3e992d4c,
2dedf0b7,
3a269832,
326a23af,
35591a20,
3effaca2,
346b5b92,
3a269832,
3effaca2,
313b348e,
3e9b3ef5,
3eb26086,
3eb26086,
3423ac16,
3e9261c9,
2cb361cf,
3eb6cf1a,
3eb6cf1a,
3e4b30c7,
388b98f6,
3e3af1bf,
2b1281ad,
35830799,
3e22b3c6,
349ebdb0,
2c4761ad,
3e05f393,
3e05f393,
3e4b30c7,
3e71bd3c,
3ad07d5b,
2f0d0686,
383e9460,
3e92d003,
37886115,
30227578,
3dc15193,
3dc15193,
3e92d003,
3423f717,
3e3c0cf0,
3d1ec4d4,
3eb722df,
3130d522,
350f12dd,
37883901,
3d7e982b,
3130d522,
3130d522,
383e5c5e,
3eb722df,
39d5cf89,
3825de7c,
3effe2ae,
3effe2ae,
3eeadf5e,
2a9301ff,
3d7e4ad5,
2a9301ff,
3ca76c28,
3713b190,
2bd37e2c,
3eeadf5e,
3ae8b2e5,
3603f646,
324bafae,
3ebc4645,
3603f646,
2f1d66a1,
3c699b2f,
3d316882,
3e5220a9,
3ebc4645,
35c1f72a,
3d828d41,
3b3a1edc,
3df75060,
3d828d41,
2e54953f,
392125a0,
385a2bb7,
3ebbd182,
3c765a75,
34d2468e,
3ebbd182,
31d8e648,
2d5c6bab,
31d8e648,
3ee6a8c9,
3b7f6f9e,
2d5c6bab,
3dc2be32,
3ee6a8c9,
2fbf839d,
2fbf839d,
3e06acff,
3ede54c0,
3ede54c0,
336e44c4,
3b93bd5f,
387f2b51,
387f2b51,
3c13ee78,
361e4dc2,
3efc664c,
39d2e5dd,
336e44c4,
3efc664c,
332c2b36,
3b558225,
38386180,
38386180,
3bd5c919,
35e4c66d,
350a9448,
3eb6612d,
39986425,
2cae0edb,
332c2b36,
3e8e0991,
3eb6612d,
3cf11190,
3e0ada70,
3e1f8abc,
386e453d,
3bc5f49f,
3e1f8abc,
3de4a232,
3db20f5d,
3d832de6,
3c315e4e,
3914f998,
3914f998,
3a452fc8,
37b43f5e,
3700fc50,
3db20f5d,
3e1f8abc,
38a52e77,
3b90e286,
3e40854a,
3e40854a,
3db5e172,
37f9e9fa,
3cd0704e,
3d271f0f,
32e95c89,
29f0ffc7,
2c6bec13,
3a88b337,
3e1e802f,
3df6e187,
3732d6cd,
36721f98,
3e40854a,
39455492,
3e65b141,
3d722f5d,
3c6af09d,
3c6af09d,
3b0a3c3d,
3b8a6a2d,
2eb0ac63,
37eec0eb,
3e176c2d,
3e65b141,
3dadc227,
33cda5d5,
32def0b5,
2eb0ac63,
3e65b141,
3e6e69db,
3d341f39,
3c13e8a0,
3c13e8a0,
36827ab3,
3b1bf408,
2da3ac02,
3e050b0a,
3e8190f9,
3d889cfb,
3740c052,
32fb83d9,
3200f6fb,
2da3ac02,
3e8190f9,
3e8058c6,
3e29390b,
3e29390b,
3b1a7c40,
380568f3,
34c88a2e,
2c7be1b1,
2ec57125,
30f7dba6,
31ff8077,
3dc22f30,
3d8753ce,
3b9aaf97,
373eefe0,
38b05b05,
380568f3,
34c88a2e,
2da221a2,
3e8058c6,
3cdcfb5c,
3cdcfb5c,
3e1ef537,
3d707f75,
3e1ef537,
37a53a88,
39088fd4,
3a34c19e,
3abf54a1,
3e236f6d,
36ec79df,
3b3f9436,
3d279a75,
3e123f91,
3d707f75,
3c2296e2,
385a6ab9,
30997c88,
2c1bfa63,
3e236f6d,
39c0353d,
3d8f145b,
3e3d2344,
3d8f145b,
3ca3f8cc,
3d476cb7,
3d8f145b,
3d476cb7,
370cafd3,
3d476cb7,
3dc23690,
3e17731d,
3c417571,
370cafd3,
33a956a7,
3e3d2344,
3e28b840,
3dde742d,
3e28b840,
3b4b5818,
3bc09ae0,
3e1b3aca,
3e1b3aca,
3dad3f49,
39ab7560,
32a3c28e,
2e81c65a,
3e28b840,
338708b2,
3effffff,
3effffff,
3e1b64e6,
3ed926c6,
3ed926c6,
2db185ac,
3efbd4bb,
3a7feb3a,
381ec4d1,
3c7a33ea,
3efbd4bb,
34791c4a,
3efffd77,
2ef594b2,
2db4743b,
38216416,
3efffd77,
39aae58a,
3eff6c3e,
3afcc923,
30dc68bf,
3eff6c3e,
3ef7679c,
3018c630,
3d098636,
2c7273c1,
313a0bff,
3256529c,
3ef7679c,
38fc03ef,
34791713,
3371a35d,
3efff81b,
3efff81b,
3f000000,
3f000000,
3c7a74ef,
3efc162c,
3efc162c,
3efc62f4,
3c66b49d,
2c0a056d,
380e62d3,
3efc62f4,
3e93732b,
3e0b4d00,
3e93732b,
3e93732b,
3f000000,
3f000000,
3ef0b12a,
2cec2e18,
31686843,
2f392250,
3c110b12,
2cec2e18,
3d50aaa3,
3ef0b12a,
3e4eee53,
3de6f310,
31b342cc,
37827614,
37827614,
3eaf6401,
3eaf6401,
38a62545,
3efffacf,
2d1cd7fa,
3efffacf,
3f000000,
3f000000,
3efffff2,
35536c5f,
3efffff2,
3ebf152a,
3e49bca8,
3c0fcd7c,
34a69bed,
3d3e5728,
3aadfd4e,
3ebf152a,
2ee60bb1,
33112511,
3e89958a,
3e89958a,
3aaa0c3c,
3e452aab,
3e89958a,
332cafe3,
2f08d968,
3e069762,
3ea3b114,
3838ef96,
3e6a949a,
37845731,
3ea3b114,
3908f4cb,
368fd819,
2d04c202,
3efff723,
34b2b5b9,
3efff723,
35f66884,
3d25a25f,
3e442ea0,
35f66884,
39a42310,
2b89c1b5,
3ec46fd0,
378e1cf7,
39a42310,
323e2b15,
3ec46fd0,
368253b9,
3a28dea4,
2e833ecc,
3e850f73,
3de0f969,
3e850f73,
3de0f969,
3e850f73,
39f7c1da,
371135f0,
3895e20c,
3dc87548,
3ebe1e2f,
3d7a0470,
328f8672,
318b3b3a,
328f8672,
3dc87548,
3ebe1e2f,
3c4bfd1a,
31a36dbe,
3a116863,
3edf28b0,
38afee77,
396890a8,
38afee77,
3deb4bd4,
3edf28b0,
3dc7de7f,
3ece0860,
2dbfbdee,
2c8ce495,
3dc7de7f,
3ece0860,
332a2f79,
3ea15206,
3eaf56fd,
2b7cd9c4,
3eaf56fd,
3ef83df9,
3925e07c,
3cf6f511,
3ef83df9,
2a60deb5,
3ee05693,
3d427d19,
3869302b,
2cdc21fd,
3046c7c7,
3d9befbf,
3ee05693,
322b0fdc,
3e62980e,
3db53500,
3125f1be,
3eb0b35c,
3eb0b35c,
322b0fdc,
3e62980e,
3db53500,
3125f1be,
3eb0b35c,
3eb0b35c,
3908213d,
3efe6bbf,
39be3b27,
3bb9fb6f,
3efe6bbf,
3eff0a32,
3b75cf80,
303a0d0a,
3eff0a32,
3f000000,
32236144,
3f000000,
2caf0ff9,
3f000000,
3f000000,
2dee3dba,
3effff62,
371c9143,
3effff62,
3e89d420,
3ebb15ee,
33b0d733,
3ebb15ee,
3efffe83,
37be6ab2,
3efffe83,
3ee78fd7,
3dc38145,
3ee78fd7,
3efee5b9,
3b8d2388,
3efee5b9,
2e8df6e5,
350c6c6e,
350c6c6e,
3efada58,
3ca4843b,
37ba97b0,
3efada58,
3a31e28f,
3329e5de,
322e3b1c,
3d17c0c4,
3eaf0b27,
3e8c29f7,
378233fe,
35e1c1f1,
3ac70c43,
3b52b136,
3eaf0b27,
3c8deecb,
3c1e682d,
3e0e7c7a,
3b2705c1,
3c1e682d,
3e0e7c7a,
374e6ead,
33f87934,
3306aefb,
38beaae3,
3a9dcaaa,
3e8ac33d,
3e0e7c7a,
3e8ac33d,
3b999a74,
3e2809dd,
3b999a74,
3c825c37,
3d312d8a,
368058bc,
32f7676f,
31fdb6b5,
380479ef,
3dc0d349,
3b196779,
3e7ee5a8,
3e2809dd,
3c117dbb,
3e7ee5a8,
3e25477a,
3cdf79a0,
3d733617,
3dd3f296,
3e00b836,
2e774a9a,
2d4b10d3,
347b2bdc,
3c246c7e,
3e00b836,
3da510a1,
3dd3f296,
3d297e8c,
390a1a43,
3e25477a,
3e4f22e7,
3e4f22e7,
3e25dc9f,
3e088d7d,
388e4ef2,
2d82d490,
388e4ef2,
3c53de58,
39d27fab,
3bec75cb,
3d5a66f4,
3cb3935c,
3af95225,
3e4f22e7,
3d2c47cc,
3c4aff78,
3bcabc19,
31a2a28b,
31a2a28b,
37fa9234,
33a37b2e,
3a10b398,
3d920584,
3ede1338,
3ede1338,
3a257a9d,
3984555d,
2d3d01b1,
2d3d01b1,
34ac7430,
2f942801,
3be7d856,
3efdf661,
3efdf661;