memory_initialization_radix=16;
memory_initialization_vector=3f000000,
3795c9b7,
3ea860fc,
3efff0d2,
3d82ed27,
3b433d23,
3ea860fc,
3efff0d2,
37f7bed4,
33e479e3,
3f000000,
3f000000,
3f000000,
3efffed5,
3f000000,
3eff98e9,
3effe34e,
3f000000,
3effe34e,
3f000000,
3ea860fc,
397226e1,
3edf42c5,
3eff3cc0,
3f000000,
3f000000,
3eff98e9,
3f000000,
3f000000,
3f000000,
3c5ba1b3,
35435710,
3edf42c5,
3eff3cc0,
39e59201,
3f000000,
3f000000,
3f000000,
3eaaaaab,
3f000000,
3f000000,
3f000000,
3efffed5,
3f000000,
3f000000,
3eaaaaab,
3f000000,
3f000000,
3d82ed27,
3f000000,
3ace2fb2,
3f000000,
3f000000,
3f000000,
3286628c,
3f000000,
3eaaaaab,
3f000000,
3f000000,
3effffe8,
3f000000,
3f000000,
35b94589,
3f000000,
3effffe8,
3286628c,
3f000000,
3f000000,
3f000000,
3f000000,
3f000000,
3f000000,
3286628c,
3f000000,
3f000000;