memory_initialization_radix=16;
memory_initialization_vector=030,
001,
004,
060,
002,
063,
003,
002,
004,
006,
005,
005,
006,
009,
008,
008,
00b,
009,
038,
068,
00a,
009,
00c,
00b,
00b,
00c,
040,
00e,
041,
012,
017,
078,
016,
016,
017,
01a,
048,
018,
048,
019,
018,
049,
01a,
07a,
01b,
07c,
01d,
04e,
01f,
022,
020,
052,
07f,
081,
021,
020,
050,
022,
054,
025,
028,
086,
027,
027,
086,
028,
05a,
029,
05b,
02a,
08b,
08d,
02b,
02f,
02d,
02d,
02f,
001,
030,
067,
037,
00a,
068,
038,
09a,
039,
06b,
09b,
03a,
06a,
03b,
06d,
03d,
06f,
070,
03e,
00e,
040,
012,
041,
076,
045,
018,
019,
048,
01a,
049,
078,
04a,
07b,
04b,
07c,
04c,
01f,
0b0,
04e,
022,
052,
080,
081,
050,
021,
050,
080,
081,
052,
025,
0b3,
054,
0b7,
057,
029,
05a,
02a,
05b,
0bd,
0be,
05c,
05f,
0bc,
05d,
05f,
08f,
05e,
05d,
05e,
08f,
05f,
002,
061,
0c0,
060,
060,
0c0,
061,
003,
091,
063,
037,
0c8,
067,
00a,
038,
099,
0c9,
068,
03b,
06a,
03a,
09b,
06b,
09a,
06c,
03d,
0cd,
06d,
0cf,
06e,
03e,
070,
06f,
03e,
06f,
070,
0d3,
072,
0a2,
0a4,
0d2,
073,
0d3,
075,
045,
076,
016,
04a,
0d9,
078,
0da,
079,
01b,
07a,
04b,
07b,
01d,
04c,
07c,
0af,
0dd,
07e,
021,
080,
081,
0af,
07f,
050,
052,
07f,
081,
080,
021,
050,
052,
07f,
080,
081,
0e5,
084,
027,
028,
086,
0e8,
087,
02b,
08c,
08d,
08b,
08b,
0bd,
0be,
08c,
02b,
08b,
08e,
08d,
08d,
08e,
05e,
05f,
08f,
0f0,
0f1,
090,
063,
091,
0c2,
092,
05c,
08c,
0be,
0ed,
0bd,
05c,
08c,
0bd,
0ed,
0be,
060,
061,
0c0,
093,
120,
121,
0c1,
092,
0c2,
0bd,
0be,
14e,
0ed,
0ef,
0ee,
0ee,
0ef,
090,
0f1,
0f0,
090,
0f0,
0f1,
14f,
17d,
11f,
0c1,
150,
120,
0c1,
153,
121,
123,
122,
14b,
14d,
0ed,
14e,
11f,
14f,
120,
150,
1b2,
151,
11f,
17d,
182,
1b1,
180,
180,
182,
1ae,
1ad,
1ad,
1ae,
1de,
1df,
1af,
180,
1b1,
151,
1e2,
1e4,
1b2,
20c,
20f,
1dd,
1af,
1df,
1de,
1af,
1de,
1df,
243,
1e1,
1b2,
1e2,
1dd,
23e,
20f,
271,
212,
1dc,
23d,
20c,
20f,
23e,
1e3,
241,
274,
242,
212,
213,
271,
214,
2d4,
272,
2ce,
29e,
2fe,
29f,
2d3,
2a2,
29e,
2ff,
2ce,
300,
2d2,
29f,
2fe,
2ce,
32d,
2ff,
2d2,
300,
303,
302,
2ff,
38c,
32d,
360,
390,
330,
38d,
35f,
330,
390,
360,
3c3,
361,
393,
3c2,
362,
35b,
35c,
35f,
3bb,
3ec,
38d,
330,
360,
390,
363,
391,
333,
393,
3c2,
3f2,
392,
3bf,
3bd,
3bd,
3bf,
362,
392,
393,
3f2,
423,
3c2,
41e,
3ed,
420,
3f1,
392,
3c2,
421,
423,
450,
3f2,
3ed,
41e,
3f1,
420,
3f2,
421,
3c4,
3f4,
454,
480,
422,
3f2,
450,
483,
452,
41b,
47e,
47d,
47d,
47e,
422,
4b0,
480,
4e0,
482,
480,
4b0,
453,
4b4,
4e3,
4b2,
4ac,
4dd,
482,
4e0,
4b3,
4e2,
50c,
50e,
50d,
50c,
50d,
50e,
56b,
53d,
570,
541,
541,
570,
5a1,
5d2,
572,
572,
5d2,
5a1,
630,
5d0,
5a3,
5d1,
572,
5a1,
5d2,
62f,
5fd,
660,
600,
68f,
62d,
5fc,
65e,
62e,
5fd,
62f,
5d0,
690,
630,
661,
691,
631,
633,
662,
692,
632,
62c,
68f,
6bf,
65d,
62e,
65f,
6bc,
65e,
65e,
65f,
600,
6c0,
660,
631,
691,
661,
632,
633,
692,
662,
68e,
68d,
68d,
68e,
62d,
65d,
6bf,
6ed,
68f,
630,
690,
631,
661,
691,
632,
633,
662,
692,
6be,
6bd,
6bd,
6be,
65d,
68f,
6ed,
6bf,
660,
6c0,
6f1,
6c1,
663,
6c4,
6c2,
68f,
6bf,
6ed,
6ec,
74d,
6ee,
6c1,
6f1,
754,
6f2,
6bb,
71c,
74b,
71d,
74c,
74f,
71e,
780,
721,
6ec,
6ee,
74d,
71e,
7ad,
7af,
74f,
782,
783,
751,
753,
752,
77e,
77d,
77d,
77e,
721,
781,
7b1,
7b2,
7e2,
780,
780,
7b1,
7b2,
781,
751,
754,
783,
782,
74b,
74f,
77b,
7af,
7ad,
74c,
7af,
7ae,
74f,
7ad,
7ae,
7af,
780,
781,
7b2,
811,
7b1,
780,
781,
7b1,
811,
7b2,
80d,
80e,
80f,
7dd,
7df,
7de,
7de,
7df,
810,
7e0,
780,
841,
842,
7e2,
7dc,
7dd,
80e,
80f,
80d,
7dc,
7dd,
80d,
80f,
80e,
7dd,
80d,
80e,
80f,
7e0,
810,
7b1,
7b2,
841,
811,
842,
871,
812,
83c,
83b,
83b,
83c,
7db,
83f,
89b,
89c,
89d,
89e,
83d,
83c,
83f,
86e,
89d,
89e,
83e,
83d,
83e,
86e,
89d,
89e,
83f,
870,
840,
7e2,
811,
8a2,
841,
7e2,
812,
871,
8a3,
842,
83b,
83c,
86e,
86f,
89f,
8cd,
8ce,
8cf,
86d,
83c,
83e,
83f,
86d,
86f,
89f,
8cd,
8ce,
8cf,
86e,
86d,
86e,
89f,
8cd,
8ce,
8cf,
86f,
840,
870,
812,
842,
8a3,
871,
873,
872,
872,
873,
8a2,
874,
813,
875,
845,
8a6,
876,
8d9,
877,
87a,
8aa,
8da,
879,
879,
8aa,
8da,
87a,
81e,
8dc,
87c,
87e,
8ac,
87d,
84e,
87d,
880,
8ac,
87e,
81e,
8b1,
87f,
851,
87e,
881,
880,
880,
881,
820,
853,
8b0,
882,
8b1,
8b5,
883,
825,
884,
886,
885,
885,
8b7,
8b8,
8e5,
886,
8e7,
8e8,
889,
82b,
85c,
8b8,
8bc,
88a,
8eb,
88b,
8ec,
88c,
85d,
8be,
88d,
85f,
88f,
8c1,
890,
861,
863,
891,
831,
8f4,
892,
863,
865,
8f4,
893,
866,
867,
868,
897,
898,
8c8,
896,
867,
868,
896,
8c8,
897,
83a,
866,
868,
86a,
896,
899,
8c8,
898,
839,
83a,
83b,
868,
86a,
86b,
898,
8c8,
899,
83c,
89c,
8fa,
8fb,
8fc,
89a,
83d,
89c,
89d,
8f9,
8fd,
89b,
83d,
89a,
89b,
89d,
89e,
8fc,
8fd,
89c,
83d,
83e,
83f,
89b,
89c,
89e,
8fc,
8fd,
89d,
83d,
83e,
83f,
89c,
89d,
8ce,
8fc,
8fd,
89e,
86d,
86e,
86f,
8cd,
8cf,
89f,
8d0,
8a0,
841,
874,
8a2,
842,
871,
8a3,
8d4,
8a4,
845,
876,
8a6,
846,
8a8,
879,
87a,
8da,
8aa,
84a,
84b,
8ab,
84e,
87d,
87e,
8ac,
84f,
8de,
8af,
882,
8b0,
87f,
883,
8b1,
8b3,
8e2,
8e3,
8b2,
8b2,
8e2,
8e3,
8b3,
883,
8b5,
886,
8b8,
8e5,
8b7,
886,
88a,
8b7,
8b8,
8bb,
8ea,
8ba,
8ba,
8ea,
8bb,
85c,
88a,
8bd,
8ed,
8ee,
8bc,
85c,
8bc,
8bd,
85d,
88d,
8be,
860,
8c0,
890,
8c3,
8c1,
8c1,
8c3,
8c7,
8c6,
8c6,
8f9,
8c7,
867,
868,
896,
897,
898,
899,
8fa,
8c8,
869,
86a,
86b,
8ca,
8cb,
8c9,
869,
8c9,
8cb,
8cc,
8ca,
869,
8c9,
8ca,
8cb,
86a,
86b,
86c,
8ca,
8cc,
86d,
86e,
86f,
89f,
8cf,
8fb,
8cd,
86d,
86e,
86f,
89e,
8cf,
8fc,
8ce,
86d,
86e,
86f,
89f,
8cd,
8ce,
8cf,
8a0,
8d0,
8a4,
8d4,
877,
8d9,
879,
87a,
8aa,
8da,
87c,
8dc,
8af,
8de,
8b2,
8b3,
8e3,
8e2,
8b2,
8b3,
8e2,
8e3,
886,
8b7,
8e5,
889,
8e7,
889,
8e8,
8ba,
8bb,
8ea,
88b,
8eb,
88c,
8ec,
8bc,
8ee,
8ed,
8bc,
8ed,
8ee,
892,
893,
8f4,
8f7,
8f6,
8f6,
8f7,
89b,
8c7,
8f9,
89a,
8c8,
8fb,
8fc,
8fa,
89a,
8cd,
8fa,
8fc,
8fb,
89a,
89c,
89d,
89e,
8ce,
8fa,
8fb,
8fc,
89b,
89c,
89d,
89e,
8fd,
8ff,
8fe,
8fe,
8ff;