memory_initialization_radix=16;
memory_initialization_vector=3f000000,
3f000000,
3ea860fc,
3ea860fc,
3c5ba1b3,
3ea860fc,
3efff0d2,
397226e1,
35435710,
3efff0d2,
2ed8cffb,
2ed8cffb,
2ed8cffb,
2ed8cffb,
3f000000,
3f000000,
3795c9b7,
3efffed5,
3efffed5,
3f000000,
3f000000,
3effe34e,
39e59201,
3effe34e,
3f000000,
3f000000,
3d82ed27,
37f7bed4,
3edf42c5,
3d82ed27,
3edf42c5,
3eff98e9,
3ace2fb2,
3eff98e9,
3f000000,
3f000000,
3b433d23,
33e479e3,
3eff3cc0,
3eff3cc0,
2ed8cffb,
2ed8cffb,
2ed8cffb,
2ecd971e,
3f000000,
3f000000,
3f000000,
3f000000,
3f000000,
3f000000,
3f000000,
3f000000,
3eaaaaab,
3eaaaaab,
3eaaaaab,
3f000000,
3f000000,
3f000000,
3f000000,
3f000000,
3f000000,
3f000000,
3286628c,
3f000000,
3f000000,
3f000000,
3f000000,
3f000000,
2ed8cffb,
2ed8cffb,
3f000000,
3f000000,
2ed8cffb,
2ed8cffb,
2ed8cffb,
2ed8cffb,
3effffe8,
35b94589,
3effffe8,
3286628c,
3f000000,
3286628c,
3f000000,
3f000000,
3f000000,
3f000000,
3f000000,
2ed8cffb,
2ed8cffb,
2ed8cffb,
2ed8cffb,
2ed8cffb,
2ed8cffb,
3f000000,
3f000000;