memory_initialization_radix=16;
memory_initialization_vector=00d,
00f,
00d,
00f,
014,
015,
014,
015,
01a,
07a,
01f,
020,
01f,
020,
023,
054,
024,
053,
029,
05b,
047,
048,
047,
048,
04a,
04c,
04a,
04c,
024,
053,
023,
054,
058,
029,
05b,
05c,
08c,
061,
062,
091,
061,
062,
091,
065,
071,
072,
074,
075,
076,
075,
076,
078,
01a,
07a,
07b,
083,
085,
086,
085,
086,
05c,
08c,
090,
0c1,
061,
062,
091,
065,
071,
07b,
058,
090,
0c1,
0c2,
0f2,
120,
072,
074,
078,
083,
083,
0c2,
0f2,
120,
0c2,
0f2,
120,
212,
212,
272,
240,
271,
240,
271,
272,
2ce,
2ff,
32f,
32d,
2fe,
32e,
2ce,
2ff,
32f,
32d,
2fe,
32e,
2ce,
2ff,
32f,
332,
362,
35d,
35d,
35f,
38f,
360,
3c0,
3c2,
332,
362,
32d,
38d,
35f,
38f,
3bd,
3bd,
3bd,
360,
3c0,
3c2,
360,
3c0,
3c2,
422,
38d,
3ee,
3ef,
44f,
3ee,
3ef,
44f,
422,
450,
44d,
47d,
3ee,
3ef,
44f,
422,
450,
44d,
47d,
47e,
4ad,
422,
47e,
4ad,
4af,
4df,
4af,
4df,
59e,
59e,
65d,
68d,
62e,
68e,
65d,
68d,
65d,
68d,
690,
661,
65d,
68d,
62e,
68e,
690,
6f2,
6bd,
6ed,
6c0,
721,
661,
6bd,
6ed,
690,
6f2,
722,
74d,
71d,
74d,
71f,
74f,
6c0,
721,
6f2,
722,
71d,
74d,
74e,
77e,
71f,
74f,
77d,
7dd,
77d,
7dd,
74e,
77e,
77f,
7df,
781,
7b1,
7b2,
7e1,
77d,
7ad,
80d,
7af,
80f,
781,
7b1,
7b2,
7e1,
781,
7b1,
7b2,
7e1,
77d,
7dd,
83d,
77f,
7df,
781,
7b1,
7b2,
7e1,
7e2,
7ad,
7dd,
80d,
83d,
86d,
7ad,
80d,
83d,
86d,
7af,
80f,
7e2,
874,
875,
882,
892,
893,
895,
896,
89c,
7dd,
80d,
83d,
86d,
89d,
877,
875,
8a5,
8a6,
87f,
8b1,
8b1,
893,
895,
896,
8cc,
80d,
83d,
86d,
89d,
86f,
8cf,
873,
8a2,
874,
875,
8a5,
8a6,
877,
87b,
8ad,
87e,
8ae,
87f,
8ad,
8df,
882,
883,
8e4,
884,
8e6,
892,
8c2,
893,
895,
896,
895,
896,
89a,
8ca,
89c,
8cc,
8cd,
8fd,
83d,
86d,
89d,
89e,
8fe,
873,
8a2,
8a5,
875,
8a6,
87b,
87f,
8ad,
8df,
87e,
8ae,
8b1,
8e2,
8b6,
8e7,
892,
8c2,
8c3,
8c4,
8f3,
8c3,
8c4,
8f3,
8c7,
8f8,
8c8,
8f9,
8c9,
8cb,
8f7,
89a,
8ca,
8c9,
8cb,
8cc,
89c,
8cd,
8fd,
86f,
8cf,
8d5,
8d7,
8d5,
8d7,
87f,
8ad,
8df,
8b1,
8e2,
883,
8e4,
884,
8e6,
8b6,
8e7,
8c3,
8c4,
8f3,
8c9,
8f7,
8c7,
8f8,
8c8,
8f9,
89c,
8cd,
8fd,
89e,
8fe;