memory_initialization_radix=16;
memory_initialization_vector=3f000000,
3f000000,
3f000000,
3f000000,
3f000000,
3f000000,
3f000000,
3f000000,
3f000000,
3f000000,
3f000000,
3f000000,
3f000000,
3f000000,
3f000000,
3f000000,
3f000000,
3f000000,
3f000000,
3f000000,
3f000000,
3f000000,
3f000000,
3f000000,
3f000000,
3f000000,
3f000000,
3f000000,
3f000000,
3f000000,
3f000000,
3f000000,
3f000000,
3f000000,
3f000000,
3f000000,
3f000000,
3efffff3,
3efae2fb,
3795c9b7,
3efffff3,
3efae2fb,
3efffed5,
3f000000,
3f000000,
3f000000,
3f000000,
3f000000,
3f000000,
3f000000,
3f000000,
3f000000,
3f000000,
3f000000,
3f000000,
3efe8eb8,
3f000000,
3f000000,
3f000000,
3f000000,
3f000000,
3f000000,
3f000000,
3f000000,
3543629c,
3ca3a082,
3efffed5,
3f000000,
3f000000,
3f000000,
3f000000,
3f000000,
3f000000,
3f000000,
3f000000,
3eaaaaab,
3f000000,
3f000000,
3f000000,
3efe8eb8,
3bb8a3f8,
3f000000,
3f000000,
3eaaaaab,
3371aade,
3371aade,
3eaaaaab,
3f000000,
3f000000,
3f000000,
3f000000,
3f000000,
3f000000,
3f000000,
3f000000,
3efffff3,
3efae2fb,
3795c9b7,
3efffed4,
3f000000,
3f000000,
3efffff3,
3efae2fb,
3efffed5,
3efffed4,
3f000000,
3f000000,
3543629c,
3ca3a082,
3efffed5,
3f000000,
3f000000,
3f000000,
3f000000,
3f000000,
3f000000,
3eaaaaab,
3795c9b6,
3795c9b6,
3f000000,
3f000000,
3795c9b6,
3f000000,
3f000000,
3f000000,
39e59201,
3effe34e,
3effe34e,
3eaaaaab,
3efffed4,
3efffed4,
3eaaaaab,
3efffed4,
3efffed4,
39e57848,
3f000000,
3efffed4,
3efffed4,
3eaaaaab,
3efffed4,
3efffed4,
3eaaaaab,
3effc6a2,
3f000000,
3f000000,
3f000000,
3795c9b6,
3795c9b6,
3eaaaaab,
3effc6a2,
3f000000,
3f000000,
3f000000,
3f000000,
3f000000,
39e57848,
3f000000,
3f000000,
3f000000,
3f000000,
3f000000,
3f000000,
3f000000,
3f000000,
380d9c0e,
3eff3a8e,
3f000000,
3f000000,
3eff3a8e,
380d9c0e,
3eff3a8e,
3b433b75,
35b94589,
3f000000,
3b433b75,
3eff3a8e,
3f000000,
3f000000,
3effffe8,
397226ed,
3f000000,
3f000000,
3f000000,
3f000000,
3f000000,
3f000000,
3f000000,
3effffe8,
3efff0df,
3f000000,
3286628c,
3f000000,
3f000000,
3f000000,
3f000000,
3f000000,
3f000000,
3efff0df,
3f000000,
3f000000,
3f000000,
3f000000,
3f000000,
3f000000,
3f000000,
3eff98e8,
3e7fff6a,
3eff98e8,
3e7fff6a,
3f000000,
3f000000,
3f000000,
3f000000,
3effe1bc,
379036bd,
379036bd,
3e800000,
3371498b,
3eff3cc4,
3edf42c5,
3f000000,
3f000000,
3972189b,
3ef6780e,
3ef6780e,
3e800000,
3972189b,
3ef6780e,
3ef6780e,
3e800000,
3ace2fb1,
3e7fff6a,
3abf68c8,
3f000000,
3f000000,
3effe1bc,
3d186d00,
3d186d00,
3e800000,
3f000000,
3b433d26,
3715ca0e,
3d82ed27,
3d12be0f,
3ee56647,
3eff3cc4,
3edf42c5,
378ad62f,
3d0dde90,
3f000000,
3f000000,
3f000000,
3f000000,
3d82ee25,
3f000000,
3eaaaaab,
3543629c,
3e800000,
3286628b,
380d9c0e,
3e7fff6a,
37f7bed4,
3eed4774,
3d0dde90,
3ef67925,
3f000000,
3d82ee25,
3effffe8,
3b433d26,
35436294,
3794f1a5,
3bb8a321,
3efffff3,
3e800000,
3286628b,
3f000000,
3d82ed27,
3d12be0f,
3ee56647,
3d186dac,
3f000000,
3f000000,
3f000000,
3f000000,
3f000000,
3edf4476,
35b94589,
3eff3cc4,
3f000000,
3f000000,
353f7b8b,
3f000000,
3f000000,
3effffe8,
3efae2f0,
3795c9b7,
3f000000,
3f000000,
3f000000,
3f000000,
3f000000,
3eaaaaab,
3f000000,
3efffff3,
3e800000,
3effffff,
3e800000,
3effffff,
3f000000,
3f000000,
3eff3a8e,
3286628c,
3ca3a082,
3eee8416,
3eed4774,
3d0dde90,
3ef67925,
3f000000,
3f000000,
3f000000,
3f000000,
3effffe8,
3edf4476,
3eff3cc4,
3f000000,
3effffe8,
3efae2f0,
3efffed5,
3f000000,
3f000000,
3efe8d8f,
3f000000,
3f000000,
3f000000,
3eaaaaab,
3f000000,
3eee8416,
3eff3cc4,
3efae2fb,
3eee8416,
3eff3cc4,
3ca3a082,
3f000000,
3f000000,
3f000000,
3f000000,
3eff98e9,
3f000000,
3f000000,
3f000000,
3f000000,
3eff98e9,
3f000000,
3f000000,
3b433b75,
3efae2fb,
3d8bdf57,
3f000000,
3f000000,
3f000000,
3f000000,
3f000000,
3f000000,
35436294,
3ca3a07b,
3efffed5,
3efe8d8f,
3f000000,
3f000000,
3f000000,
3f000000,
3f000000,
3f000000,
3f000000,
3d8bdf57,
3b433d26,
3efae2fb,
3ace2fb2,
3f000000,
3f000000,
3f000000,
3f000000,
3f000000,
3eff3a8e,
3efae2fb,
3eee8416,
3f000000,
3f000000;