memory_initialization_radix=16;
memory_initialization_vector=001,
011,
002,
003,
004,
009,
011,
014,
002,
003,
004,
009,
00a,
00d,
014,
002,
003,
004,
00a,
00d,
00e,
014,
005,
006,
005,
006,
007,
00e,
017,
008,
018,
001,
002,
003,
009,
011,
01a,
003,
004,
00a,
010,
013,
014,
00b,
00c,
012,
015,
00b,
00c,
012,
015,
016,
01e,
003,
004,
00d,
00e,
00f,
014,
01f,
004,
007,
00d,
00e,
014,
017,
01d,
01f,
00d,
00f,
01f,
00a,
010,
021,
001,
002,
009,
011,
01a,
022,
00b,
00c,
012,
00a,
013,
021,
002,
003,
004,
00a,
00d,
00e,
014,
022,
00b,
00c,
015,
016,
01e,
026,
00c,
015,
016,
01e,
026,
007,
00e,
017,
01d,
008,
018,
009,
011,
01a,
022,
009,
00d,
011,
014,
01d,
022,
02a,
01a,
01d,
00e,
017,
01d,
00c,
015,
016,
01e,
026,
00d,
00e,
00f,
01f,
020,
030,
010,
013,
021,
029,
031,
011,
014,
01a,
022,
02a,
031,
034,
011,
01a,
01d,
022,
034,
025,
02d,
02e,
025,
02e,
033,
015,
016,
01e,
026,
028,
038,
021,
029,
02b,
022,
02a,
031,
034,
03a,
03b,
03c,
029,
02b,
02c,
035,
036,
03c,
02d,
02e,
03e,
025,
02d,
02e,
03e,
020,
030,
021,
022,
02a,
031,
032,
033,
025,
032,
033,
022,
02a,
034,
036,
03a,
03b,
03d,
02c,
035,
036,
037,
03c,
03f,
02c,
034,
035,
036,
037,
03c,
03f,
036,
037,
03d,
028,
038,
02a,
034,
03a,
03b,
02a,
034,
03a,
03b,
03d,
02a,
02c,
035,
036,
03c,
034,
037,
03b,
03d,
02d,
02e,
03e,
035,
036,
03f;