memory_initialization_radix=16;
memory_initialization_vector=3effffdf,
33885383,
3efc806f,
38c58afb,
377cbf16,
3e65b6cd,
3ba90f42,
3aaf6470,
39a8f133,
3e84457c,
3e9c4f89,
352ec5ba,
38c83f2b,
3e515c49,
3e77033f,
3836e923,
3e84457c,
3e9c4f89,
3a25811f,
3e16036b,
37e899e9,
3e1e6134,
3f000000,
3f000000,
3f000000,
3f000000,
3efc162c,
3ef38939,
3d700f65,
3f000000,
3f000000,
36043065,
3efc806f,
34e0a1f2,
3eb3223a,
3dc3426d,
3478d56f,
38157015,
3991f530,
3efe005d,
3eb8408c,
3efffacf,
35c6ed81,
3eb89c87,
3ec6285d,
3d0d43ad,
3e87097b,
3eb89c87,
3ec6285d,
3ef72bc6,
3ccbc6ed,
3912b96c,
38677375,
3e84457c,
3e6000c5,
3e638e05,
3b7155a9,
3eefc667,
3e9a3da3,
3efff9dd,
3324e682,
3c7a74ef,
36652882,
3ef38939,
37657566,
32e99bd0,
37276046,
38909937,
389c561e,
3eefc667,
37cef33a,
3efe005d,
3eb8408c,
3ef76780,
3effffdf,
3c13fdc8,
3d9b8022,
3ee0ef6e,
3a8d3837,
3eb8e0b3,
3c58aebd,
3e4b799d,
3ef72bc6,
3be7e173,
3efffacf,
35bc3b47,
3b8bcff3,
3e663cf8,
3e2e7427,
36787609,
3e638e05,
3c3241a6,
3e9a3da3,
336018e1,
3e88017d,
3cdc4c7f,
3e87097b,
3e218eb8,
3deac709,
3ab829fd,
39849501,
3e87097b,
3ed5905d,
3edeaabe,
3e5588ba,
3efc162c,
36ee8889,
3ef0ff09,
3eaaaa37,
3f000000,
3f000000,
34484ae0,
3a8ebc2d,
3effb4b0,
386ffe19,
3eb3223a,
389c561e,
3ca056c8,
39848264,
3494ce69,
3da07c9b,
3ef5d360,
3633398a,
33a151af,
3b7155a9,
3ef0ff09,
3eaaaa37,
38c89794,
3e3c370c,
3ed5905d,
3edeaabe,
3eca41bd,
3e515c49,
3cf9198c,
3d81ccd1,
3efff9dd,
3f000000,
3f000000,
3e8f7ee7,
38a62544,
3ef76780,
366014d7,
3ef9122c,
3ee0ef6e,
3315b4e6,
38907224,
3eb8e0b3,
3d08a583,
34d92b9c,
3e23d590,
3940fe38,
3effb4b0,
3eaaaa37,
36e882e4,
3af645e6,
33bc2bfb,
3efe2dac,
3dfd48c7,
3eff9d7c,
3b147336,
3ec6ee67,
38b98c5d,
3c00b212,
3c7e307c,
3eca41bd,
3f000000,
3f000000,
34d7b78b,
3effffc9,
3f000000,
3cec28ba,
3ef5d360,
3cddb99a,
39ba0f53,
3bb33a32,
35d7557c,
35fc6e82,
3effffc9,
3f000000,
3effe2f1,
393907d3,
34521e9a,
3ef46e84,
3efe2dac,
3c2fd41f,
387bb42e,
3ac50499,
3be80acf,
3edd0324,
3efffc11,
3f000000,
3f000000,
3d098625,
3265cffc,
3a87c358,
3ef9122c,
3f000000,
3e644663,
3eff9d7c,
3f000000,
3ec6ee67,
3e2ea8fd,
39e58b3d,
3ead6b24,
37da0243,
3eee76a9,
3ed08277,
3bd25f75,
39e86481,
3ed7a7a9,
3ee441f1,
33c185fb,
3d386de7,
3ef62c58,
34242840,
36da1982,
3e0dfbf3,
3ee441f1,
3aa23f14,
3927ee68,
3d1d3a76,
370b9a0a,
3effaedf,
3c78d94d,
3f000000,
3f000000,
3ba0cd40,
3ead6b24,
3eee76a9,
3deef4be,
3550bd3c,
3e23d590,
3d811711,
3ed08277,
3efa77dc,
3550bd3c,
3effe2f1,
3c99b947,
39610603,
3ef46e84,
39ba0f53,
3effaedf,
3d8cf6b0,
3efa77dc,
380f659d,
3edd0324,
3efffc11,
3ed7a7a9,
3ddd6dda,
3ef62c58;