memory_initialization_radix=16;
memory_initialization_vector=063,
003,
009,
007,
007,
009,
011,
041,
010,
010,
012,
041,
071,
011,
011,
042,
071,
012,
014,
013,
013,
014,
017,
016,
016,
018,
019,
017,
017,
019,
018,
017,
018,
01a,
019,
019,
01a,
01c,
07d,
01b,
01b,
04d,
01c,
091,
030,
09a,
03a,
042,
040,
010,
011,
071,
041,
012,
040,
073,
042,
0a5,
043,
0a6,
045,
04d,
04b,
01c,
04b,
04d,
0af,
04f,
0c1,
060,
093,
0c3,
062,
003,
063,
06b,
069,
069,
06b,
011,
012,
041,
071,
0a4,
072,
042,
073,
078,
0a5,
076,
076,
078,
07a,
079,
079,
07a,
0ac,
07b,
01b,
07d,
0e1,
081,
0e2,
082,
0b3,
0b4,
0b5,
083,
0b4,
084,
030,
091,
060,
0c1,
124,
0c2,
14e,
0ef,
121,
151,
0f0,
17d,
17e,
11d,
0f0,
181,
121,
0ef,
14e,
0f0,
151,
11d,
17e,
17d,
11d,
17d,
17e,
121,
181,
20d,
1ad,
210,
1e2,
1ad,
20d,
1e2,
210,
272,
211,
2a0,
240,
2a0,
270,
211,
272,
29e,
29d,
29d,
29e,
240,
270,
2a0,
2fd,
2cd,
301,
2d1,
301,
2d2,
2cd,
35d,
2fd,
2cc,
2fc,
32d,
2fe,
302,
300,
2d1,
2d2,
301,
300,
302,
2fe,
32d,
331,
330,
330,
331,
2fd,
35d,
3bd,
38d,
38d,
3bd,
44b,
3ed,
3c3,
453,
3f2,
423,
4e2,
482,
4e1,
4b1,
4e2,
511,
4b2,
4b1,
542,
4e1,
482,
4b2,
511,
540,
4e2,
53f,
50f,
570,
510,
4b2,
4e2,
511,
570,
512,
50f,
53f,
4e2,
540,
571,
541,
4e1,
542,
510,
512,
570,
541,
571,
68f,
68e,
68e,
68f,
6c2,
690,
6c0,
692,
6ed,
6be,
692,
6c0,
6f0,
6c1,
690,
6c2,
6be,
6ed,
6c1,
6f0,
720,
6f1,
6f1,
720,
6f3,
752,
781,
780,
780,
781,
7e0,
7b0,
754,
784,
7b2,
7b0,
7e0,
843,
7e2,
813,
875,
873,
8a4,
874,
873,
8a4,
875,
8a6,
877,
886,
884,
884,
886,
828,
82a,
857,
88a,
888,
827,
858,
889,
82a,
858,
888,
8ec,
88a,
829,
859,
8e9,
8eb,
88b,
85d,
88d,
8bd,
88f,
862,
893,
8d1,
8a1,
845,
8a3,
874,
875,
8a4,
877,
8a6,
8db,
8a9,
8da,
8ab,
8e4,
8b3,
8b7,
8b5,
8b5,
8e6,
8b7,
859,
8e9,
8b8,
8ea,
8ba,
88f,
8bd,
8ca,
8c9,
8c9,
8ca,
8ce,
8cc,
8cc,
8ce,
8a1,
8d1,
8d5,
8d4,
8d4,
8d5,
8ab,
8da,
8a9,
8db,
8b3,
8e4,
8b7,
8e6,
88b,
8b8,
8eb,
8e9,
8ba,
8ea,
88b,
8e9,
8eb,
88a,
8ec,
8ee,
8ed,
8ed,
8ee,
8f8,
8f7,
8f7,
8f8;