memory_initialization_radix=16;
memory_initialization_vector=02,
09,
03,
04,
0d,
14,
03,
04,
0d,
14,
08,
18,
02,
09,
0a,
10,
0b,
0c,
0b,
0c,
03,
04,
0d,
14,
1f,
0a,
10,
21,
11,
22,
03,
04,
0d,
14,
0b,
16,
1e,
17,
1d,
08,
18,
1a,
09,
2a,
17,
1d,
16,
1e,
0d,
1f,
10,
21,
11,
22,
34,
1a,
1d,
2d,
25,
33,
2a,
2d,
33,
25,
33,
22,
34,
3a,
35,
3f,
34,
3a,
34,
35,
3f;