memory_initialization_radix=16;
memory_initialization_vector=00,
00,
22,
44,
44,
20,
20,
00,
22,
32,
22,
32,
22,
55,
00,
00,
33,
22,
00,
00,
44,
31,
32,
22,
22,
00,
21,
02,
00,
32,
22,
22,
00,
22,
33,
02,
01,
22,
00,
00,
00,
00,
21,
00,
20,
21,
20,
00,
00,
00,
21,
32,
43,
22,
00,
00,
00,
00,
22,
21,
20,
00,
20,
22;
