memory_initialization_radix=16;
memory_initialization_vector=3f000000,
34203db6,
3f000000,
3effffe1,
3effffc2,
3eff0b6e,
3f000000,
3f000000,
3eaaaaab,
3f000000,
3f000000,
3f000000,
3f000000,
3f000000,
3f000000,
32a3978e,
3efffffe,
3f000000,
35840490,
3efffffd,
3c8a40a4,
3eb29e9d,
3dd9be64,
3be9b322,
35b33c29,
3e49f350,
38fcdf72,
3d4d7ac1,
3e4cf798,
3e84694e,
3e12afe1,
3a45195c,
3e8cec1a,
3c521654,
3e87fd19,
3b20f125,
3c234683,
3dd9be64,
3e7fa983,
3d6aaa1d,
3d54ef29,
3e3cf8ef,
3e42e159,
3dc4c20e,
3f000000,
3efffff4,
33895f5b,
3f000000,
3efffff4,
3d3d3d87,
33895f5b,
3f000000,
3baa5b6a,
3ed558c2,
3e431b22,
3dd093a9,
3ed558c2,
3e93fa53,
3e9e666c,
3ea88dba,
3e2a9cfb,
3e6cfb95,
3e9e666c,
3e5e3c1b,
3d98ef07,
3e93fa53,
3e8268d7,
3ea88dba,
3ee23728,
389a2d7e,
3cca564b,
3dff0414,
3ee23728,
338ff751,
3e0b80d1,
382f33f4,
34111f60,
3ec390c5,
3e9960e7,
3a1eabb1,
3d131730,
3c33c0e7,
3ee24883,
3e6069aa,
3e9960e7,
36cd0e80,
35c8ccbe,
3d3ce978,
3935cc21,
3e61a723,
3d2f8b89,
32c9cf8f,
3ed15b74,
3abbb0cb,
37dde11a,
3e32a8cf,
3f000000,
3f000000,
3f000000,
3f000000,
3f000000,
3effdbba,
3f000000,
3eff6227,
3f000000,
3effdbba,
3d5287c2,
3f000000,
3eff6227,
3ef2d785,
3f000000,
3a11187a,
3b1dd23e,
3ef2d785,
3f000000,
3ef9c831,
3c66b0f2,
3efff4e1,
3f000000,
3effffe1,
367a6a47,
3eff0b6e,
32c142e8,
330e9022,
3f000000,
3f000000,
3efffffe,
3f000000,
3efffffd,
3553acef,
3977485d,
3cc65625,
3eeb945f,
381f361d,
3e3cf8ef,
3aa8136c,
3eb29e9d,
3e84694e,
3d86c89b,
38ee7947,
3e8cec1a,
3b5d837a,
3e42e159,
39f32f20,
393a25fc,
3c244ae9,
3e471c22,
3eeb945f,
3b385cdd,
3e935ce5,
3d0023dc,
3ee2a95e,
3effffff,
3a9d8b95,
3eeb71b8,
3ed0a15d,
354284ce,
3ef3efe0,
36fabd4a,
395ec121,
3a711b05,
3effff83,
3f000000,
3effff83,
3f000000,
397c4fe0,
3efff03b,
36cefe0a,
3efff03b,
3ed35562,
3a1eabb1,
3ed355cc,
39fedb3f,
3d4f6255,
3ed15b74,
3e32a875,
3ef38380,
3ec4a56f,
372cd562,
3d2aaf4b,
3bb288ad,
3816d047,
3ed3e2fb,
3294741e,
3d94c9df,
3c32c401,
3e9960e7,
3c193d3e,
3ef38380,
33f3458b,
3ec4a56f,
3a13718c,
3f000000,
3f000000,
3f000000,
3f000000,
3f000000,
3f000000,
3f000000,
34ccdeb7,
3f000000,
3cc6f980,
3efc5ef2,
368fcf7b,
392fd964,
3efff99f,
329f1c38,
3ec1da4b,
3effffc2,
3b44d561,
3f000000,
3f000000,
3eaaaaab,
3f000000,
3f000000,
3f000000,
3f000000,
3f000000,
33bc7481,
3effffef,
344d192c,
3dbc559d,
3e84694e,
3e7fa983,
3b827140,
3e49f350,
3d1f8c13,
3e87fd19,
3c2a9407,
3f000000,
3aa3a78b,
3d86c89b,
3371aade,
3371aad3,
3f000000,
398396ac,
3e935ce5,
3bb223a6,
3ee2a95e,
33787979,
3ef17915,
3cb4a2ec,
35fa0987,
39ca4594,
3ef17915,
3ed0a15d,
3d5157f3,
3eb25e3e,
3ae5ebf9,
3effffcd,
3ef3efe0,
3849845c,
3efc8289,
364e2a38,
3c8f8f5a,
3e9b3cf9,
388ea3fb,
3effffcd,
3efc8289,
3efb8385,
3f000000,
3efb8385,
3f000000,
3f000000,
3e30fcc0,
3ed35562,
3ed355cc,
3ec390c5,
3d4f6255,
3739fe76,
3ed3e2fb,
3a0021e5,
3ee24883,
3f000000,
3f000000,
3f000000,
3efd4940,
3e91e8d7,
3d09d2fd,
3c5003e8,
3eb6a9fd,
3ef6af58,
359589aa,
3effe7cd,
3f000000,
38c9cd7f,
3ef9c831,
38c6f617,
3efff4e1,
3597ac61,
3a3ef1e3,
3f000000,
35f33d4b,
3ec1da4b,
3eaaaaab,
3f000000,
3f000000,
3f000000,
3a45195c,
35ed5a4c,
3f000000,
3effffff,
3b91533e,
3eb25e3e,
3c3e07e5,
3eeb71b8,
3e26d772,
3da3a801,
386bb4ee,
3f000000,
3f000000,
32c142e8,
37ccc680,
39ec829e,
32355f7c,
3e91e8d7,
3b8949f1,
3e3b1bd2,
3eb6a9fd,
3e704096,
3e7e9901,
3ef6af58,
3effe7cd,
3f000000,
37337d0b,
3efc5ef2,
39bf5751,
36042ab8,
32b1cf10,
3efff99f,
3ef9c814,
361d20b7,
3e7896d2,
3f000000,
3effffef,
33286b22,
3c25e59e,
3f000000,
3efd4940,
3d150a76,
3eff8ba6,
3d81ccd1,
397c4fe6,
3f000000,
39c4babd,
3f000000,
3ee2304d,
3ec1da43,
3b1138f9,
3e4fff83,
3edee87c,
32b1cf10,
353d2205,
3eff6b30,
390b2a7f,
328a8b08,
3effffd8,
37ca8afa,
3cc6f969,
3dee7da0,
33d82651,
3ec89c6c,
3e438f9e,
3eaa004e,
3f000000,
3effe768,
3f000000,
3eff8ba6,
3eefc667,
3efff03a,
3f000000,
3838623b,
3e7896c7,
3eff6b30,
3eba5dd1,
3dc17ff2,
3ef7679d,
3600fa73,
3effffd8,
3ed41087,
3ef9c814,
3aacc9d9,
3d0020d4,
39de1737,
3b7f8b0b,
3ae8af91,
3eefc667,
3efff03a,
3f000000,
3ee2304d,
3f000000,
3efe88fb,
38396fa6,
3ee7f033,
3c306767,
3ec1da43,
38390617,
3d8ccce1,
3edee87c,
3d098637,
3e948ac4,
36208fc1,
3e2e5d5c,
3e3d861d,
3ecf0056,
3eaa004e,
3ec89c6c,
3ecf0056,
3eaa004e,
3effe768,
3f000000,
33b63e56,
3efffce8,
3a653f01,
3cddb998,
3eba5dd1,
3d0e5e83,
3ef7679d,
34fc43bf,
3ed41087,
3f000000,
3f000000,
3efe88fb,
3efffce8,
3ee7f033,
361b6a33,
3eca897c,
38106b6c,
3bba10ce,
35955fc4,
3eb18d46,
328ffd0f,
3e55d47a,
3c8f8f10,
3cfdb22e,
37cf112b,
3e948ac4,
36fd48b6,
361ff1d4,
38b2caca,
329f1c4c,
350f4c43,
3dbe7546,
3dd1358f,
3eca897c,
34612edd,
3541c568,
3625139f,
3ef91233,
32c14134,
3e46290b,
3dc91afd,
369ed8f3,
3efb8302,
3ef80793,
35590859,
3f000000,
3f000000,
3eb18d46,
3d00c713,
378a9ba8,
3efb8302,
3ef80793,
346b484c,
3a266f90,
38f83360,
3ef91233,
3efffdbd,
3efefa8e,
3e948ac4,
3efd7075,
3e123f14,
3ad04136,
3b1a28cd,
3558e52d,
3f000000,
3f000000,
3f000000,
3f000000,
3efd7075,
3eb6e072,
35590859,
373cd34a,
3e0ef118,
3e8e792c,
34612edd,
3370bd08,
3ace8010,
34785dab,
3eff97b3,
3eff6e47,
3985332b,
3efe2f2a,
3383954c,
3ef32f2e,
3ecf16cb,
3b8d23d7,
3b113afd,
3c08aa08,
3e123f14,
3efe2f2a,
3ed91c00,
3ead0da0,
3da36612,
392a6736,
35573445,
3eff97b3,
3eff6e47,
3effa00e,
3406f253,
3efffdbd,
3efefa8e,
3f000000,
3a4ed450,
3ef32f2e,
3451f811,
35478df9,
3ecf16cb,
3eea84d4,
3eff6eb8,
3e43a4d3,
3eea84d4,
3eff6eb8,
3eb6e072,
3be80c2e,
3ed91c00,
3ead0da0,
3eeb12db,
35590859,
3ad01f76,
3effa00e,
35fc78dc,
34652fd7,
33786ece,
3b5be880,
3f000000,
3d4d0d2e,
36ec2be1,
33787978,
32b1bdcd,
342c618e,
3e480770,
3db34e1d,
3efffffe,
3ec0893e,
3effe727,
35fb3d76,
3886111d,
3c2363b9,
33712154,
3d3b5c95,
3eeb12db,
38850a81,
392fd97c,
3a6874e6,
3ef47889,
3d096a6e,
3e89d421,
3a262424,
3d387577,
3ef735a4,
3ebb15f0,
3da30358,
3f000000,
3ed355c6,
33787978,
32b1bdcd,
3f000000,
342c618e,
3e480770,
3effb09c,
3db34e1d,
38106b6c,
3efffffe,
3ec0893e,
3efffdbd,
376d68a8,
3e9bfc28,
3ece8e61,
33bc72d7,
3985332b,
3a0ceca5,
3efffbd4,
3efff501,
3464dda6,
3ef47889,
3ef735a4,
3ebb15f0,
3890667e,
3aba49f7,
3efffbd4,
3efff501,
3effc2a1,
35186df4,
3f000000,
3ed355c6,
3dc90818,
348a5769,
3effe727,
3f000000,
3effb09c,
3aa2bf4e,
39bf56d6,
3e9bfc28,
3ece8e61,
3f000000,
3b7f6f9e,
3efd0650,
3eefc5d9,
3d8e2fd8,
36c8bbbf,
3efd0650,
3eefc5d9,
3ecc8ea8,
3961c883,
3f000000,
3efffdc0,
3efffd5a,
3effc2a1,
3efffff6,
34d27d74,
3f000000,
324a280a,
3e32a8ce,
3ee6defd,
3efffffc,
3a9ec863,
3effaea0,
3f000000,
3e7ddaf1,
333d1341,
3efffdbd,
3c3e6b11,
3d81cc84,
3ecc8ea8,
3efff17e,
348d74a3,
3716c669,
3e06ad78,
3efff17e,
3eff0a32,
3f000000,
3b75cf80,
3efffdc0,
3efffd5a,
3963b856,
3efffff6,
3665acce,
3f000000,
3a3c8c52,
323fd2ac,
34ddc147,
3ee6defd,
3efffffc,
3c933cea,
3effaea0,
3f000000,
3f000000,
3ee6a8c9,
3efee5b9,
3f000000,
3f000000,
3f000000,
3f000000,
3f000000,
3f000000,
3f000000,
3ce4f84a,
3eff0a32,
380ff989,
38199d3c,
32c14134,
3ee6a8c9,
3efee5b9,
3f000000,
3f000000,
3f000000,
3f000000,
3f000000,
3e65dcdc,
3dc2be32,
3b8d2388,
338708b0,
3efffffc,
3f000000,
3f000000,
3eb33fe8,
3d421205,
34791eb4,
3f000000,
3f000000,
3f000000,
3f000000,
3f000000,
3f000000,
3effffb9,
3f000000,
340ffca9,
3572ec76,
3ea0d275,
3efffffc,
3f000000,
3f000000,
3f000000,
3effffb9,
3f000000,
3eb33fe8,
34313c94,
39ca319b,
36c25cf1,
3f000000,
3f000000,
3f000000,
3f000000,
3ec08940,
3da397d8,
3db8adab,
366014c9,
3ea0d275,
3dcb800d,
3e7f80dc,
3f000000,
3f000000,
3e7ddaf4,
3eeb5a78,
3eaf26f2,
3a1a0239,
32d7bc89,
3da991a8,
3eb19246,
3e0e9472,
37348779,
3ea6acac,
3cf76d2e,
3f000000,
3f000000,
3f000000,
3f000000,
3f000000,
3ec08940,
3eeb5a78,
3eaf26f2,
39765244,
3effef16,
3e93f6a6,
3e462ea2,
3e7f80dc,
32b26f08,
3e910f99,
3a3a3489,
3eac03b0,
3c21fc25,
3effffff,
3efffff3,
3d19001c,
39ca319b,
36c25cf1,
38f0ab2f,
3eec5bdd,
350d8777,
3dbbe761,
367a59f8,
3ea84715,
3eb19246,
3e5e5ef1,
358c0cd4,
3ea6acac,
3c02711c,
3de8e23a,
3a8895af,
3884aa32,
389601bf,
326a42bf,
3c5c5377,
396e94a2,
3d9b69e1,
3b5a0da7,
3ede8f12,
36580d9d,
3e830e06,
3f000000,
3b9270c7,
3f000000,
3ef692d0,
344fa574,
3f000000,
3f000000,
3effffff,
3efffff3,
3ef64d13,
3e0e9472,
3d7bd891,
368bc4db,
3eac03b0,
3e0db684,
3d139c57,
392ef02b,
3ba75963,
3a381992,
3e30a159,
3ed73e33,
3ee71d64,
3d8db97d,
3e66ef50,
3667340e,
3effef16,
327e1323,
3a7cc8d8,
3a5d37f9,
36e1c1ed,
3eff9506,
38909a14,
3efffeab,
38789d7d,
39de4cbc,
3efffb7b,
3efffbf9,
3f000000,
3efedb20,
3f000000,
3f000000,
3ef692d0,
3efffff8,
3f000000,
3f000000,
338708b2,
355960de,
3ef64d13,
3eec5bdd,
383c4e48,
3ede8f12,
32c13624,
3ea84715,
3effc0ce,
383c4e48,
3d2b58a4,
3ed73e33,
3ee71d64,
3ecbe463,
3932a4c7,
3f000000,
3f000000,
3eff9506,
3efffeab,
36142bef,
39bf1976,
3efffb7b,
37642758,
3efffbf9,
3efedb20,
3f000000,
327e06bb,
3d16d2f7,
3efffff8,
3f000000,
3f000000,
3f000000,
3f000000,
3a81f2ec,
39855c5b,
3db16e16,
3effc0ce,
37f9365f,
3c21fc25,
3d7a3951,
3ecbe463,
3eca81c1,
3551e1a1,
3f000000,
3f000000,
3f000000,
3f000000,
3f000000,
3f000000,
34891111,
3a0bacff,
371154a6,
3e063d5e,
3eca81c1,
3d0d43a5,
35d290b8,
3e55cc50,
3ef72bb7,
328fa4cd,
3b4a0c8b,
3ef72bb7,
3effbf06,
3f000000,
3f000000,
3f000000,
3f000000,
3effffb9,
3effbf06,
3f000000,
3f000000,
3f000000,
3f000000,
3f000000,
3f000000,
3effffb9,
363dae2d,
3ed83a2b,
3d098635,
3daf1519,
3ef55ad1,
3dee7c2f,
3d5287b7,
3c17c964,
3f000000,
3efffffb,
3f000000,
38e13ca3,
3efffffb,
3f000000,
34dee954,
3e1f1753,
3ef76799,
3ee7be38,
3ef7679c,
3d2a52ef,
3ee22eed,
353db7d4,
3465338f,
3cabcc41,
3f000000,
3f000000,
368fdcec,
3effffa0,
3eff0a32,
39c4babd,
3eff547f,
3effff93,
3effa7d1,
3effffa0,
3eff0a32,
3effe768,
3f000000,
3f000000,
3ef55ad1,
379aca61,
3ef2d777,
3efffffb,
3650bac5,
3ed83a2b,
3ef76799,
3ee7be38,
3d09863b,
3f000000,
3eff547f,
3effff93,
3aa23a9a,
34add662,
3b2b802e,
36da398d,
3effa7d1,
363dae2d,
3b75cf80,
3effe768,
36b16498,
3ef2d777,
3efffffb,
356247fb,
3ee22eed,
3ef102b9,
3efe816e,
3eee75ec,
3470c174,
327ab68a,
3ef7679c,
3f000000,
3f000000,
3f000000,
3ef102b9,
3efe816e,
3d8c4e8e,
34596baa,
33787975,
3d19ee5b,
3bbf48d0,
3eee75ec,
328a7a52,
3f000000,
3f000000,
3f000000,
3f000000,
3f000000,
3f000000,
3f000000,
3f000000,
3f000000,
3e4c966a,
3f000000,
3f000000,
3f000000,
3f000000,
3f000000,
3f000000,
3f000000,
3b3f98ad,
3eccda65,
3f000000,
3ef8ec88,
3f000000,
3f000000,
3f000000,
3eff4067,
3f000000,
3eccda65,
3f000000,
3ef8ec88,
3ef00557,
3ed451e6,
3c1f62aa,
3c1d1a6c,
3ef00557,
3ed451e6,
3f000000,
39050c02,
35b12799,
3cf31432,
3b333404,
3f000000,
3f000000,
3f000000,
3f000000,
3cddb998,
3a8f30c9,
37537786,
3efd4e7e,
3c0e5417,
36c1ee62,
36c0841c,
3ee8d848,
3efd262e,
3eb2e746,
3d838506,
3bc980c2,
39f1d569,
3ccfebd3,
3efd262e,
3a1549c8,
3f000000,
37f47f98,
3eff4067,
3f000000,
3ef91233,
3ed532e1,
3a79a0d3,
3e2baec8,
3ef91233,
3effe6eb,
36faa533,
3d9f9571,
37b8eccf,
3ea990b4,
325db09e,
38f81b1b,
3ce26ef4,
39b329ac,
3f000000,
38f81b1b,
3e99419f,
3d7b311e,
3e2be6c5,
3efd4e7e,
3ee8d848,
3eb2e746,
3a0cc902,
3cf7abde,
3e835646,
3ae2ddb5,
3e3968f9,
36a7bfab,
3cdf44d2,
3d840574,
3c367493,
39d92a92,
3eef3b27,
3ebb4c7e,
3c3e2813,
34c9328f,
3e1e147f,
393b1b58,
35ac05d2,
3e3968f9,
3caa6166,
3e80c48a,
37cd34c5,
3d093979,
3efa6bf3,
327ecfb1,
32c46542,
3a4ed43d,
395388b0,
38421dd1,
3efbc925,
3f000000,
3f000000,
3f000000,
32b6d13b,
3ef9db8b,
3f000000,
3efffe17,
3f000000,
3f000000,
334eee74,
3cfb40af,
38a9400f,
3c08c308,
3effe530,
3effb962,
3f000000,
39c4ba5c,
3b113b02,
3ef89c74,
32de9dce,
3ca30bdb,
37613b13,
3ec071ae,
3bba12b2,
3eff13da,
3dc1e56c,
3f000000,
3f000000,
399b1fda,
389f9b45,
3e08981b,
35d6d5dd,
37536671,
3847a453,
3ef6aa46,
3d1c8a1e,
3dfc05b1,
3e04391e,
3993b033,
39aa0126,
3a1b0852,
3e8161e4,
3eef3b27,
3ebb4c7e,
3ed983d8,
332f41bb,
3d106941,
3681acd3,
3e456b0b,
3eabe8b7,
3ad6d232,
3618c75d,
3a14b1c5,
3ed983d8,
383bb018,
34c9328f,
33e69381,
32bf9d60,
34791ebe,
3e12efa1,
3b5b44d3,
3effe3db,
3700c5da,
37be55e3,
3e2a9cff,
3cb2819b,
3a81f290,
39dbd520,
3c3e6b13,
3ef7358d,
3efffffe,
3e0d45d0,
35bc1547,
3edc9e4b,
3eefc667,
3f000000,
3c8e9d5e,
3f000000,
3f000000,
3effffdf,
3f000000,
34df362e,
3ed532e1,
3b0ba9c7,
3e7659fb,
3c08c308,
3af26f78,
3ee2001e,
3de25c48,
3ed0cdb9,
39bf555e,
3e2147ff,
3daabe6f,
3e7659fb,
3e2baef6,
32b1bc70,
3effe6eb,
3eec0d52,
3f000000,
3eff6ec4,
3ac225fd,
3ef89c74,
36bee17f,
39891ddd,
3b2b0d96,
3ec071ae,
3efe8b92,
3b2b54c4,
3ea990b4,
3a819beb,
3e004f1d,
3b2b0d96,
3ed926c6,
3f000000,
3f000000,
3f000000,
3f000000,
3f000000,
3f000000,
3f000000,
3f000000,
3ee72223,
3f000000,
3f000000,
3ee72223,
3effe8bc,
3efff246,
3d139f5f,
3effe8bc,
395b99b1,
36b9d921,
3e6e123a,
3a294765,
3e29c720,
34c7d07d,
38406206,
32c14a82,
3c311f14,
3e15fea7,
3a377eea,
3e99419f,
3c12ff3f,
3d093979,
3cafd621,
33cd2cf1,
3d86d67f,
3817e396,
3d0f686b,
3b0b0fb5,
3e6e123a,
3c3e2813,
3e80c48a,
3712d895,
35ddb705,
3804ed6b,
36a69554,
3eff73f1,
3d679230,
373f9030,
3e456b0b,
3a359b3a,
3e7fc3dc,
3ce91b0d,
3ea56aee,
3ac4e494,
364e2587,
3efffffc,
3ddcb21b,
3effe3db,
3624eb4b,
3700d810,
3ed558c1,
3efa6bf3,
36250378,
3effbe5d,
3effe288,
3f000000,
3f000000,
3efd0654,
3d096a62,
3efd0654,
3ef7358d,
3edc9e4b,
3effffbe,
3f000000,
332d2983,
3effffbe,
3f000000,
3eefc667,
3efff1e3,
3cddb998,
3efbc925,
3f000000,
38f51cba,
3f000000,
3f000000,
3f000000,
3f000000,
3ef9db8b,
3efff858,
3f000000,
3f000000,
3f000000,
3efffff9,
3efffe17,
3f000000,
3effb962,
3f000000,
3c0079bc,
3ee2001e,
3e7659fb,
3ed0cdb9,
38395e79,
387f54c7,
36e48c77,
3effe530,
329f0cb5,
3eec0d52,
3f000000,
3f000000,
3e7dbbe1,
3efe8b92,
347838f4,
3f000000,
3ee5a809,
3effeedc,
39a6899e,
3efffffe,
39fac9eb,
39cb4e33,
33b64031,
3eff13da,
37b8eccf,
3ea990b4,
325cf833,
3edfebd9,
3efea9e4,
3ed926c6,
3f000000,
3f000000,
3f000000,
3f000000,
3f000000,
3f000000,
3f000000,
3f000000,
3ef7679c,
3ebb15f0,
3d38758d,
3f000000,
3eaaaaab,
3ef7679c,
3ebb15f0,
3ef478a7,
3233b9f7,
3caa6166,
35a61319,
3eabe8b7,
3b7060d6,
3e4cccf7,
3db10734,
3ef6aa46,
348db1c6,
3eff9742,
3a359b3a,
3ee38068,
3683ade5,
3321ada0,
39299a73,
3ac37bc9,
3ad040da,
3ed90fe9,
35412df8,
38afb7b8,
3ed1ad68,
3a281a55,
3efffffc,
3eff9742,
34bd42d2,
3ee38068,
38a624ba,
3700d8ba,
3effbe5d,
3effe288,
39dbd643,
3ed558c1,
3f000000,
3eff0a30,
3f000000,
3f000000,
3effffef,
3f000000,
37987979,
3effffef,
3f000000,
36845c3a,
3efffffe,
3d81ccd1,
3efff1e3,
3cb76bf7,
3eecc3d7,
3efffc2d,
3b9958b9,
3c18d3ea,
3f000000,
3f000000,
3f000000,
3f000000,
3c843970,
3f000000,
3f000000,
3f000000,
3f000000,
3f000000,
3effffdf,
3f000000,
36043065,
3f000000,
3efffff9,
3a8d3acf,
3f000000,
3eec8e98,
3efe2fe6,
3ef4fdc7,
3eec8e98,
3efe2fe6,
3d2a1259,
3eff6ec4,
3d9b8b3c,
3be80cd8,
3ef4fdc7,
368f0bc9,
3f000000,
37b8eccf,
3c069a09,
3effeedc,
3effeb2f,
33f1fb29,
3c11b60b,
3bc6c3b9,
3edfebd9,
3efea9e4,
3ee5a809,
3effeb2f,
3efffffe,
3e1b64e6,
3f000000,
3f000000,
3f000000,
3f000000,
3f000000,
3f000000,
3f000000,
3f000000,
3eaaaaab,
3d098635,
3e89d421,
3ef478a7,
3f000000,
3f000000,
3eaaaaab,
3d7a3e75,
39ba1a15,
3efff246,
350d1092,
3dafa27b,
3805d8f7,
3e456b0b,
3e89a76c,
39913b03,
3e7fc3dc,
3c761a60,
3e98310e,
3777cec5,
3be15dbb,
3d150918,
371c5194,
3ed90fe9,
3b9a205b,
3ed1ad68,
3ca93260,
3d106941,
3681acd3,
3e456b0b,
3ad6d232,
3e6b50b3,
3d50dce9,
3ea56aee,
3a26733c,
3720f6db,
3e29c720,
39c89f6d,
398e1c8c,
3eff73f1,
357e9d53,
39604738,
36a69554,
3efff9fa,
3f000000,
3efff9fa,
3f000000,
3effac98,
3efffecf,
3b75cf79,
35840490,
3effac98,
3efffecf,
3f000000,
3aa6cf83,
3eff0a30,
3f000000,
3efa44a0,
3961c8dc,
3f000000,
3efa44a0,
3eecc3d7,
3efffc2d,
36244fbe,
36ff65ae,
3cccfef5,
376d7c29,
3efecd25,
3efd9c31,
3d4d4315,
38396f1f,
3efecd25,
3efd9c31,
3ef91233,
3f000000,
3ef91233,
3f000000,
3f000000,
3f000000,
39a87693,
3bd7c56e,
3efff858,
3f000000,
3f000000;