memory_initialization_radix=16;
memory_initialization_vector=0202,
0000,
0202,
0303,
0000,
0202,
0000,
0302,
0000,
0303,
0000,
0201,
0201,
0000,
0403,
0502,
0807,
0908,
0a08,
0503,
0604,
0202,
0303,
0404,
0505,
0505,
0605,
0a08,
0908,
0605,
0000,
0300,
0000,
0000,
0000,
0000,
0000,
0000,
0000,
0000,
0000,
0202,
0202,
0202,
0202,
0303,
0404,
0303,
0404,
0000,
0402,
0404,
0000,
0200,
0000,
0000,
0000,
0000,
0201,
0000,
0000,
0000,
0201,
0202,
0908,
0908,
0b08,
0302,
0000,
0402,
0404,
0303,
0303,
0302,
0604,
0907,
0706,
0707,
0200,
0301,
0202,
0000,
0000,
0000,
0000,
0000,
0000,
0000,
0000,
0000,
0000,
0000,
0000,
0202,
0202,
0202,
0605,
0000,
0502,
0403,
0302,
0000,
0000,
0000,
0000,
0202,
0000,
0202,
0000,
0201,
0000,
0000,
0302,
0a09,
0401,
0a09,
0504,
0503,
0504,
0605,
0503,
0503,
0402,
0401,
0403,
0606,
0200,
0302,
0000,
0401,
0501,
0602,
0602,
0301,
0000,
0000,
0000,
0000,
0000,
0000,
0000,
0000,
0000,
0000,
0404,
0404,
0302,
0002,
0000,
0001,
0000,
0000,
0000,
0000,
0001,
0001,
0000,
0000,
0000,
0001,
0002,
0000,
0000,
0000,
0001,
0004,
0002,
0002,
0000,
0000,
0000,
0000,
0001,
0000,
0000,
0001,
0000,
0002,
0002,
0002,
0002,
0002,
0001,
0000,
0000,
0000,
0000,
0000,
0000,
0200,
0200,
0000,
0503,
0505,
0402,
0001,
0001,
0000,
0000,
0000,
0000,
0000,
0000,
0000,
0000,
0000,
0000,
0000,
0001,
0000,
0000,
0000,
0001,
0000,
0000,
0000,
0000,
0000,
0000,
0000,
0000,
0000,
0000,
0000,
0001,
0001,
0001,
0000,
0001,
0000,
0000,
0000,
0000,
0000,
0000,
0000,
0000,
0403,
0202,
0402,
0404,
0505,
0302,
0000,
0001,
0000,
0000,
0000,
0000,
0000,
0000,
0000,
0000,
0000,
0000,
0000,
0000,
0000,
0000,
0000,
0000,
0000,
0000,
0000,
0000,
0000,
0000,
0000,
0000,
0000,
0000,
0000,
0000,
0000,
0000,
0000,
0000,
0000,
0000,
0000,
0000,
0000,
0000,
0000,
0001,
0504,
0303,
0403,
0202,
0505,
0603,
0000,
0002,
0000,
0000,
0000,
0000,
0000,
0000,
0000,
0000,
0000,
0000,
0000,
0000,
0000,
0000,
0000,
0000,
0000,
0000,
0000,
0000,
0000,
0000,
0000,
0000,
0000,
0000,
0000,
0000,
0000,
0000,
0000,
0000,
0000,
0000,
0000,
0000,
0000,
0000,
0000,
0003,
0603,
0402,
0200,
0505,
0606,
0000,
0000,
0002,
0000,
0000,
0000,
0000,
0000,
0000,
0000,
0000,
0000,
0000,
0000,
0000,
0000,
0000,
0000,
0000,
0000,
0000,
0000,
0200,
0200,
0000,
0000,
0000,
0000,
0000,
0000,
0000,
0000,
0000,
0000,
0000,
0000,
0000,
0000,
0000,
0000,
0000,
0000,
0000,
0503,
0403,
0202,
0504,
0404,
0000,
0000,
0001,
0000,
0000,
0000,
0000,
0000,
0000,
0000,
0000,
0000,
0000,
0000,
0000,
0000,
0000,
0000,
0000,
0000,
0000,
0000,
0200,
0200,
0000,
0000,
0000,
0000,
0000,
0000,
0000,
0000,
0000,
0000,
0000,
0000,
0000,
0000,
0000,
0000,
0000,
0000,
0000,
0302,
0000,
0000,
0606,
0707,
0705,
0000,
0000,
0000,
0000,
0000,
0000,
0000,
0000,
0000,
0000,
0000,
0000,
0000,
0000,
0000,
0000,
0000,
0000,
0000,
0000,
0000,
0000,
0000,
0000,
0000,
0000,
0000,
0000,
0000,
0000,
0000,
0000,
0000,
0000,
0000,
0000,
0000,
0000,
0000,
0000,
0000,
0001,
0000,
0000,
0000,
0706,
0303,
0606,
0000,
0000,
0000,
0000,
0000,
0000,
0000,
0000,
0000,
0000,
0000,
0000,
0000,
0000,
0000,
0000,
0000,
0000,
0000,
0000,
0000,
0000,
0000,
0000,
0000,
0000,
0000,
0000,
0000,
0000,
0000,
0000,
0000,
0000,
0000,
0000,
0000,
0000,
0000,
0000,
0000,
0000,
0302,
0000,
0000,
0707,
0504,
0606,
0000,
0000,
0000,
0000,
0000,
0000,
0000,
0000,
0000,
0000,
0000,
0000,
0000,
0000,
0000,
0000,
0000,
0000,
0000,
0000,
0000,
0000,
0000,
0000,
0000,
0000,
0000,
0000,
0000,
0000,
0000,
0000,
0000,
0200,
0000,
0000,
0000,
0000,
0000,
0000,
0000,
0000,
0202,
0000,
0202,
0706,
0907,
0402,
0000,
0000,
0000,
0000,
0000,
0000,
0000,
0000,
0000,
0000,
0000,
0000,
0000,
0000,
0000,
0000,
0000,
0000,
0000,
0000,
0000,
0000,
0000,
0000,
0000,
0000,
0000,
0000,
0000,
0000,
0000,
0000,
0000,
0200,
0000,
0000,
0000,
0000,
0000,
0000,
0000,
0000,
0301,
0303,
0200,
0706,
0706,
0504,
0000,
0000,
0000,
0000,
0000,
0000,
0000,
0000,
0000,
0000,
0000,
0000,
0000,
0000,
0000,
0000,
0000,
0000,
0000,
0000,
0000,
0000,
0000,
0000,
0000,
0000,
0000,
0000,
0000,
0000,
0000,
0000,
0000,
0000,
0000,
0000,
0000,
0000,
0000,
0000,
0000,
0003,
0603,
0403,
0200,
0805,
0706,
0302,
0000,
0000,
0000,
0000,
0000,
0000,
0000,
0000,
0000,
0000,
0000,
0000,
0000,
0000,
0000,
0000,
0000,
0000,
0000,
0000,
0000,
0000,
0000,
0000,
0000,
0000,
0000,
0000,
0000,
0000,
0000,
0000,
0000,
0000,
0000,
0000,
0000,
0000,
0000,
0000,
0002,
0005,
0602,
0603,
0000,
0606,
0504,
0504,
0000,
0000,
0000,
0000,
0000,
0000,
0000,
0000,
0000,
0000,
0200,
0000,
0000,
0000,
0000,
0000,
0000,
0000,
0000,
0000,
0000,
0000,
0000,
0000,
0000,
0000,
0200,
0200,
0000,
0000,
0000,
0000,
0000,
0000,
0000,
0000,
0000,
0000,
0000,
0000,
0303,
0308,
0703,
0904,
0000,
0504,
0404,
0504,
0000,
0000,
0000,
0000,
0000,
0000,
0000,
0000,
0000,
0000,
0200,
0000,
0000,
0000,
0000,
0000,
0000,
0000,
0000,
0000,
0402,
0000,
0000,
0000,
0000,
0000,
0000,
0000,
0000,
0000,
0000,
0000,
0000,
0000,
0000,
0000,
0000,
0000,
0000,
0000,
0404,
0304,
0b03,
0202,
0000,
0404,
0404,
0000,
0001,
0000,
0000,
0000,
0000,
0000,
0000,
0000,
0000,
0000,
0000,
0000,
0000,
0000,
0000,
0000,
0000,
0000,
0302,
0604,
0200,
0000,
0000,
0000,
0000,
0000,
0000,
0000,
0000,
0000,
0000,
0000,
0000,
0000,
0000,
0000,
0000,
0000,
0000,
0000,
0404,
0403,
0603,
0000,
0000,
0404,
0404,
0401,
0001,
0201,
0000,
0000,
0000,
0000,
0000,
0000,
0000,
0000,
0000,
0000,
0000,
0000,
0000,
0000,
0000,
0502,
0604,
0602,
0200,
0000,
0000,
0000,
0000,
0000,
0000,
0000,
0000,
0000,
0000,
0000,
0000,
0000,
0000,
0000,
0000,
0000,
0000,
0000,
0303,
0203,
0403,
0000,
0202,
0202,
0202,
0201,
0001,
0201,
0000,
0000,
0000,
0000,
0000,
0000,
0000,
0000,
0000,
0000,
0000,
0000,
0000,
0000,
0302,
0300,
0300,
0300,
0200,
0000,
0000,
0000,
0000,
0000,
0000,
0000,
0000,
0000,
0000,
0000,
0000,
0000,
0000,
0000,
0000,
0000,
0000,
0000,
0000,
0001,
0402,
0000,
0202,
0000,
0202,
0201,
0001,
0000,
0000,
0000,
0000,
0000,
0000,
0000,
0000,
0000,
0000,
0000,
0000,
0000,
0000,
0000,
0000,
0000,
0300,
0300,
0200,
0000,
0000,
0000,
0000,
0000,
0000,
0000,
0000,
0000,
0000,
0000,
0000,
0000,
0000,
0000,
0000,
0000,
0000,
0000,
0002,
0001,
0401,
0000,
0000,
0000,
0202,
0601,
0001,
0000,
0000,
0000,
0000,
0000,
0000,
0000,
0000,
0000,
0000,
0000,
0000,
0000,
0000,
0000,
0000,
0000,
0200,
0200,
0000,
0000,
0000,
0000,
0000,
0000,
0000,
0000,
0000,
0000,
0000,
0000,
0000,
0000,
0000,
0000,
0000,
0000,
0000,
0000,
0001,
0001,
0201,
0000,
0000,
0202,
0202,
0403,
0002,
0000,
0000,
0000,
0000,
0000,
0000,
0000,
0000,
0000,
0000,
0000,
0000,
0000,
0000,
0000,
0000,
0000,
0000,
0000,
0000,
0000,
0000,
0000,
0000,
0000,
0000,
0000,
0000,
0000,
0000,
0000,
0000,
0000,
0000,
0000,
0000,
0000,
0000,
0000,
0001,
0000,
0000,
0000,
0000,
0202,
0201,
0202,
0004,
0000,
0000,
0000,
0000,
0000,
0000,
0000,
0000,
0000,
0000,
0000,
0000,
0000,
0000,
0000,
0000,
0000,
0000,
0000,
0000,
0000,
0000,
0000,
0000,
0000,
0000,
0000,
0000,
0000,
0000,
0000,
0000,
0000,
0000,
0000,
0000,
0000,
0000,
0000,
0000,
0000,
0000,
0000,
0202,
0202,
0403,
0604,
0000,
0000,
0000,
0000,
0000,
0000,
0000,
0000,
0000,
0000,
0000,
0000,
0000,
0000,
0000,
0000,
0000,
0000,
0000,
0000,
0000,
0000,
0000,
0000,
0000,
0000,
0000,
0000,
0000,
0000,
0000,
0000,
0000,
0000,
0000,
0000,
0000,
0000,
0000,
0000,
0000,
0000,
0000,
0202,
0000,
0000,
0605,
0706,
0001,
0000,
0000,
0000,
0000,
0000,
0000,
0000,
0000,
0000,
0000,
0000,
0000,
0000,
0000,
0000,
0000,
0000,
0000,
0000,
0000,
0000,
0000,
0000,
0000,
0000,
0000,
0000,
0000,
0000,
0000,
0000,
0000,
0000,
0000,
0000,
0000,
0000,
0000,
0000,
0000,
0000,
0000,
0202,
0202,
0000,
0605,
0808,
0000,
0000,
0000,
0000,
0000,
0000,
0000,
0000,
0000,
0000,
0000,
0000,
0000,
0000,
0000,
0000,
0000,
0000,
0000,
0000,
0000,
0000,
0000,
0000,
0000,
0000,
0000,
0000,
0000,
0000,
0000,
0000,
0000,
0000,
0000,
0000,
0000,
0000,
0000,
0000,
0000,
0000,
0000,
0000,
0303,
0a08,
0909,
0c08,
0000,
0000,
0000,
0000,
0000,
0000,
0000,
0000,
0000,
0000,
0000,
0000,
0000,
0000,
0000,
0000,
0202,
0303,
0000,
0000,
0000,
0000,
0000,
0000,
0000,
0000,
0000,
0000,
0000,
0000,
0000,
0000,
0000,
0000,
0000,
0000,
0000,
0000,
0000,
0000,
0000,
0000,
0000,
0202,
0303,
0907,
0706,
0605,
0000,
0000,
0000,
0000,
0000,
0000,
0000,
0000,
0000,
0000,
0000,
0000,
0000,
0302,
0504,
0303,
0303,
0303,
0000,
0000,
0000,
0000,
0000,
0000,
0000,
0000,
0000,
0000,
0000,
0000,
0000,
0000,
0000,
0000,
0000,
0000,
0000,
0000,
0000,
0000,
0000,
0000,
0202,
0000,
0403,
0706,
0906,
0202,
0000,
0000,
0000,
0000,
0000,
0000,
0000,
0000,
0000,
0000,
0000,
0000,
0000,
0000,
0403,
0404,
0202,
0403,
0000,
0000,
0000,
0000,
0000,
0000,
0000,
0000,
0000,
0000,
0000,
0000,
0000,
0000,
0000,
0000,
0000,
0000,
0000,
0000,
0000,
0000,
0000,
0000,
0202,
0202,
0201,
0303,
0706,
0202,
0000,
0000,
0000,
0000,
0000,
0000,
0000,
0000,
0000,
0000,
0000,
0000,
0000,
0000,
0202,
0202,
0000,
0201,
0000,
0000,
0000,
0000,
0000,
0000,
0000,
0000,
0000,
0000,
0000,
0000,
0000,
0000,
0000,
0000,
0000,
0000,
0000,
0000,
0000,
0000,
0000,
0000,
0000,
0201,
0000,
0404,
0000,
0503,
0003,
0000,
0000,
0000,
0000,
0000,
0000,
0000,
0000,
0000,
0000,
0000,
0000,
0000,
0200,
0300,
0200,
0000,
0000,
0000,
0000,
0000,
0000,
0000,
0000,
0000,
0000,
0000,
0000,
0000,
0000,
0000,
0000,
0000,
0000,
0000,
0000,
0000,
0000,
0000,
0000,
0000,
0000,
0302,
0000,
0000,
0200,
0300,
0000,
0000,
0000,
0000,
0000,
0000,
0000,
0000,
0000,
0000,
0000,
0000,
0000,
0000,
0000,
0000,
0000,
0000,
0000,
0000,
0000,
0000,
0000,
0000,
0000,
0000,
0000,
0000,
0000,
0000,
0000,
0000,
0000,
0000,
0000,
0000,
0000,
0000,
0000,
0202,
0000,
0000,
0202,
0200,
0202,
0000,
0201,
0000,
0001,
0000,
0000,
0000,
0000,
0000,
0000,
0000,
0000,
0000,
0000,
0000,
0000,
0000,
0000,
0000,
0000,
0000,
0000,
0000,
0000,
0000,
0000,
0000,
0000,
0000,
0000,
0000,
0000,
0000,
0000,
0000,
0000,
0000,
0000,
0000,
0000,
0000,
0000,
0202,
0000,
0000,
0403,
0200,
0000,
0303,
0303,
0200,
0001,
0000,
0000,
0000,
0000,
0000,
0000,
0000,
0000,
0000,
0000,
0000,
0000,
0000,
0000,
0000,
0000,
0000,
0000,
0000,
0000,
0000,
0000,
0000,
0000,
0000,
0000,
0000,
0000,
0000,
0000,
0000,
0000,
0000,
0000,
0000,
0000,
0000,
0000,
0000,
0000,
0000,
0201,
0303,
0303,
0404,
0505,
0202,
0000,
0000,
0000,
0200,
0200,
0000,
0000,
0000,
0000,
0000,
0000,
0000,
0000,
0000,
0000,
0000,
0000,
0000,
0000,
0000,
0000,
0000,
0000,
0000,
0000,
0000,
0000,
0000,
0000,
0000,
0000,
0000,
0000,
0000,
0000,
0000,
0000,
0000,
0000,
0000,
0000,
0000,
0404,
0303,
0403,
0202,
0605,
0504,
0000,
0000,
0000,
0000,
0000,
0000,
0000,
0000,
0000,
0000,
0000,
0000,
0000,
0000,
0000,
0000,
0000,
0000,
0000,
0000,
0000,
0000,
0000,
0000,
0000,
0000,
0000,
0000,
0000,
0000,
0000,
0000,
0000,
0000,
0000,
0000,
0000,
0000,
0000,
0000,
0000,
0001,
0303,
0504,
0303,
0404,
0404,
0303,
0001,
0000,
0000,
0000,
0000,
0000,
0000,
0000,
0000,
0000,
0000,
0000,
0000,
0000,
0000,
0000,
0000,
0000,
0000,
0000,
0000,
0000,
0000,
0000,
0000,
0000,
0000,
0000,
0000,
0000,
0000,
0000,
0000,
0000,
0000,
0000,
0000,
0000,
0000,
0000,
0000,
0001,
0201,
0000,
0000,
0303,
0505,
0000,
0001,
0000,
0000,
0000,
0000,
0000,
0000,
0000,
0000,
0000,
0000,
0000,
0000,
0000,
0000,
0000,
0000,
0000,
0000,
0000,
0000,
0000,
0000,
0000,
0000,
0000,
0000,
0000,
0000,
0000,
0000,
0000,
0000,
0000,
0000,
0000,
0000,
0000,
0000,
0000,
0000,
0001,
0201,
0000,
0202,
0202,
0202,
0301,
0000,
0001,
0000,
0000,
0000,
0000,
0000,
0000,
0000,
0000,
0000,
0000,
0000,
0000,
0000,
0000,
0000,
0000,
0000,
0000,
0000,
0000,
0000,
0000,
0000,
0000,
0000,
0000,
0000,
0000,
0000,
0000,
0000,
0000,
0000,
0000,
0000,
0000,
0000,
0000,
0000,
0000,
0000,
0202,
0000,
0202,
0202,
0202,
0000,
0001,
0000,
0000,
0000,
0000,
0000,
0000,
0000,
0000,
0000,
0000,
0000,
0000,
0000,
0000,
0000,
0000,
0000,
0000,
0000,
0000,
0202,
0000,
0000,
0000,
0000,
0000,
0000,
0000,
0000,
0000,
0000,
0000,
0000,
0000,
0000,
0000,
0000,
0000,
0000,
0000,
0000,
0000,
0000,
0202,
0303,
0301,
0000,
0000,
0000,
0000,
0000,
0000,
0000,
0000,
0000,
0000,
0000,
0000,
0000,
0000,
0000,
0000,
0000,
0000,
0000,
0000,
0000,
0302,
0404,
0606,
0202,
0000,
0000,
0000,
0000,
0000,
0000,
0000,
0000,
0000,
0000,
0000,
0000,
0000,
0000,
0000,
0000,
0000,
0200,
0000,
0000,
0202,
0200,
0201,
0000,
0001,
0000,
0000,
0000,
0000,
0000,
0000,
0000,
0000,
0000,
0000,
0000,
0000,
0000,
0000,
0000,
0000,
0000,
0000,
0000,
0605,
0707,
0303,
0000,
0000,
0000,
0000,
0000,
0000,
0000,
0000,
0000,
0000,
0000,
0000,
0000,
0000,
0000,
0000,
0000,
0000,
0000,
0000,
0000,
0202,
0202,
0301,
0003,
0002,
0000,
0002,
0000,
0000,
0000,
0002,
0000,
0000,
0000,
0000,
0000,
0000,
0000,
0000,
0000,
0000,
0001,
0001,
0305,
0a0c,
0708,
0306,
0000,
0001,
0000,
0000,
0001,
0000,
0001,
0003,
0000,
0000,
0000,
0001,
0000,
0000,
0000,
0000,
0000,
0001,
0000,
0202,
0303,
0303,
0000,
0000,
0001,
0005,
0002,
0001,
0001,
0002,
0002,
0003,
0001,
0000,
0001,
0001,
0000,
0000,
0000,
0000,
0000,
0000,
0000,
0001,
0203,
0607,
090c,
0505,
0301,
0204,
0004,
0001,
0002,
0000,
0000,
0002,
0001,
0001,
0002,
0000,
0000,
0001,
0000,
0000,
0000,
0000,
0200,
0200,
0302,
0202,
0403,
0000,
0704,
0705,
0705,
0501,
0402,
0302,
0804,
0403,
0704,
0303,
0000,
0201,
0300,
0000,
0000,
0202,
0202,
0202,
0201,
0404,
0403,
0f05,
100d,
1109,
0f09,
0602,
0504,
0301,
0703,
0302,
0000,
0402,
0502,
0501,
0303,
0202,
0302,
0301,
0000,
0000,
0000,
0403,
0202,
0000,
0404,
0202,
0302,
0202,
0302,
0605,
0603,
0303,
0301,
0504,
0704,
0604,
0505,
0202,
0200,
0202,
0201,
0000,
0000,
0202,
0202,
0200,
0303,
0202,
0303,
0b07,
0806,
0d09,
0705,
0200,
0503,
0302,
0202,
0202,
0000,
0303,
0202,
0302,
0403,
0300,
0000,
0404,
0202,
0202,
0202,
0202,
0000,
0202,
0000,
0302,
0403,
0000,
0202,
0303,
0303,
0404,
0202,
0303,
0302,
0404,
0303,
0202,
0200,
0202,
0000,
0000,
0000,
0000,
0202,
0202,
0202,
0303,
0303,
0303,
0909,
0b08,
0a09,
0604,
0605,
0302,
0303,
0303,
0303,
0202,
0000,
0303,
0000,
0504,
0404,
0404,
0000,
0302,
0000,
0202,
0202,
0303,
0202;
