memory_initialization_radix=16;
memory_initialization_vector=0000,
0403,
0000,
0000,
0202,
0000,
0202,
0000,
0000,
0000,
0000,
0000,
0202,
0303,
0000,
0202,
0303,
0202,
0000,
0202,
0202,
0202,
0403,
0000,
0503,
0503,
0706,
0806,
0403,
0000,
0000,
0202,
0202,
0202,
0000,
0303,
0202,
0202,
0202,
0000,
0000,
0404,
0000,
0000,
0000,
0000,
0303,
0000,
0303,
0303,
0200,
0000,
0000,
0000,
0000,
0000,
0201,
0000,
0201,
0302,
0504,
0000,
0000,
0302,
0201,
0302,
0202,
0202,
0000,
0000,
0303,
0404,
0404,
0605,
0706,
0605,
0505,
0404,
0303,
0201,
0202,
0302,
0200,
0202,
0202,
0000,
0000,
0702,
0302,
0404,
0000,
0404,
0303,
0000,
0000,
0000,
0202,
0403,
0403,
0202,
0201,
0301,
0201,
0000,
0202,
0301,
0302,
0201,
0000,
0303,
0303,
0302,
0201,
0201,
0302,
0000,
0502,
0403,
0603,
0703,
0502,
0302,
0806,
0401,
0403,
0402,
0302,
0202,
0202,
0202,
0202,
0801,
0603,
0503,
0403,
0702,
0302,
0201,
0404,
0300,
0303,
0000,
0000,
0000,
0403,
0503,
0202,
0000,
0001,
0001,
0001,
0000,
0000,
0001,
0001,
0001,
0002,
0000,
0000,
0001,
0001,
0001,
0000,
0000,
0000,
0000,
0000,
0001,
0000,
0002,
0001,
0001,
0003,
0001,
0001,
0000,
0000,
0001,
0001,
0001,
0201,
0304,
0204,
0002,
0000,
0002,
0000,
0000,
0000,
0202,
0202,
0000,
0300,
0403,
0404,
0004,
0002,
0000,
0000,
0000,
0000,
0000,
0000,
0000,
0000,
0000,
0000,
0000,
0000,
0000,
0001,
0000,
0001,
0001,
0000,
0000,
0000,
0002,
0001,
0000,
0001,
0000,
0000,
0000,
0200,
0001,
0203,
0203,
0001,
0202,
0000,
0000,
0000,
0000,
0000,
0002,
0000,
0201,
0000,
0000,
0404,
0302,
0403,
0001,
0001,
0000,
0000,
0000,
0000,
0000,
0000,
0000,
0000,
0000,
0000,
0000,
0000,
0000,
0000,
0000,
0000,
0000,
0000,
0000,
0000,
0000,
0000,
0000,
0000,
0202,
0303,
0303,
0200,
0000,
0000,
0200,
0000,
0000,
0000,
0000,
0000,
0000,
0000,
0000,
0001,
0000,
0000,
0000,
0303,
0202,
0401,
0001,
0000,
0000,
0000,
0000,
0000,
0000,
0000,
0000,
0000,
0000,
0000,
0000,
0000,
0000,
0000,
0000,
0000,
0000,
0000,
0000,
0000,
0000,
0000,
0000,
0202,
0303,
0505,
0404,
0202,
0000,
0000,
0000,
0000,
0000,
0000,
0000,
0000,
0000,
0000,
0000,
0000,
0201,
0000,
0000,
0202,
0202,
0402,
0001,
0000,
0000,
0000,
0000,
0000,
0000,
0000,
0000,
0000,
0000,
0000,
0000,
0000,
0000,
0000,
0000,
0000,
0000,
0000,
0000,
0000,
0000,
0000,
0000,
0000,
0000,
0000,
0000,
0000,
0000,
0000,
0000,
0000,
0000,
0000,
0000,
0000,
0000,
0000,
0000,
0000,
0000,
0301,
0000,
0202,
0403,
0504,
0000,
0000,
0000,
0000,
0000,
0000,
0000,
0000,
0000,
0000,
0200,
0000,
0000,
0000,
0000,
0000,
0000,
0000,
0000,
0000,
0000,
0000,
0000,
0000,
0000,
0000,
0000,
0000,
0000,
0000,
0000,
0000,
0000,
0000,
0000,
0000,
0000,
0000,
0000,
0000,
0000,
0001,
0000,
0000,
0000,
0000,
0604,
0202,
0004,
0000,
0000,
0000,
0000,
0000,
0000,
0000,
0000,
0000,
0200,
0000,
0000,
0000,
0000,
0000,
0000,
0000,
0000,
0000,
0000,
0000,
0000,
0000,
0000,
0000,
0000,
0000,
0000,
0000,
0000,
0000,
0000,
0000,
0000,
0000,
0000,
0000,
0000,
0000,
0000,
0000,
0000,
0000,
0202,
0000,
0503,
0000,
0001,
0000,
0000,
0000,
0000,
0000,
0000,
0000,
0000,
0000,
0000,
0000,
0000,
0000,
0000,
0000,
0000,
0000,
0000,
0000,
0000,
0000,
0000,
0000,
0000,
0000,
0000,
0000,
0000,
0000,
0000,
0000,
0000,
0000,
0000,
0000,
0000,
0000,
0000,
0000,
0000,
0000,
0301,
0202,
0000,
0302,
0201,
0403,
0001,
0000,
0000,
0000,
0000,
0000,
0000,
0000,
0000,
0000,
0000,
0000,
0000,
0000,
0000,
0000,
0000,
0000,
0000,
0000,
0000,
0000,
0000,
0000,
0000,
0000,
0000,
0000,
0000,
0000,
0000,
0000,
0000,
0000,
0000,
0000,
0000,
0000,
0000,
0000,
0001,
0000,
0000,
0000,
0000,
0403,
0303,
0401,
0000,
0001,
0000,
0000,
0000,
0000,
0000,
0000,
0000,
0000,
0000,
0000,
0000,
0000,
0000,
0000,
0000,
0000,
0000,
0000,
0000,
0000,
0000,
0000,
0000,
0000,
0000,
0000,
0000,
0000,
0000,
0000,
0000,
0000,
0000,
0000,
0000,
0000,
0000,
0000,
0000,
0000,
0301,
0000,
0000,
0604,
0403,
0402,
0000,
0000,
0000,
0000,
0000,
0000,
0000,
0000,
0000,
0000,
0000,
0000,
0000,
0000,
0000,
0000,
0000,
0000,
0000,
0000,
0000,
0000,
0000,
0000,
0000,
0000,
0000,
0000,
0000,
0000,
0000,
0000,
0000,
0000,
0000,
0000,
0000,
0000,
0000,
0000,
0001,
0000,
0000,
0000,
0303,
0000,
0202,
0505,
0000,
0000,
0000,
0000,
0000,
0000,
0000,
0000,
0000,
0000,
0000,
0000,
0000,
0000,
0000,
0000,
0000,
0000,
0000,
0000,
0000,
0000,
0000,
0000,
0000,
0000,
0000,
0000,
0000,
0000,
0000,
0000,
0000,
0000,
0000,
0000,
0000,
0000,
0000,
0000,
0001,
0000,
0000,
0404,
0202,
0301,
0403,
0000,
0000,
0000,
0000,
0000,
0000,
0000,
0000,
0000,
0000,
0000,
0000,
0000,
0000,
0000,
0000,
0000,
0000,
0000,
0000,
0000,
0000,
0000,
0000,
0000,
0000,
0000,
0000,
0000,
0000,
0000,
0000,
0000,
0000,
0000,
0000,
0000,
0000,
0000,
0000,
0000,
0000,
0003,
0502,
0604,
0505,
0202,
0200,
0303,
0000,
0000,
0000,
0000,
0000,
0000,
0000,
0000,
0000,
0000,
0000,
0000,
0000,
0000,
0000,
0000,
0000,
0000,
0000,
0000,
0000,
0000,
0000,
0000,
0000,
0000,
0000,
0000,
0000,
0000,
0000,
0000,
0000,
0000,
0000,
0000,
0000,
0000,
0000,
0000,
0001,
0003,
0805,
0603,
0505,
0000,
0201,
0303,
0000,
0000,
0000,
0000,
0000,
0000,
0000,
0000,
0000,
0000,
0000,
0000,
0000,
0000,
0000,
0000,
0000,
0000,
0000,
0000,
0000,
0000,
0000,
0000,
0000,
0000,
0000,
0000,
0000,
0000,
0000,
0000,
0000,
0000,
0000,
0000,
0000,
0000,
0000,
0000,
0002,
0001,
0804,
0202,
0505,
0303,
0000,
0303,
0001,
0000,
0000,
0000,
0000,
0000,
0000,
0000,
0000,
0000,
0000,
0000,
0000,
0000,
0000,
0000,
0000,
0000,
0000,
0000,
0000,
0000,
0000,
0000,
0000,
0000,
0000,
0000,
0000,
0000,
0000,
0000,
0000,
0000,
0000,
0000,
0000,
0000,
0000,
0000,
0002,
0002,
0703,
0202,
0404,
0300,
0000,
0200,
0000,
0000,
0000,
0000,
0000,
0000,
0000,
0000,
0000,
0000,
0000,
0000,
0000,
0000,
0000,
0000,
0000,
0000,
0000,
0000,
0000,
0000,
0000,
0000,
0000,
0000,
0000,
0000,
0000,
0000,
0000,
0000,
0000,
0000,
0000,
0000,
0000,
0000,
0000,
0000,
0001,
0002,
0603,
0303,
0000,
0303,
0202,
0303,
0000,
0001,
0000,
0000,
0000,
0000,
0000,
0000,
0000,
0000,
0000,
0000,
0000,
0000,
0000,
0000,
0000,
0000,
0000,
0000,
0000,
0000,
0000,
0000,
0000,
0000,
0000,
0000,
0000,
0000,
0000,
0000,
0000,
0000,
0000,
0000,
0000,
0000,
0000,
0000,
0001,
0002,
0000,
0504,
0404,
0302,
0000,
0000,
0000,
0000,
0000,
0000,
0000,
0000,
0000,
0000,
0000,
0000,
0000,
0000,
0000,
0000,
0000,
0000,
0000,
0000,
0000,
0000,
0000,
0000,
0000,
0000,
0000,
0000,
0000,
0000,
0000,
0000,
0000,
0000,
0000,
0000,
0000,
0000,
0000,
0000,
0000,
0000,
0000,
0001,
0000,
0000,
0404,
0000,
0000,
0403,
0001,
0000,
0000,
0000,
0000,
0000,
0000,
0000,
0000,
0000,
0000,
0000,
0000,
0000,
0000,
0000,
0000,
0000,
0000,
0000,
0000,
0000,
0000,
0000,
0000,
0000,
0000,
0000,
0000,
0000,
0000,
0000,
0000,
0000,
0000,
0000,
0000,
0000,
0000,
0000,
0000,
0002,
0504,
0504,
0303,
0303,
0302,
0302,
0000,
0000,
0000,
0000,
0000,
0000,
0000,
0000,
0000,
0000,
0000,
0000,
0000,
0000,
0000,
0000,
0000,
0000,
0000,
0000,
0000,
0000,
0000,
0000,
0000,
0000,
0000,
0000,
0000,
0000,
0000,
0000,
0000,
0000,
0000,
0000,
0000,
0000,
0000,
0000,
0000,
0000,
0404,
0402,
0303,
0303,
0000,
0202,
0000,
0000,
0000,
0000,
0000,
0000,
0000,
0000,
0000,
0000,
0000,
0000,
0000,
0000,
0000,
0000,
0000,
0000,
0000,
0000,
0000,
0000,
0000,
0000,
0000,
0000,
0000,
0000,
0000,
0000,
0000,
0000,
0000,
0000,
0000,
0000,
0000,
0000,
0000,
0000,
0000,
0000,
0502,
0303,
0404,
0000,
0202,
0000,
0000,
0000,
0000,
0000,
0000,
0000,
0000,
0000,
0000,
0000,
0000,
0000,
0000,
0000,
0000,
0000,
0000,
0000,
0000,
0000,
0000,
0000,
0000,
0000,
0000,
0000,
0000,
0000,
0000,
0000,
0000,
0000,
0000,
0000,
0000,
0000,
0000,
0000,
0000,
0000,
0001,
0000,
0604,
0202,
0403,
0000,
0000,
0000,
0000,
0001,
0000,
0000,
0000,
0000,
0000,
0000,
0000,
0000,
0000,
0000,
0000,
0000,
0000,
0000,
0000,
0000,
0000,
0000,
0000,
0000,
0000,
0000,
0000,
0000,
0000,
0000,
0000,
0000,
0000,
0000,
0000,
0000,
0000,
0000,
0000,
0000,
0000,
0000,
0001,
0001,
0404,
0202,
0303,
0000,
0202,
0201,
0000,
0000,
0000,
0000,
0000,
0000,
0000,
0000,
0000,
0000,
0000,
0000,
0000,
0000,
0000,
0000,
0000,
0000,
0000,
0000,
0000,
0000,
0000,
0000,
0000,
0000,
0000,
0000,
0000,
0000,
0000,
0000,
0000,
0000,
0000,
0000,
0000,
0000,
0000,
0000,
0000,
0000,
0301,
0000,
0200,
0202,
0000,
0000,
0000,
0000,
0000,
0000,
0000,
0000,
0000,
0000,
0000,
0000,
0000,
0000,
0000,
0000,
0000,
0000,
0000,
0000,
0000,
0000,
0000,
0000,
0000,
0000,
0000,
0000,
0000,
0000,
0000,
0000,
0000,
0000,
0000,
0000,
0000,
0000,
0000,
0000,
0000,
0000,
0000,
0001,
0201,
0501,
0202,
0000,
0000,
0202,
0001,
0000,
0000,
0000,
0000,
0000,
0000,
0000,
0000,
0000,
0000,
0000,
0000,
0000,
0000,
0000,
0000,
0000,
0000,
0000,
0000,
0000,
0000,
0000,
0000,
0000,
0000,
0000,
0000,
0000,
0000,
0000,
0000,
0000,
0000,
0000,
0000,
0000,
0000,
0000,
0000,
0002,
0302,
0302,
0000,
0000,
0000,
0302,
0000,
0000,
0000,
0000,
0000,
0000,
0000,
0000,
0000,
0000,
0000,
0000,
0000,
0000,
0000,
0000,
0000,
0000,
0000,
0000,
0000,
0000,
0000,
0000,
0000,
0000,
0000,
0000,
0000,
0000,
0000,
0000,
0000,
0000,
0000,
0000,
0000,
0000,
0000,
0000,
0000,
0000,
0000,
0000,
0000,
0202,
0000,
0000,
0000,
0001,
0000,
0000,
0000,
0000,
0000,
0000,
0000,
0000,
0000,
0000,
0000,
0000,
0000,
0000,
0000,
0000,
0000,
0000,
0000,
0000,
0000,
0000,
0000,
0000,
0000,
0000,
0000,
0000,
0000,
0000,
0000,
0000,
0000,
0000,
0000,
0000,
0000,
0000,
0000,
0002,
0201,
0303,
0303,
0303,
0000,
0201,
0000,
0000,
0000,
0200,
0200,
0000,
0000,
0000,
0000,
0000,
0000,
0000,
0000,
0000,
0000,
0000,
0000,
0000,
0000,
0000,
0000,
0000,
0000,
0000,
0000,
0000,
0000,
0000,
0000,
0000,
0000,
0000,
0000,
0000,
0000,
0000,
0201,
0303,
0302,
0202,
0200,
0203,
0703,
0404,
0303,
0000,
0000,
0000,
0000,
0000,
0000,
0000,
0000,
0000,
0000,
0000,
0000,
0000,
0000,
0000,
0000,
0000,
0000,
0000,
0000,
0000,
0000,
0000,
0000,
0000,
0000,
0000,
0000,
0000,
0000,
0000,
0000,
0000,
0000,
0000,
0000,
0000,
0000,
0200,
0403,
0404,
0302,
0202,
0200,
0303,
0603,
0404,
0404,
0303,
0402,
0000,
0000,
0000,
0000,
0000,
0000,
0000,
0000,
0000,
0000,
0000,
0000,
0000,
0000,
0000,
0000,
0000,
0000,
0000,
0000,
0000,
0000,
0000,
0000,
0000,
0000,
0000,
0000,
0000,
0000,
0000,
0000,
0000,
0000,
0000,
0000,
0300,
0303,
0504,
0401,
0000,
0000,
0303,
0703,
0303,
0202,
0404,
0000,
0200,
0000,
0000,
0000,
0000,
0000,
0200,
0200,
0000,
0000,
0000,
0000,
0000,
0000,
0000,
0000,
0000,
0000,
0000,
0000,
0000,
0000,
0000,
0000,
0000,
0000,
0000,
0000,
0000,
0000,
0000,
0000,
0000,
0000,
0000,
0000,
0200,
0403,
0403,
0200,
0000,
0000,
0202,
0602,
0202,
0202,
0202,
0505,
0200,
0001,
0000,
0000,
0000,
0000,
0000,
0202,
0202,
0000,
0000,
0000,
0000,
0000,
0000,
0000,
0000,
0000,
0000,
0000,
0000,
0000,
0000,
0000,
0000,
0000,
0000,
0000,
0000,
0000,
0000,
0000,
0000,
0000,
0000,
0000,
0000,
0201,
0300,
0000,
0000,
0201,
0205,
0702,
0202,
0202,
0000,
0000,
0404,
0000,
0000,
0000,
0000,
0000,
0000,
0000,
0000,
0000,
0000,
0000,
0000,
0000,
0000,
0000,
0000,
0000,
0000,
0000,
0000,
0000,
0000,
0000,
0000,
0000,
0000,
0202,
0000,
0000,
0000,
0000,
0000,
0000,
0000,
0000,
0000,
0000,
0000,
0000,
0000,
0302,
0405,
0903,
0303,
0303,
0000,
0202,
0303,
0000,
0000,
0000,
0000,
0000,
0000,
0000,
0000,
0000,
0000,
0000,
0000,
0000,
0000,
0000,
0000,
0000,
0000,
0000,
0000,
0000,
0000,
0000,
0000,
0000,
0000,
0202,
0000,
0000,
0000,
0000,
0000,
0000,
0000,
0000,
0000,
0000,
0000,
0000,
0000,
0404,
0408,
0a04,
0404,
0303,
0202,
0303,
0000,
0000,
0000,
0000,
0000,
0000,
0000,
0000,
0000,
0000,
0000,
0000,
0000,
0000,
0000,
0000,
0000,
0000,
0000,
0000,
0000,
0000,
0000,
0000,
0000,
0000,
0000,
0000,
0000,
0000,
0000,
0000,
0000,
0000,
0201,
0000,
0000,
0000,
0000,
0000,
0200,
0404,
050a,
0a05,
0505,
0505,
0202,
0505,
0202,
0001,
0000,
0000,
0000,
0000,
0000,
0000,
0000,
0000,
0000,
0000,
0000,
0000,
0000,
0000,
0000,
0000,
0000,
0000,
0000,
0000,
0000,
0000,
0000,
0000,
0000,
0000,
0000,
0000,
0000,
0000,
0000,
0303,
0403,
0000,
0000,
0000,
0000,
0000,
0200,
0404,
0409,
0a05,
0504,
0404,
0202,
0505,
0505,
0001,
0000,
0000,
0000,
0000,
0000,
0000,
0000,
0000,
0000,
0000,
0000,
0000,
0000,
0000,
0000,
0000,
0000,
0000,
0000,
0000,
0000,
0000,
0000,
0000,
0000,
0000,
0000,
0000,
0000,
0000,
0000,
0404,
0404,
0000,
0000,
0000,
0000,
0000,
0000,
0303,
0308,
0a05,
0403,
0404,
0503,
0505,
0502,
0001,
0001,
0000,
0000,
0000,
0000,
0000,
0000,
0000,
0000,
0000,
0000,
0000,
0000,
0000,
0000,
0000,
0000,
0000,
0000,
0000,
0000,
0000,
0000,
0000,
0000,
0000,
0000,
0000,
0000,
0000,
0000,
0404,
0404,
0000,
0000,
0000,
0000,
0000,
0000,
0000,
0005,
0a05,
0403,
0404,
0202,
0000,
0602,
0002,
0001,
0001,
0001,
0000,
0000,
0001,
0001,
0002,
0000,
0000,
0000,
0000,
0000,
0001,
0000,
0000,
0001,
0000,
0000,
0000,
0000,
0000,
0000,
0000,
0000,
0001,
0000,
0000,
0000,
0001,
0001,
0506,
0504,
0202,
0000,
0000,
0000,
0002,
0001,
0001,
0006,
0a06,
0000,
0000,
0404,
0302,
0000,
0003,
0000,
0003,
0003,
0005,
0000,
0000,
0000,
0000,
0000,
0000,
0000,
0003,
0000,
0000,
0003,
0003,
0000,
0000,
0000,
0000,
0000,
0000,
0000,
0000,
0000,
0000,
0000,
0000,
0000,
0000,
0002,
0404,
0304,
0203,
0002,
0000,
0000,
0000,
0000,
0004,
0206,
0a07,
0403,
0404,
0303,
0704,
0302,
0302,
0906,
0805,
0502,
0704,
0200,
0301,
0000,
0402,
0000,
0403,
0202,
0504,
0000,
0000,
0704,
0202,
0503,
0202,
0404,
0000,
0000,
0000,
0000,
0000,
0201,
0000,
0202,
0000,
0000,
0201,
0503,
0904,
0504,
0603,
0603,
0403,
0201,
0502,
0302,
0604,
0a08,
0a08,
0303,
0403,
0202,
0402,
0302,
0404,
0707,
0604,
0706,
0705,
0403,
0200,
0200,
0200,
0000,
0605,
0202,
0605,
0000,
0604,
0603,
0202,
0402,
0000,
0303,
0403,
0000,
0000,
0202,
0000,
0000,
0000,
0000,
0000,
0202,
0202,
0403,
0605,
0604,
0200,
0503,
0505,
0504,
0805,
0202,
0604,
0706,
0807,
0200,
0404,
0000,
0202,
0000,
0202,
0202,
0303,
0302,
0504,
0404,
0200,
0202,
0000,
0000,
0202,
0000,
0404,
0000,
0000,
0404,
0202,
0202,
0404,
0504,
0303,
0303,
0200,
0302,
0000,
0000,
0000,
0000,
0202,
0202,
0202,
0303,
0504,
0404,
0000,
0000,
0403,
0505,
0806,
0000,
0000,
0502,
0606,
0202,
0302;
