memory_initialization_radix=16;
memory_initialization_vector=3efffff3,
3dd80e83,
344d192c,
3f000000,
3f000000,
3f000000,
3f000000,
3f000000,
3c18d436,
3f000000,
3efd9caf,
3f000000,
3efd9caf,
3f000000,
3efffacf,
3f000000,
3efffff2,
3efffacf,
3f000000,
3f000000,
3f000000,
3f000000,
3f000000,
3f000000,
3f000000,
3effffe5,
3b94d852,
326a710a,
3ef32f28,
3c927ebc,
3c3b282c,
3ed355cc,
3a65a8b0,
39b8e343,
3442d4ae,
3efba273,
3300fe1d,
3eaaaa72,
3ea4900e,
3eef3dda,
3ee7a1b7,
3c927ebc,
3c3b282c,
3466a4aa,
3a9c069f,
3ec5b099,
32739acd,
3eaaaa72,
32679b71,
3f000000,
3f000000,
3f000000,
3f000000,
3f000000,
3f000000,
3efffffe,
3f000000,
3f000000,
3f000000,
3f000000,
3f000000,
3f000000,
3f000000,
3f000000,
3efff54c,
39e84a28,
3efff54c,
35177dc6,
3efc162c,
3afcde3d,
3d700f66,
3efffff3,
3ee4fe2f,
3efffffd,
355960d8,
3ee4fe2f,
3efffffd,
3f000000,
3f000000,
3efffe16,
3c14a47f,
37f47f9d,
3efd9cd8,
3ad0415a,
355960df,
3f000000,
3ed13fe0,
356c44fc,
38a62544,
3efffff2,
3f000000,
3cf6ff11,
3f000000,
3f000000,
3ebdd8f6,
3dee4823,
3e22cd58,
3ed355cc,
3e844e16,
3ee1fd92,
3ed7358e,
3e32a8cf,
3ebdd8f6,
3ee1fd92,
3ed7358e,
3d4d0d29,
3c8bb1b4,
3c07c26b,
3ea4900e,
3c84d072,
3ef32f28,
3da10198,
327f76d8,
3ef8b0eb,
3d8b747a,
3ef5e153,
3404f880,
3bbaea0f,
3eed0348,
3d1d0a8c,
32c6b476,
3c07c26b,
3ef8b0eb,
3eed0348,
3ef5e153,
34dd53d0,
3ee7a1b7,
33950530,
3ec5b099,
3f000000,
36abde47,
3e693d7e,
3f000000,
3f000000,
3f000000,
3f000000,
3f000000,
3f000000,
3f000000,
3f000000,
3efffffe,
3f000000,
3effe7b8,
3ed4e0fb,
3efffffe,
3effeb2f,
392b0868,
3effc5ed,
392b0868,
3effffed,
3efff54c,
39e84a28,
3efff54c,
35177dc6,
3c7a74ef,
3eff8191,
3ef0ff0b,
3f000000,
39ab1d12,
3ec82656,
3eb26070,
3e7896d1,
3ec82656,
3eb26070,
3ec1da4a,
3f000000,
3f000000,
3f000000,
3f000000,
3f000000,
3f000000,
3f000000,
3f000000,
3f000000,
3f000000,
3f000000,
3efd9cd8,
3eff97df,
3efffff2,
398426b4,
3eff97df,
3efffff2,
3f000000,
3ed13fe0,
3f000000,
3f000000,
3f000000,
3ef84806,
3effffe5,
3efe49b0,
3efff9b2,
3eff23f3,
3b44e72f,
3efff9b2,
3eff23f3,
3dd7684b,
38c9cd8e,
3b5c0c34,
3ee44e03,
35d3b296,
3eeb88fa,
324d5202,
3f000000,
3442d4ae,
3efba273,
3300fe1d,
3eaaaa72,
3ea4900e,
3eef3dda,
3edbd192,
3effffe5,
365e9ee0,
3efffee8,
355960d3,
3efe548d,
355960d3,
3efffee8,
3f000000,
3f000000,
3f000000,
3f000000,
33f1fb29,
3f000000,
3f000000,
3f000000,
3ea84440,
3ee8bebf,
3a81f2e6,
39dbd6d5,
3c08697a,
3effbf06,
3effe485,
3b66a422,
3effbf06,
3effe485,
3effe7b8,
3ed4e0fb,
33f1fb29,
3effeb2f,
3f000000,
345ee2d0,
3effc5ed,
345ee2d0,
3effffed,
3efc162c,
3eff8191,
3ef0ff0b,
3effff5f,
3efff246,
3cb74ec6,
3e5f6196,
3e9b3ee3,
3ec1da4a,
3f000000,
3f000000,
3f000000,
3f000000,
3f000000,
3f000000,
3f000000,
3f000000,
3efffe16,
3582c96d,
3e3b0081,
3f000000,
3f000000,
353c8cfc,
3bc7124a,
3f000000,
3da3b82c,
3efe548d,
3effffe5,
3bd59de0,
378c4897,
3edbd192,
3f000000,
343c244c,
3ee8bebf,
3da1c7b8,
3b48a5ba,
368fcf6f,
3c2e20d7,
3eff375b,
3f000000,
35a4cf31,
3b9b9d66,
3eff375b,
3f000000,
39bf5742,
3e1ca0a4,
3efffffe,
39a6899e,
3f000000,
3f000000,
3f000000,
3f000000,
3effff5f,
3efff246,
3efa1ccb,
3f000000,
3eccc948,
3eccda65,
3eaaaaab,
37a1d0e4,
35fa0c9b,
336af9e0,
3a81f2c9,
3f000000,
365fdbf7,
3ef84806,
3efe49b0,
3b0c9e69,
3ee44e03,
3e10b9bb,
3eeb88fa,
3d49ba1f,
3ea84440,
3d92112f,
3f000000,
3f000000,
3e8a8855,
3f000000,
3f000000,
3a558cfa,
35242b7b,
38e3ce0c,
3f000000,
3f000000,
3f000000,
3720fa40,
395b99b3,
3efa1ccb,
35a4dec7,
3a22f869,
3effffeb,
3eccc948,
3eccda65,
3eaaaaab,
3effbecf,
3bd59e0d,
3f000000,
3f000000,
3efe816e,
3effffe1,
3915ab0a,
3ee7e6a0,
3effc653,
3efc2cfd,
3f000000,
3e4c8553,
3e4c966a,
3eaaaaab,
3f000000,
3f000000,
3effbecf,
3effffeb,
3f000000,
3f000000,
3efe816e,
3effffe1,
334804c2,
3bbf48ba,
3ee7e6a0,
36009152,
3effc653,
3b6534e9,
3dc0cafd,
3a4145c8,
3efc2cfd,
3f000000,
3c3b735d,
3f000000,
3f000000,
3f000000,
3f000000,
3f000000,
3f000000,
3efe54c3,
3f000000,
33416254,
3f000000,
3efe54c3,
3f000000,
3effdbba,
3712a4a6,
3c067b19,
3a11187a,
3eefc552,
3ef963ee,
381eec89,
3f000000,
3effdbba,
3eefc552,
3ef963ee,
3c146557,
3f000000,
3f000000,
3d81cc3b,
3975db5a,
3efc13bb,
3efd3120,
3f000000,
3f000000,
3712a4a6,
3efc13bb,
3afa93ea,
3f000000,
3f000000,
3f000000,
3f000000,
3efffc7b,
3b7cb52b,
3f000000,
3c8e5916,
3c7a7282,
3efd3120,
3efffff4,
3f000000,
3f000000,
3effff06,
33286a42,
3efffc7b,
3eff034b,
3f000000,
3f000000,
3f000000,
3efff772,
38613c5d,
3f000000,
3efffeab,
3efffded,
3f000000,
3effff06,
37aa6494,
3efffff4,
363dae50,
3908f4f3,
3edbd191,
3c74a328,
3d216844,
3eff034b,
3f000000,
32f82709,
3f000000,
377b101e,
3efffeab,
3804df77,
3efff772,
3e10b9ba,
3ec52a3f,
3eab4b21,
3e78954f,
3f000000,
36bc8fc4,
3efffded,
3547ff6f,
3effffcf,
3f000000,
339151f1,
3ec08428,
364bc4a9,
3efe8bd3,
339151f1,
34b1b811,
3eefc663,
3335bce9,
3efd05ef,
3edbd191,
3ec52a3f,
3eab4b21,
3ec1d91e,
39eeedf0,
3effffcf,
3f000000,
3ef91233,
3ac5049a,
3cd7cf8f,
3efe8bd3,
3bba12e2,
3d81cccf,
3c3e6ac8,
3f000000,
339151f1,
3ec08428,
364bc4a9,
3c2b8c90,
3eefc663,
35f17d8b,
3efd05ef,
3e5c0cd0,
3e9514b8,
3ec1d91e,
37cedeb9,
36336e14,
3f000000,
3cddb9a0,
3eff9d7d,
3ef94183,
3ee7bb3e,
363793c6,
3c8444bf,
3ee7bb3e,
34790012,
355e66d8,
36336e14,
3f000000,
3efffd68,
399ff2bd,
37b4127b,
344f792e,
3effe081,
3effffa7,
3eaaaaab,
3e7896d2,
3e7896d2,
3ef91233,
3eff9d7d,
3ef94183,
3f000000,
3e76e014,
3dc5e0bd,
3da11355,
3b21dba4,
3be1aaef,
353509ce,
3ee3f39e,
3f000000,
3825efcf,
361c1ccd,
36156f40,
3effe081,
3effffa7,
3e89a195,
3ebad154,
323baa67,
3ebad154,
36bdde98,
36bdde9a,
3f000000,
3f000000,
3efffd68,
3eaaaaab,
3ec1da4b,
3ec1da4b,
3f000000,
3f000000,
3eaaaaab,
3ec1da4b,
3ec1da4b,
3e5930bb,
3ee3f39e,
3d2d745e,
3952774b,
373737b4,
3ec1da03,
3ec1da04,
3eaaaaab,
373737b4,
3ec1da03,
3ec1da04,
3eaaaaab,
3f000000,
3f000000,
3ab8e38d,
3ef2d6ad,
3c4c61a2,
37b67655,
3decff4c,
3e9367a2,
3ef7679c,
3ef478a7,
3eff622e,
393f20fa,
3a771995,
3d52870a,
3edf96ab,
3ef54cd8,
3ee0c5b1,
376149e3,
3d930446,
3ef54cd8,
3bcd326f,
3e789675,
3e789677,
3eaaaaab,
3e9367a2,
3ef7679c,
3d38758d,
3eff622e,
3f000000,
3f000000,
3f000000,
3ef2d6ad,
3edf96ab,
3d2a493c,
3ee0c5b1,
3efff40e,
3edfb624,
3efffd68,
368fdcec,
3effffef,
3e5930bb,
3d098635,
3ef478a7,
3b1dd239,
3f000000,
3efff40e,
3edfb624,
3825efcf,
3effffb9,
3f000000,
3efffd19,
35536c5c,
3efee5b9,
3ba69aed,
3f000000,
3f000000,
3effffbe,
3efffd68,
32f82439,
3effffef,
32b1cf10,
3f000000,
365ef136,
3efffd19,
3efee5b9,
3efeb293,
3f000000,
3e003056,
3eff8ed8,
38396fc7,
3f000000,
3b8d2388,
3efeb293,
3f000000,
3f000000,
3effffb9,
344d1921,
3f000000,
3f000000,
3f000000,
3f000000,
3effffbe,
3f000000,
3f000000,
3ae25288,
36845c3a,
3eff8ed8,
3f000000,
3f000000,
3f000000,
3ef2d785,
3d5287c2,
3c9bcc76,
3efffacf,
3efb219d,
38a62545,
3efb219d,
3efffacf,
3f000000,
3ef2d785,
3f000000,
3ef72bc6,
3f000000,
3f000000,
39702c62,
3f000000,
3effff41,
3c60b802,
354b99e8,
3efddc70,
3effdbba,
3effff56,
3f000000,
3ef72bc6,
3c18d436,
3f000000,
36cb454a,
3efe28bb,
3eedcb3e,
3d130647,
3efffff1,
3f000000,
3f000000,
3f000000,
3ba3d9e5,
3e4293c1,
3e93f124,
3e8fb7cd,
3b31a1b1,
397e322a,
3effff41,
3ef5d652,
3d81ccca,
3ed558c2,
3c08e443,
3effdbba,
371c913c,
3effff9a,
3ef55ad2,
3490e597,
3efe28bb,
3eedcb3e,
3ec241d3,
381eeb78,
3efffff1,
3f000000,
3f000000,
3f000000,
3e8fb7cd,
3e9393a5,
3e430f06,
3e0f881a,
3e9393a5,
3e6cecdf,
373e2c0c,
3cd4d9cd,
3eefc65a,
3e2a9cfb,
3efddc70,
3a11187a,
3effff56,
3f000000,
3ef478a7,
3e643ad7,
3efec872,
3d0d43ad,
3efd9caf,
3effff9a,
3ef55ad2,
3efffff8,
3beba20b,
3d91a47f,
3ec241d3,
3efffd85,
3568a6cd,
3e8fb7cd,
3c12b841,
3e07edb6,
3c4ce410,
3e6c5725,
3e93f124,
3ef5d652,
3eefc65a,
3ed558c2,
3559605b,
3f000000,
3ef478a7,
3ec6e456,
3b9955e9,
3e870c67,
32c92c0a,
3d2a52eb,
3efffff8,
3643afb0,
3e523723,
3efffd85,
3c12b841,
38cb44a7,
3efa5506,
3ec8cd20,
3f000000,
3f000000,
3f000000,
3f000000,
3f000000,
3f000000,
3d38758d,
394f4675,
3efec872,
36041a4d,
34791eb4,
3efd9caf,
3f000000,
3f000000,
3f000000,
3f000000,
34932678,
39d5d19b,
3b8a9c6a,
3da988be,
3847b185,
3946160a,
36d3ab64,
3efa5506,
3ec8cd20,
3f000000,
3f000000,
3f000000,
3f000000,
3ec6e456,
388fecb2,
3ebc79ad,
3efffffc,
3f000000,
3f000000,
3effe545,
3afda5e2,
3efffcc9,
3d79f5d1,
3c1a8efc,
3e1f0104,
3d8190a2,
3ee6df0c,
3ea84e42,
3953230f,
3efd1af5,
3ac5049a,
37f0b73d,
3effbf06,
3effe485,
3a81e435,
3f000000,
3f000000,
36c7d2c7,
3ebc79ad,
3efffffc,
3f000000,
3f000000,
3effe545,
3eff8118,
3c20f194,
32c953b3,
3efffcc9,
3d137485,
3efd55cc,
3ddd9ec7,
3c71f13a,
3db9ea6e,
37ffa679,
38e6e26b,
3ee6df0c,
3ea84e42,
3b13e83e,
33231787,
3efd1af5,
3eff9d7d,
3ed5572d,
33b46741,
3effbf06,
3effe485,
39db9dc9,
3f000000,
3f000000,
3efff503,
3f000000,
3f000000,
355f7c15,
3eff8118,
3efd6d0b,
3efc45bd,
3c00c2ec,
35c05f3a,
39f7b35d,
3efd55cc,
3b7cfe98,
3ee387d5,
3e7caf89,
3eee0bef,
3c3fd1b9,
3ebdffb3,
3e3c9161,
39f7b35d,
3b7cfe98,
3e7caf89,
3c3fd1b9,
3e3c9161,
3c3942bc,
3eff9d7d,
3ed5572d,
37b6490b,
3eff97df,
3a81f2e6,
39dbd6d5,
3effa21e,
37cef670,
3effff73,
3f000000,
3f000000,
3e952353,
3e39ae1f,
3e39ae1f,
3aa4df9f,
3e800000,
392fd97b,
3f000000,
36898007,
3ef3e130,
3efeb667,
3eeb2266,
3efffb1d,
3ef95b14,
3aa55a3f,
35a089b3,
3efd6d0b,
3efc45bd,
3efdfcf3,
3a7fdcf7,
3d9219df,
3ee387d5,
3dfc5baf,
3eee0bef,
39905b63,
3e84009c,
3d23b0a7,
39d2b4c9,
334c0276,
3c0c4716,
3ea8080b,
3d23b0a7,
3e4f572b,
3490de95,
3ef50ff7,
3ad0415a,
3efffe83,
37be25f9,
3efffdd6,
3700e69f,
3ef1c303,
3efff503,
3f000000,
3e55b95c,
3e90cba9,
3e90cba9,
3ea697ef,
3e800000,
3e55b95c,
3e90cba9,
3e90cba9,
3ea697ef,
3e800000,
3c0791d2,
3ef3e130,
3efeb667,
3d3e7768,
35cdd840,
3efffb1d,
3ef95b14,
3ee92cf1,
34b0fcc2,
3972fdad,
3c6e9095,
3efdfcf3,
3dc5832f,
3cd51020,
3d8f908c,
36a93728,
3ebdffb3,
3b8de8ff,
371a3a03,
39c17e7e,
3e44cab4,
3d699889,
3e3c9161,
3d5a9e10,
3e18768c,
3e2a9bb7,
3d2ee9ac,
3eff97df,
3effa21e,
370c1974,
3effff73,
354d49d4,
33fc2c57,
33fc2c57,
3ea697ef,
3e952353,
3e81919a,
3e81919a,
3cb9353c,
3e800000,
3edaf234,
3ef94170,
3c0791d2,
3da0c7f5,
3d41ed00,
3ba41052,
3eeb2266,
3987046a,
389ac2c9,
3cd49756,
3ee92cf1,
3a12e59e,
3e868c8d,
3df1cfe5,
3e3ec331,
3e2f2df6,
3e55f838,
3ea8080b,
3d784d08,
3e4f572b,
3dfb0b13,
3e3f77eb,
3ef50ff7,
3efffe83,
36043065,
3efffdd6,
3547ff0b,
3ef1c303,
3d8176b8,
3f000000,
32b1a32b,
3ee74ecc,
3a7cc8d8,
3edaf234,
3eee7629,
3ef934db,
3bba1208,
3e5ed815,
39eeef79,
3d6ffc80,
39a131d2,
3684598b,
3ee8082d,
3e2e8891,
3f000000,
3f000000,
3ea9d922,
37bc4c2c,
3d0f623f,
3effeef9,
3efd4b15,
3e407445,
38e71cef,
3645bd4b,
3db40318,
3effdb3d,
3efffe94,
3e7feebc,
3e243f9f,
37329a86,
3f000000,
3d1d3a76,
3e70e99b,
39ef50c4,
3d101f1a,
3b657a45,
3c54dcb9,
3e2ac8ea,
3bcc8ad1,
3e3c9161,
3e08aff2,
3e43c437,
3e3f77eb,
395e9014,
3eae7e84,
3e14361b,
3ef94170,
3d8c4eb2,
3f000000,
3f000000,
3efffea3,
3ee74ecc,
3effc0ce,
3ede5461,
368f0b46,
3efc6b7a,
3d342c16,
3efe8aa9,
3b97e9cf,
331d1895,
3e5ed815,
3effe221,
3eac2d7e,
3e84f90b,
3ba693f2,
3e3753cc,
3d9dbea5,
3886a32e,
3d43a5dc,
3e3ce8ec,
3b9e675a,
3ce6d4c0,
3e7290a6,
3c5d5b6d,
3885e729,
358c2ad9,
3effeef9,
3efd4b15,
3e0dc89e,
37e032e8,
3effdb3d,
3efffe94,
3eac706a,
3ef159cc,
3e7feebc,
3e243f9f,
3ef480b1,
35ce1c7a,
3861afbd,
3effeed5,
34283343,
3ba42a89,
395e4aba,
3585b4b1,
3f000000,
33ba529e,
3ce097d5,
3eae5521,
3bdb5b33,
3e3ec331,
3e2f2df6,
3e55f838,
3a934b69,
3e9c24f0,
36db3fc7,
3c4fc57e,
37be6ab1,
3effffdf,
3d9b8b3c,
3d63cefa,
3eef275a,
3ef6af58,
3eff3d14,
3f000000,
3efffea3,
3e06acc6,
3f000000,
3ab74dfa,
3effc0ce,
36d9c336,
3cd7cf81,
3eee7629,
3f000000,
3f000000,
3ef934db,
32eb170a,
3ef32e81,
3eb754c7,
3414ade1,
3effffff,
3371e174,
3e7235ca,
3dc14d63,
3e459338,
3ea6101f,
3efe8aa9,
3622c697,
376c255a,
3efc6b7a,
3cbe37d8,
392ed2bb,
3effe221,
3ef0ec11,
3e199f54,
3efffa8d,
33c99940,
3f000000,
3f000000,
3f000000,
3ea442ee,
3e89a552,
3c335e6a,
3e74772a,
3ee8082d,
3ad133b2,
3323cce2,
3cb2783e,
3f000000,
3f000000,
3ed44514,
3eee0058,
3efffaf0,
3f000000,
3685bfb6,
3eff8dfc,
3f000000,
3effc0a5,
3b75cf79,
3f000000,
3f000000,
3f000000,
3f000000,
3ea9d922,
3eec8e88,
3d2a52ef,
354f7d77,
3c2d3a32,
3eac706a,
3d69d3c0,
34556017,
37b5cd57,
36bcbed6,
3ef159cc,
3e7feebc,
3eaddb68,
3d2e836a,
3e7feebc,
3eaddb68,
3b1718e3,
3ed13f4d,
3a81f088,
3b113a16,
3f000000,
3effeed5,
36a0c500,
3ef62c58,
3f000000,
3eb6b83f,
3c9bb2ad,
3e2a93ad,
3a8d3a62,
392393ae,
3f000000,
3a6ca578,
3e81880f,
3991cd68,
3e24b29e,
3e91bd0f,
3ea0b8d1,
3e43c437,
3e3f77eb,
395e9014,
3eae7e84,
352a168d,
3b5b1266,
3efffff9,
3a2354b4,
3effffdf,
3eec8e98,
3f000000,
3b29cfe3,
3ef6af58,
395afe3c,
35a086e1,
3f000000,
37af3136,
3ede5461,
3f000000,
3f000000,
3c162c92,
3ef32e81,
368fc8d5,
3f000000,
3c8e3e36,
3b11c4d1,
3734a6e2,
3eb754c7,
37c24564,
3bc82464,
33b74acd,
3db73a55,
39eee9bb,
3eac2d7e,
3daf184a,
345f1e7c,
3e7235ca,
3e418da0,
3e09b0bd,
3ea6101f,
392ef4a1,
3c181c4a,
3eeeca22,
355960de,
370bc3f8,
3efe7692,
3501bc41,
3efea7e8,
3f000000,
3ef0ec11,
3ea442ee,
3e89a552,
3d6d6aa5,
3ebea315,
3f000000,
3f000000,
38a62510,
399961c5,
3aaa1fbe,
3eee57a5,
3c87e3f3,
3b004fbd,
3e935069,
3ef228db,
3efa5ed1,
3ad133b2,
3ef228db,
3956d0f2,
3f000000,
3f000000,
3eff8dfc,
3f000000,
3f000000,
3a7cc8ae,
3f000000,
3ae251c5,
32c142e8,
3effc0a5,
3f000000,
3f000000,
3f000000,
3f000000,
3f000000,
3f000000,
3ea9d922,
3eec8e88,
3ef55ad1,
341aaa06,
3ea0d277,
3ea10eda,
3eab5883,
3e6f32e3,
3ea0d277,
3ea10eda,
3e95205d,
3eab9dac,
39894b5d,
37a18077,
3ef480b1,
3e3afffd,
3effba5f,
38909937,
3eff6d21,
370bf392,
3884e87c,
3efff9dd,
37bdfe8f,
3effb89d,
34cd4f91,
3d45d3cf,
3eb3d3bf,
3ed54d20,
3effffb0,
3ef62c58,
3f000000,
3eb6b83f,
3eb3d3bf,
3ed54d20,
3559244c,
36519302,
3dc3fa0b,
3504966b,
3eae5521,
3d1dc9db,
3da9769e,
3bed91b3,
3e4f70fe,
3b4c46ef,
3d3cbf2a,
3ea773fb,
34cd5d51,
3e93df0f,
3eef275a,
3d150a76,
3eff3d14,
3f000000,
3d4d0c9d,
3f000000,
3f000000,
3f000000,
3f000000,
3f000000,
35f69adb,
3efffff3,
3eff61a3,
36faf666,
3effffff,
379ef0df,
3efffff3,
3eff61a3,
3bbf40a5,
38833055,
3eeeca22,
3b1dd1e8,
3efe7692,
3efea7e8,
3f000000,
3efffa8d,
3f000000,
3e3753cc,
3e6f97d1,
3eee57a5,
3ebea315,
3c80cfd3,
3e935069,
3d124e88,
3efa5ed1,
3f000000,
3f000000,
3f000000,
3f000000,
39c635e8,
3f000000,
3eee0058,
389099d3,
3ed44514,
3d8ffb28,
3efffaf0,
3eff0a30,
3f000000,
3620681d,
3f000000,
375a211f,
370c17de,
3eff0a30,
3f000000,
3f000000,
3f000000,
3f000000,
3f000000,
3f000000,
3f000000,
3f000000,
3b9b0e67,
3d9b8b31,
3ef55ad1,
3e93f6a8,
3e80f715,
3eab5883,
3dc4acd4,
3da991a9,
3df3ace1,
3d2174df,
3eab9dac,
39891dda,
3e8c0cae,
3effffb0,
3ed13f4d,
3effba5f,
37cef33a,
3eff6d21,
36333c4a,
3b301b86,
3700c3d7,
3efff9dd,
357cc689,
3624b6e8,
3effb89d,
3b4c46ef,
3efffff9,
3e81880f,
3a2c7801,
3de58e63,
3ea773fb,
32a3978b,
3ea0b8d1,
3eec8e98,
3f000000,
3b353bb2,
3f000000;