memory_initialization_radix=16;
memory_initialization_vector=001,
030,
031,
004,
006,
004,
006,
00c,
00d,
00c,
00d,
00f,
00d,
00f,
010,
011,
041,
010,
011,
013,
043,
014,
015,
014,
015,
016,
074,
078,
018,
049,
04a,
019,
047,
048,
018,
01a,
01b,
01c,
049,
07a,
01b,
049,
04a,
04b,
04c,
04d,
01a,
01c,
07a,
01f,
020,
01f,
020,
021,
082,
023,
054,
081,
024,
053,
025,
026,
025,
026,
029,
059,
05b,
08a,
02e,
05c,
08c,
001,
030,
031,
001,
030,
031,
038,
03a,
03b,
03c,
03b,
03c,
06d,
06e,
03f,
06f,
041,
010,
041,
042,
072,
013,
043,
046,
047,
048,
019,
046,
047,
048,
019,
046,
047,
048,
018,
01a,
01b,
049,
07a,
018,
01b,
049,
04a,
04b,
04c,
01b,
04a,
04b,
04c,
079,
01b,
04a,
04b,
04c,
04d,
01b,
04c,
04d,
04e,
01c,
04d,
04e,
04f,
050,
080,
051,
07f,
024,
053,
023,
054,
057,
087,
058,
088,
029,
059,
05b,
08a,
029,
059,
05b,
08a,
02e,
05c,
08c,
060,
0c2,
061,
062,
091,
061,
062,
091,
063,
092,
064,
065,
066,
068,
06a,
069,
068,
06a,
06b,
03c,
06d,
06e,
03c,
06d,
06e,
03f,
06f,
070,
071,
042,
072,
016,
074,
075,
076,
077,
075,
076,
077,
075,
076,
077,
016,
078,
04b,
079,
018,
01a,
01b,
01c,
049,
07a,
07b,
07c,
07d,
07e,
07c,
07d,
07c,
07e,
051,
07f,
050,
080,
023,
081,
021,
082,
083,
084,
085,
086,
084,
085,
086,
084,
085,
086,
057,
087,
058,
088,
089,
029,
059,
05b,
08a,
02e,
05c,
08c,
090,
0c1,
0f0,
061,
062,
091,
063,
092,
066,
065,
038,
069,
06b,
03a,
03b,
03c,
06f,
070,
071,
077,
04b,
079,
078,
07d,
07c,
07d,
07e,
07b,
04f,
083,
084,
084,
0b5,
057,
087,
0b5,
0b6,
057,
087,
0b5,
0b6,
057,
087,
058,
088,
0bd,
0be,
0bd,
0be,
090,
0c1,
0f0,
060,
0c2,
0f2,
120,
061,
062,
091,
122,
064,
122,
072,
074,
074,
077,
07b,
078,
07a,
083,
083,
0e2,
0e3,
083,
0e2,
0e3,
083,
083,
087,
089,
0ed,
0ed,
090,
0c1,
0f0,
0f1,
0f0,
0f1,
0c2,
0f2,
120,
122,
152,
10d,
13c,
10e,
13d,
13e,
10f,
13e,
13f,
17e,
0c2,
0f2,
120,
121,
150,
122,
0f1,
10d,
13c,
10e,
13d,
13e,
10e,
10f,
13d,
13e,
13f,
10f,
13e,
13f,
140,
13f,
140,
14d,
121,
150,
151,
1b2,
152,
180,
0f2,
17e,
152,
180,
181,
182,
1b1,
181,
182,
1b1,
1e1,
14d,
181,
182,
1b1,
212,
151,
1b2,
182,
1b1,
1e1,
212,
1df,
20e,
182,
1e1,
212,
211,
20d,
1df,
20e,
210,
241,
211,
1b1,
1e1,
212,
272,
20d,
240,
271,
2a2,
210,
241,
2a1,
242,
242,
26d,
210,
270,
2a2,
2d0,
240,
271,
2a2,
272,
2d1,
26d,
29f,
2ce,
2ff,
241,
2a1,
240,
270,
271,
2a2,
2d0,
26d,
29f,
2ce,
2ff,
32f,
2cf,
32d,
2d0,
272,
2d1,
300,
2fe,
32d,
32e,
2fd,
2fe,
2fd,
2fe,
32d,
32e,
29f,
2ce,
2ff,
32f,
35f,
2d1,
300,
302,
332,
362,
2fd,
2fd,
2fe,
32e,
2cf,
2fe,
32d,
32e,
38d,
2fe,
32d,
32e,
2ce,
2ff,
32f,
35f,
38f,
331,
302,
332,
362,
35d,
38d,
35d,
35d,
35f,
38d,
38f,
35e,
3be,
2ff,
32f,
35d,
35f,
38f,
360,
3c0,
3c2,
302,
332,
362,
331,
32d,
38d,
35d,
38d,
32d,
35d,
38d,
38e,
3be,
32f,
35d,
35f,
38f,
3bd,
3bd,
3ee,
3bd,
3ee,
3ef,
35e,
38e,
3be,
360,
3c0,
3c2,
3c1,
3f0,
360,
3c0,
3c2,
422,
38d,
44d,
44e,
3bd,
3ee,
3ef,
44f,
3bd,
3ee,
3ef,
44f,
3c1,
3f0,
3bd,
41f,
44d,
44e,
47d,
422,
450,
480,
451,
47e,
4ad,
41f,
44d,
44e,
47d,
41f,
44d,
44e,
47d,
3ee,
3ef,
44f,
422,
450,
480,
451,
482,
452,
4b1,
41f,
44d,
44e,
47d,
47e,
4ad,
47f,
4ae,
4dd,
422,
450,
480,
451,
482,
47e,
4ad,
47f,
4ae,
50f,
4af,
4dd,
4df,
50d,
452,
4b1,
53d,
47f,
4af,
4dd,
50f,
4de,
50d,
4af,
4df,
50d,
512,
4ad,
56e,
4af,
4de,
4df,
50d,
50e,
56f,
4ae,
4dd,
50f,
511,
540,
512,
53d,
511,
540,
56e,
53d,
56e,
50e,
56f,
572,
5a2,
5a2,
59d,
59e,
59d,
59e,
59d,
59e,
572,
5a2,
5d0,
600,
602,
5fd,
62d,
5fd,
5fe,
62e,
65e,
5ff,
62f,
65f,
5d0,
600,
661,
602,
657,
628,
658,
688,
629,
659,
62a,
65a,
62d,
65d,
68d,
62d,
65d,
68d,
5fe,
62e,
65e,
68e,
5ff,
62f,
65f,
657,
687,
6b7,
628,
658,
688,
6b8,
629,
659,
62a,
65a,
62d,
65d,
68d,
62d,
65d,
68d,
5fe,
62e,
65e,
68e,
5ff,
62f,
65f,
68f,
660,
690,
6c1,
600,
661,
657,
687,
6b7,
628,
658,
688,
6b8,
629,
62d,
6bd,
6ed,
62d,
65d,
68d,
62e,
65e,
68e,
65f,
68f,
660,
690,
6c1,
6f2,
657,
687,
6b7,
658,
688,
6b8,
6bd,
6ed,
6bd,
6ed,
6be,
6ee,
6bf,
6ef,
6c0,
721,
660,
690,
6c1,
6f2,
722,
661,
6c9,
6ca,
6c9,
6ca,
6b7,
71b,
6bd,
6ed,
71c,
71d,
74d,
6bd,
6ed,
6be,
6ee,
6bf,
6ef,
690,
6c1,
6f2,
722,
70d,
73d,
71b,
74b,
71c,
71d,
74c,
74d,
77d,
71d,
74d,
77d,
71e,
74e,
77e,
71f,
74f,
77f,
6c0,
721,
6c1,
6f2,
722,
70d,
73d,
71b,
74b,
77b,
7ab,
71c,
71d,
74c,
74d,
77c,
77d,
7ac,
7ad,
71d,
74d,
77d,
7ad,
71e,
74e,
77e,
7ae,
71f,
74f,
77f,
750,
780,
751,
782,
7b0,
7a4,
74b,
77b,
7ab,
7db,
71c,
71d,
74c,
74d,
77c,
77d,
7ac,
7ad,
7dc,
7dd,
71d,
74d,
77d,
7ad,
7dd,
71e,
74e,
77e,
7ae,
7de,
71f,
74f,
77f,
7af,
7df,
750,
780,
781,
7b1,
7b2,
7e0,
7e1,
751,
782,
7e2,
7a3,
7d3,
803,
7a4,
7d4,
804,
74b,
77b,
7ab,
7db,
74c,
74d,
77c,
77d,
7ac,
7ad,
7dc,
7dd,
80d,
74d,
77d,
7ad,
7dd,
80d,
77e,
7ae,
7de,
80e,
77f,
7af,
7df,
80f,
751,
7b0,
781,
7b1,
7b2,
7e0,
7e1,
781,
7b1,
7b2,
7e0,
7e1,
812,
7a3,
7d3,
803,
833,
7a4,
7d4,
804,
834,
77b,
7ab,
7db,
77c,
77d,
7ac,
7ad,
7dc,
7dd,
80d,
83d,
77d,
7ad,
7dd,
80d,
83d,
77e,
7ae,
7de,
77f,
7af,
7df,
80f,
7b1,
7b2,
7e0,
781,
7b1,
7b2,
7e0,
7e1,
7e2,
840,
812,
812,
7a3,
7d3,
803,
833,
7a4,
7d4,
804,
834,
7ad,
7dd,
80d,
83d,
86d,
7ad,
7dd,
80d,
83d,
86d,
7ae,
80e,
86e,
7af,
7df,
80f,
86f,
810,
871,
812,
871,
7e2,
872,
874,
876,
875,
879,
87b,
87b,
87d,
882,
884,
88c,
891,
892,
7d3,
803,
833,
863,
893,
894,
7d4,
804,
834,
864,
895,
896,
897,
898,
89a,
89b,
7dd,
80d,
83d,
86d,
89c,
89d,
7dd,
80d,
83d,
86d,
89c,
89d,
7e2,
840,
872,
8a0,
841,
870,
812,
871,
8a1,
876,
877,
8a7,
876,
877,
8a7,
875,
879,
8a5,
8a6,
8a8,
87f,
8ad,
8af,
882,
8b1,
8b2,
882,
8b1,
8b2,
892,
8c2,
833,
863,
893,
894,
834,
864,
893,
894,
895,
896,
8c6,
895,
896,
899,
89b,
8c9,
8cb,
80d,
86c,
86d,
89c,
8cc,
8cd,
80d,
83d,
86d,
89c,
89d,
8cc,
8cd,
80e,
86e,
89e,
80f,
86f,
89f,
8cf,
841,
870,
8a1,
810,
812,
871,
8a1,
840,
872,
873,
8a2,
874,
875,
8a3,
8a4,
8a6,
8d6,
874,
875,
8a4,
8a5,
8a6,
876,
877,
876,
877,
8a7,
8d8,
879,
87b,
8ad,
87d,
8af,
8dd,
87e,
8ae,
87f,
8ad,
8af,
8df,
882,
8b1,
8b2,
8e2,
883,
8e4,
884,
8e5,
8e6,
885,
8e5,
886,
8b4,
8b7,
8e8,
88c,
88e,
8c0,
891,
892,
8c2,
8f2,
833,
863,
893,
894,
834,
864,
893,
894,
895,
896,
8c6,
895,
896,
8c6,
897,
8c7,
8f8,
898,
899,
8f7,
89a,
8ca,
89b,
8c9,
8cb,
8f9,
83d,
86c,
86d,
89c,
89d,
8cc,
8cd,
8fd,
83d,
86d,
89c,
89d,
8cc,
8cd,
8fc,
8fd,
86e,
89e,
8fe,
86f,
89f,
8cf,
840,
8a0,
870,
8a1,
873,
8a2,
874,
8a3,
8a4,
8d1,
874,
875,
8a3,
8a4,
8a5,
8a6,
8d6,
875,
8a4,
8a5,
8a6,
874,
875,
8a4,
8a5,
8a6,
8a8,
877,
8a7,
8d5,
8d7,
8d8,
8a6,
8a8,
8da,
87b,
87f,
8ad,
8af,
8df,
87e,
8ae,
87d,
87f,
8ad,
8af,
8df,
882,
8b1,
8b2,
8e2,
8b1,
8b2,
8e2,
8b3,
8e3,
886,
8b4,
8b6,
8b7,
8e7,
886,
8b6,
8b7,
8ba,
8ea,
88e,
8c0,
8c1,
8f1,
892,
8c2,
8f2,
863,
8c3,
8c4,
8f3,
8f4,
8c3,
8c4,
8f3,
8f4,
895,
896,
8c6,
897,
8c7,
8c8,
8f8,
8f9,
8c7,
8c8,
8f8,
8f9,
899,
89b,
8c9,
8cb,
8f7,
89a,
8ca,
89b,
8c9,
8cb,
8f9,
86d,
89c,
89d,
8cc,
8cd,
8fd,
86d,
89c,
89d,
8cc,
8cd,
8fc,
8fd,
86f,
89f,
8cf,
8ff,
8a3,
8d1,
8d3,
8d4,
8d3,
8d4,
8a7,
8d5,
8d7,
874,
8d6,
8a7,
8d5,
8d7,
8d8,
877,
8a7,
8d7,
8d8,
8a8,
8da,
87d,
8dd,
87f,
8ad,
8af,
8df,
882,
8b1,
8b2,
8e2,
8b3,
8e3,
883,
8e4,
884,
885,
8e5,
8e6,
884,
8e5,
8e6,
8e8,
8b6,
8b7,
8e7,
886,
8e6,
8e8,
8ba,
8ea,
8ef,
8f0,
8ef,
8f0,
8c1,
8f1,
892,
8c2,
8f2,
8c3,
8c4,
8f3,
8f4,
8c3,
8c4,
8f3,
8f4,
899,
8c9,
8f7,
897,
8c7,
8c8,
8f8,
8f9,
89b,
8c7,
8c8,
8cb,
8f8,
8f9,
89d,
8fc,
89c,
89d,
8cc,
8cd,
8fc,
8fd,
89e,
8fe,
8cf,
8ff;