memory_initialization_radix=16;
memory_initialization_vector=3efffff3,
355960d8,
30dce838,
3efffff3,
3f000000,
3f000000,
3f000000,
3f000000,
3f000000,
3f000000,
3c18d436,
3efd9caf,
3efd9caf,
3f000000,
3f000000,
3efffacf,
38a62544,
3efffacf,
3f000000,
3f000000,
3f000000,
3f000000,
3f000000,
3f000000,
3f000000,
3f000000,
3effffe5,
318655bf,
35d3b296,
3effffe5,
3442d4ae,
3d4d0d29,
3ef32f28,
3442d4ae,
3ef32f28,
314c0f9f,
3ed355cc,
3e32a8cf,
314c0f9f,
3ed355cc,
316c511a,
2cf0272e,
316c511a,
32739acd,
3c8bb1b4,
3efba273,
3efba273,
3300fe1d,
3c07c26b,
3da10198,
3404f880,
3c07c26b,
3ee7a1b7,
3300fe1d,
3ee7a1b7,
3eaaaa72,
36abde47,
3eaaaa72,
3eaaaa72,
3f000000,
3f000000,
3f000000,
3f000000,
3f000000,
3f000000,
3efffffe,
33f1fb29,
3efffffe,
3f000000,
3f000000,
3f000000,
3f000000,
3f000000,
3f000000,
392b0868,
3efff54c,
345ee2d0,
3efff54c,
3c7a74ef,
3efc162c,
3efc162c,
3dd80e83,
3ee4fe2f,
3ee4fe2f,
344d192c,
3efffffd,
3efffffd,
2d7451bd,
2d7451bd,
3f000000,
3f000000,
3f000000,
3f000000,
37f47f9d,
3efffe16,
3efffe16,
3c14a47f,
3efd9cd8,
398426b4,
3582c96d,
3efd9cd8,
3f000000,
320e319c,
3f000000,
2c3386eb,
2c3386eb,
3efffff2,
356c44fc,
3efffff2,
3f000000,
3f000000,
3f000000,
3f000000,
3e844e16,
3ebdd8f6,
3ebdd8f6,
3a65a8b0,
3dee4823,
3ee1fd92,
3ee1fd92,
39b8e343,
3e22cd58,
3ed7358e,
3ed7358e,
3c927ebc,
3ea4900e,
3c927ebc,
327f76d8,
3ea4900e,
3ea4900e,
3c3b282c,
3c3b282c,
308998f4,
3bbaea0f,
3ef8b0eb,
2e442a53,
3ef8b0eb,
3466a4aa,
3d8b747a,
3eed0348,
324d5202,
3bc7124a,
3eed0348,
3a9c069f,
3ef5e153,
3d1d0a8c,
33950530,
3ef5e153,
3ec5b099,
34dd53d0,
3e693d7e,
3ec5b099,
2c7ae019,
3f000000,
3f000000,
3f000000,
3f000000,
3f000000,
3f000000,
32236144,
3f000000,
3f000000,
2fbf839d,
2fbf839d,
3f000000,
3f000000,
3f000000,
3f000000,
2d04ba02,
2bb883f2,
3effe7b8,
368fcf6f,
35a4cf31,
39bf5742,
3effe7b8,
33f1fb29,
3efffffe,
3efffffe,
39e84a28,
39e84a28,
3effc5ed,
3effc5ed,
3efff54c,
392b0868,
345ee2d0,
3efff54c,
3afcde3d,
3eff8191,
3eff8191,
3f000000,
3f000000,
3ec82656,
3e5f6196,
37a1d0e4,
3ec82656,
3eb26070,
3e9b3ee3,
35fa0c9b,
3eb26070,
3f000000,
3f000000,
3f000000,
3f000000,
3f000000,
31773036,
3f000000,
3f000000,
3f000000,
3f000000,
3f000000,
2d04c69a,
3f000000,
3f000000,
3f000000,
318655c6,
3f000000,
3f000000,
3f000000,
3ad0415a,
3eff97df,
3eff97df,
355960df,
3efffff2,
3efffff2,
3ed13fe0,
3e3b0081,
3ed13fe0,
3f000000,
3f000000,
3f000000,
3f000000,
3cf6ff11,
3ef84806,
3ef84806,
3b94d852,
2cf2af6c,
3efe49b0,
3b0c9e69,
3efe49b0,
3efff9b2,
38c9cd8e,
31bb7628,
3efff9b2,
2d3de221,
3eff23f3,
3b5c0c34,
2d3de221,
2d3de221,
3eff23f3,
30ef4b30,
3b44e72f,
3dd7684b,
353c8cfc,
2fb9e10f,
3ee44e03,
3ee44e03,
326a710a,
2e14c472,
3da3b82c,
3eeb88fa,
3eeb88fa,
32c6b476,
3f000000,
3f000000,
3160ada1,
2ce45357,
3eef3dda,
3160ada1,
32679b71,
3c84d072,
3d49ba1f,
3eef3dda,
30733ed7,
3edbd192,
3e10b9bb,
3edbd192,
355960d3,
355960d3,
3effffe5,
3effffe5,
365e9ee0,
3efe548d,
3bd59de0,
3efe548d,
3efffee8,
378c4897,
3efffee8,
3f000000,
3f000000,
3f000000,
3f000000,
3f000000,
3f000000,
3f000000,
3f000000,
343c244c,
303a3308,
3ea84440,
3d92112f,
3e8a8855,
3a558cfa,
35242b7b,
3ea84440,
3c08697a,
3b66a422,
3ee8bebf,
3da1c7b8,
2fa9912d,
3ee8bebf,
2bb86699,
3a81f2e6,
3effbf06,
30629c37,
3effbf06,
2a803fe6,
39dbd6d5,
3effe485,
3effe485,
3ed4e0fb,
3c2e20d7,
3b9b9d66,
3e1ca0a4,
306b90dd,
38e3ce0c,
3ed4e0fb,
3effeb2f,
39a6899e,
3effeb2f,
3f000000,
3f000000,
35177dc6,
3effffed,
35177dc6,
3effffed,
30dc9ef1,
2af993b4,
30dc9ef1,
3d700f66,
3ef0ff0b,
3ef0ff0b,
2e49edb9,
3effff5f,
3720fa40,
3effff5f,
3e7896d1,
3ec1da4a,
336af9e0,
2a72aaa6,
3ec1da4a,
3f000000,
3f000000,
31abbc3d,
31abbc3d,
3b48a5ba,
3eff375b,
3eff375b,
3f000000,
3f000000,
3f000000,
3f000000,
3f000000,
3f000000,
2e9d437f,
2af993b4,
2e9d437f,
3efff246,
2aa032b2,
395b99b3,
3efff246,
39ab1d12,
3eccc948,
3e4c8553,
3eccc948,
2d7451bd,
2d7451bd,
3f000000,
3f000000,
3f000000,
3f000000,
2b03ead6,
2b03ead6,
3f000000,
3f000000,
3cb74ec6,
3efa1ccb,
3a22f869,
3efa1ccb,
35a4dec7,
3effffeb,
3effffeb,
3eccda65,
3e4c966a,
33416254,
3eccda65,
3f000000,
3f000000,
3efe816e,
3bbf48ba,
3efe816e,
3ee7e6a0,
3dc0cafd,
3ee7e6a0,
2d7451bd,
2d7451bd,
2b03ead6,
2b03ead6,
3eaaaaab,
3eaaaaab,
3eaaaaab,
3f000000,
3f000000,
3a81f2c9,
365fdbf7,
3effbecf,
3effbecf,
3f000000,
3f000000,
3effffe1,
36009152,
3effffe1,
3915ab0a,
3effc653,
334804c2,
3a4145c8,
3effc653,
3efc2cfd,
3b6534e9,
3c3b735d,
3efc2cfd,
3f000000,
3f000000,
3f000000,
3f000000,
3f000000,
3f000000,
3f000000,
3f000000,
3bd59e0d,
2db348d9,
3efe54c3,
3efe54c3,
3f000000,
2ed5be54,
3f000000,
3f000000,
3f000000,
3a11187a,
3effdbba,
2e618946,
3effdbba,
3712a4a6,
3eefc552,
3d81cc3b,
3712a4a6,
3eefc552,
2c30c725,
2c30c725,
3c067b19,
3ef963ee,
3975db5a,
3035edff,
3c8e5916,
3ef963ee,
3f000000,
3f000000,
2c30c725,
2c30c725,
3f000000,
3f000000,
381eec89,
313d8f79,
3efc13bb,
3c7a7282,
3efc13bb,
3f000000,
31ac7d55,
3f000000,
3f000000,
3f000000,
3efffc7b,
38613c5d,
3efffc7b,
3f000000,
3f000000,
3c146557,
3efd3120,
3afa93ea,
3efd3120,
2c33c292,
3f000000,
32f82709,
3f000000,
3b7cb52b,
3eff034b,
3eff034b,
3035a2a6,
3f000000,
2efc8209,
3f000000,
3908f4f3,
3efff772,
3efff772,
3115ed6b,
2c7400a5,
32236144,
3f000000,
32236144,
3f000000,
3effff06,
31f0b996,
377b101e,
3effff06,
3efffff4,
2a804da6,
3547ff6f,
3efffff4,
3e10b9ba,
3edbd191,
3edbd191,
3f000000,
3f000000,
33286a42,
3efffeab,
37aa6494,
2b299a08,
3efffeab,
3c74a328,
3ec52a3f,
3e5c0cd0,
3ec52a3f,
3f000000,
3f000000,
3efffded,
3804df77,
3efffded,
363dae50,
31572238,
3effffcf,
3effffcf,
34b1b811,
3efe8bd3,
3bba12e2,
31a23ddb,
3efe8bd3,
339151f1,
339151f1,
3d81cccf,
339151f1,
3eefc663,
3eefc663,
3d216844,
3eab4b21,
3e9514b8,
399ff2bd,
3eab4b21,
3f000000,
3f000000,
2fbf839d,
2fbf839d,
3cddb9a0,
3ef91233,
3ef91233,
36bc8fc4,
3ec08428,
3335bce9,
35f17d8b,
3e76e014,
3134cc14,
3be1aaef,
3ec08428,
364bc4a9,
308bfe8f,
3efd05ef,
3c3e6ac8,
364bc4a9,
3efd05ef,
3e78954f,
3ec1d91e,
37b4127b,
361c1ccd,
3ec1d91e,
3f000000,
3f000000,
3ac5049a,
3eff9d7d,
3eff9d7d,
3ee7bb3e,
3c8444bf,
344f792e,
2ce3632c,
3da11355,
353509ce,
36156f40,
3ee7bb3e,
3f000000,
3f000000,
39eeedf0,
37cedeb9,
34790012,
3effe081,
3effe081,
3eaaaaab,
3eaaaaab,
3eaaaaab,
3cd7cf8f,
3ef94183,
3ef94183,
3c2b8c90,
363793c6,
355e66d8,
3dc5e0bd,
3b21dba4,
3ee3f39e,
3ee3f39e,
3f000000,
3f000000,
36336e14,
36336e14,
3effffa7,
3effffa7,
2c3386eb,
2c3386eb,
2c3386eb,
2c3386eb,
2c3386eb,
3e89a195,
3ebad154,
373737b4,
373737b4,
3ab8e38d,
3ebad154,
3efffd68,
3825efcf,
3efffd68,
3e7896d2,
3ec1da4b,
3ec1da4b,
3f000000,
3f000000,
3e7896d2,
3ec1da4b,
3ec1da4b,
323baa67,
36bdde98,
3ec1da03,
3e789675,
3ec1da03,
36bdde9a,
3ec1da04,
3e789677,
3ec1da04,
30d6dafa,
3f000000,
3f000000,
3d52870a,
376149e3,
3ef2d6ad,
3ef2d6ad,
3e5930bb,
3e9367a2,
3e5930bb,
3e9367a2,
3d2d745e,
3c4c61a2,
3d930446,
3edf96ab,
3edf96ab,
3952774b,
37b67655,
3ef54cd8,
3d2a493c,
3ef54cd8,
3eaaaaab,
3eaaaaab,
3eaaaaab,
3ef7679c,
3d098635,
3ef7679c,
3eff622e,
3b1dd239,
3eff622e,
2d54e9c3,
3f000000,
3f000000,
3decff4c,
3ee0c5b1,
3bcd326f,
3ee0c5b1,
393f20fa,
3efff40e,
2d087da7,
3efff40e,
3825efcf,
3efffd68,
3efffd68,
3ef478a7,
3d38758d,
3ef478a7,
3f000000,
3f000000,
3a771995,
3edfb624,
2f3b06e1,
3e003056,
3edfb624,
368fdcec,
3effffb9,
3effffb9,
32f82439,
3efffd19,
38396fc7,
3efffd19,
3f000000,
3f000000,
3effffef,
35536c5c,
2fd06d78,
344d1921,
2e992755,
3effffef,
3f000000,
3f000000,
3efee5b9,
2d73952c,
3b8d2388,
3efee5b9,
3ba69aed,
365ef136,
3efeb293,
3efeb293,
3f000000,
3f000000,
3f000000,
32b1cf10,
3f000000,
3f000000,
3f000000,
3f000000,
3f000000,
3effffbe,
36845c3a,
3effffbe,
2d7451bd,
2d7451bd,
3f000000,
3f000000,
2fbf839d,
2fbf839d,
3eff8ed8,
2e614580,
30dc869d,
3ae25288,
3eff8ed8,
3f000000,
3f000000,
3f000000,
3f000000,
3c9bcc76,
3efb219d,
3efb219d,
3efffacf,
38a62545,
3efffacf,
3ef2d785,
3d5287c2,
3ef2d785,
3f000000,
3f000000,
3f000000,
3f000000,
3effff41,
373e2c0c,
3effff41,
3c08e443,
3efddc70,
3efddc70,
3ef72bc6,
3d0d43ad,
3ef72bc6,
3f000000,
3f000000,
2fab5fda,
2fab5fda,
2fab5fda,
2fab5fda,
2fcf8423,
2fcf8423,
3efe28bb,
3beba20b,
3efe28bb,
3efffff1,
3568a6cd,
3efffff1,
3f000000,
3f000000,
3177a192,
3177a192,
30ddfca5,
30ddfca5,
39702c62,
3ba3d9e5,
3e8fb7cd,
3e0f881a,
3e8fb7cd,
3c4ce410,
3e8fb7cd,
3c60b802,
3cd4d9cd,
3ef5d652,
3ef5d652,
3effdbba,
3a11187a,
3effdbba,
2c9b7ca3,
2c9b7ca3,
36cb454a,
3effff9a,
32c92c0a,
3effff9a,
3eedcb3e,
3d91a47f,
3643afb0,
3eedcb3e,
3f000000,
32173f71,
3f000000,
3f000000,
3f000000,
3177a192,
3177a192,
30ddfca5,
3150f82b,
3150f82b,
3e4293c1,
3b31a1b1,
3e9393a5,
3212e43f,
3e6c5725,
3e9393a5,
354b99e8,
3d81ccca,
3eefc65a,
3eefc65a,
3effff56,
371c913c,
3559605b,
3effff56,
3ef478a7,
3d38758d,
3ef478a7,
3c18d436,
2a7e3694,
3efd9caf,
3efd9caf,
2c9b7ca3,
30297dc5,
30297dc5,
3ef55ad2,
3d2a52eb,
3ef55ad2,
3d130647,
3ec241d3,
3e523723,
2e707544,
3ec241d3,
305e627b,
2d1092ba,
2d30b0e8,
305e627b,
3150f82b,
2b07a218,
3150f82b,
3e93f124,
397e322a,
3e430f06,
3e6cecdf,
2ee3960e,
3003166e,
3e93f124,
3ed558c2,
3e2a9cfb,
3ed558c2,
3f000000,
3f000000,
3e643ad7,
394f4675,
3ec6e456,
3ec6e456,
2af993b4,
2af993b4,
30cec655,
30cec655,
30cec655,
30cec655,
30297dc5,
30297dc5,
3490e597,
3efffff8,
34932678,
3efffff8,
381eeb78,
3efffd85,
302ac191,
3efffd85,
2d30b0e8,
2d30b0e8,
2b07a218,
2b07a218,
3c12b841,
3c12b841,
3b8a9c6a,
3efa5506,
2c2fc7b6,
3efa5506,
3f000000,
3f000000,
3f000000,
3f000000,
3f000000,
3f000000,
3efec872,
3b9955e9,
388fecb2,
36c7d2c7,
3efec872,
2af993b4,
2af993b4,
3f000000,
3f000000,
3f000000,
3f000000,
2bd09152,
2bd09152,
2ac2f8b7,
2be364e2,
2be364e2,
2f0f8ab5,
2f0f8ab5,
30e7133a,
30e7133a,
3e07edb6,
38cb44a7,
3ec8cd20,
3da988be,
31bcd299,
2e770776,
3ec8cd20,
3f000000,
3f000000,
3f000000,
3f000000,
3e870c67,
36041a4d,
3ebc79ad,
3ebc79ad,
3f000000,
3f000000,
39d5d19b,
3effe545,
3effe545,
3847b185,
3efffcc9,
35c05f3a,
3efffcc9,
2bcfe3d0,
3946160a,
318b3315,
3d79f5d1,
3d137485,
3ee6df0c,
39f7b35d,
39f7b35d,
3ee6df0c,
3efd1af5,
3c3942bc,
3efd1af5,
3effbf06,
3a81f2e6,
3effbf06,
3f000000,
3f000000,
34791eb4,
3efffffc,
3efffffc,
3f000000,
3f000000,
3afda5e2,
3eff8118,
35a089b3,
3eff8118,
3c1a8efc,
3efd55cc,
3a7fdcf7,
3efd55cc,
36d3ab64,
2e04c20f,
3e1f0104,
3ea84e42,
3ddd9ec7,
3b7cfe98,
3b7cfe98,
3d9219df,
334c0276,
3ea84e42,
3ac5049a,
3eff9d7d,
30abc8bc,
3eff9d7d,
3effe485,
39dbd6d5,
3effe485,
3f000000,
3f000000,
392fd97b,
3efff503,
3efff503,
2b9a212d,
2b9a212d,
2c52219f,
2c52219f,
3c20f194,
3efd6d0b,
3972fdad,
3efd6d0b,
305dd9ff,
3c71f13a,
3ee387d5,
3dc5832f,
3ee387d5,
3d8190a2,
3953230f,
3db9ea6e,
3b13e83e,
3e7caf89,
3dfc5baf,
3c0c4716,
3cd51020,
3e44cab4,
3e7caf89,
37f0b73d,
3ed5572d,
3490de95,
3e2a9bb7,
3ed5572d,
3a81e435,
39db9dc9,
37be25f9,
3effa21e,
3effa21e,
3f000000,
3f000000,
3e55b95c,
3e55b95c,
300fa1ac,
3e952353,
3e952353,
3f000000,
3f000000,
3ef3e130,
3d41ed00,
3ef3e130,
355f7c15,
3efffb1d,
389ac2c9,
3efffb1d,
2c52219f,
2c52219f,
32c953b3,
3efc45bd,
3c6e9095,
3efc45bd,
37ffa679,
3eee0bef,
3d8f908c,
3eee0bef,
38e6e26b,
33231787,
3c3fd1b9,
3c3fd1b9,
39905b63,
36a93728,
3d699889,
3e868c8d,
3ea8080b,
3ea8080b,
33b46741,
37b6490b,
3d2ee9ac,
3ef50ff7,
3ef50ff7,
37cef670,
370c1974,
3efffdd6,
3efffdd6,
3f000000,
3f000000,
3e39ae1f,
3e90cba9,
33fc2c57,
3e81919a,
3e90cba9,
3e39ae1f,
3e90cba9,
33fc2c57,
3e81919a,
3e90cba9,
3efeb667,
3ba41052,
37bc4c2c,
3efeb667,
3ef95b14,
3cd49756,
3645bd4b,
3ef95b14,
3c00c2ec,
3efdfcf3,
3efdfcf3,
3ebdffb3,
3e84009c,
3ebdffb3,
3e3c9161,
3e3c9161,
3d23b0a7,
3d23b0a7,
3b8de8ff,
3df1cfe5,
3d784d08,
39ef50c4,
3e3c9161,
3e3c9161,
3eff97df,
3ad0415a,
2f191bea,
3eff97df,
3effff73,
3700e69f,
3547ff0b,
3effff73,
3aa4df9f,
3ea697ef,
3ea697ef,
3cb9353c,
3ea697ef,
3e800000,
3e800000,
3e800000,
320a7a52,
3e800000,
36898007,
31cde293,
3edaf234,
3e14361b,
3edaf234,
3eeb2266,
3d3e7768,
3d0f623f,
3eeb2266,
3aa55a3f,
3ee92cf1,
3db40318,
3ee92cf1,
39d2b4c9,
3e4f572b,
371a3a03,
3d5a9e10,
3e3ec331,
3d101f1a,
3e08aff2,
3585b4b1,
3e3ec331,
3e4f572b,
3efffe83,
31865505,
37be6ab1,
3efffe83,
3ef1c303,
354d49d4,
3d63cefa,
3ef1c303,
3f000000,
3f000000,
3c0791d2,
3c0791d2,
3da0c7f5,
3ee74ecc,
3ab74dfa,
3ee74ecc,
35cdd840,
3987046a,
3effeef9,
354f7d77,
3effeef9,
34b0fcc2,
3a12e59e,
3effdb3d,
34556017,
3effdb3d,
2d9a743c,
2d9a743c,
39c17e7e,
3e18768c,
3e2f2df6,
3dfb0b13,
3b657a45,
31bd84f6,
3e2f2df6,
392393ae,
3e43c437,
3e43c437,
3ef94170,
3cd7cf81,
35a086e1,
3ef94170,
2f5c0c99,
3f000000,
3f000000,
3efd4b15,
3c2d3a32,
341aaa06,
3efd4b15,
3efffe94,
37b5cd57,
3efffe94,
2d9a743c,
2d9a743c,
3f000000,
3f000000,
3e55f838,
3e3f77eb,
3c54dcb9,
3e3f77eb,
33ba529e,
3a6ca578,
3e3f77eb,
36519302,
3bed91b3,
3e55f838,
36043065,
3effffdf,
2d54e9a7,
3effffdf,
3d8176b8,
3b29cfe3,
3eef275a,
3eef275a,
3efffea3,
37af3136,
3efffea3,
32b1a32b,
3a7cc8d8,
3effc0ce,
2bb867e3,
2f686559,
2e348563,
3effc0ce,
3eee7629,
3d8c4eb2,
3eee7629,
2a8b7418,
3f000000,
3f000000,
3ef934db,
3170a0ed,
3371e174,
3c162c92,
3c8e3e36,
2cf488ed,
345f1e7c,
36faf666,
3ef934db,
31f115eb,
3e5ed815,
3e5ed815,
32eb170a,
3b11c4d1,
3db73a55,
3e7235ca,
3e7235ca,
3bba1208,
368f0b46,
3efe8aa9,
376c255a,
3efe8aa9,
3efc6b7a,
3b97e9cf,
3622c697,
3c181c4a,
2a7d04a6,
38833055,
3efc6b7a,
2d7451bd,
2d7451bd,
39eeef79,
3effe221,
3effe221,
3d6ffc80,
39a131d2,
3ef0ec11,
3ef0ec11,
3684598b,
38a62510,
3efffa8d,
3efffa8d,
3f000000,
3f000000,
3e3753cc,
3ea442ee,
399961c5,
3e3753cc,
3ea442ee,
3ee8082d,
3d43a5dc,
3ce6d4c0,
3b004fbd,
2f2d9564,
3c80cfd3,
3ee8082d,
3f000000,
3f000000,
3e2e8891,
2a67438b,
39c635e8,
3ed44514,
3ed44514,
3f000000,
3f000000,
3eff8dfc,
3ae251c5,
375a211f,
3eff8dfc,
3f000000,
3f000000,
3f000000,
3f000000,
3f000000,
3f000000,
3ea9d922,
3885e729,
3ea9d922,
3b9b0e67,
3ea9d922,
3e407445,
2b872392,
3e0dc89e,
3eac706a,
36bcbed6,
2b872392,
2a3bde79,
2decc2aa,
3eac706a,
38e71cef,
37e032e8,
3ef159cc,
3d69d3c0,
3ef159cc,
3e7feebc,
3e7feebc,
35ce1c7a,
3e7feebc,
39894b5d,
3e7feebc,
3e243f9f,
3e243f9f,
3861afbd,
3eaddb68,
37a18077,
3eaddb68,
37329a86,
3e3afffd,
3ed13f4d,
3ed13f4d,
3f000000,
3f000000,
3effeed5,
34cd4f91,
3050a4cb,
39891dda,
3effeed5,
3d1d3a76,
3ef62c58,
3ef62c58,
3e70e99b,
34283343,
3d45d3cf,
3eb6b83f,
3b301b86,
3eb6b83f,
3e2ac8ea,
395e9014,
3ce097d5,
3a934b69,
395e9014,
3dc3fa0b,
3e4f70fe,
2da3a0bf,
3e81880f,
3e81880f,
3bcc8ad1,
3eae7e84,
3228ed0a,
3e9c24f0,
3991cd68,
3504966b,
3b4c46ef,
3b4c46ef,
3a2c7801,
3eae7e84,
3d9b8b3c,
3eec8e98,
3eec8e98,
3ef6af58,
3d150a76,
2f9c6ad3,
3ef6af58,
3f000000,
3f000000,
3ede5461,
3e06acc6,
36d9c336,
3ede5461,
2d088406,
3f000000,
3f000000,
3ef32e81,
3734a6e2,
3d4d0c9d,
3ef32e81,
3eb754c7,
3dc14d63,
368fc8d5,
39eee9bb,
3e418da0,
2de796d2,
3eb754c7,
3eac2d7e,
2d0023d1,
3e459338,
37c24564,
3e09b0bd,
3eac2d7e,
3e84f90b,
3414ade1,
3ea6101f,
3bc82464,
3daf184a,
3501bc41,
3ea6101f,
3d342c16,
331d1895,
3cbe37d8,
35f69adb,
379ef0df,
3eeeca22,
3eeeca22,
3ba693f2,
392ef4a1,
3efea7e8,
3efea7e8,
2e9d437f,
2e9d437f,
2c3386eb,
2c3386eb,
2e9d437f,
2e9d437f,
3d9dbea5,
3e199f54,
3e89a552,
3aaa1fbe,
3e6f97d1,
3e89a552,
3f000000,
3f000000,
3886a32e,
33c99940,
3c335e6a,
3d6d6aa5,
3eee57a5,
3eee57a5,
3e3ce8ec,
3e7290a6,
3ad133b2,
3ad133b2,
3e935069,
3e935069,
3b9e675a,
3c5d5b6d,
3323cce2,
3ef228db,
3d124e88,
3ef228db,
3f000000,
3f000000,
2e61a93f,
3f000000,
30dce843,
3f000000,
32c142e8,
3f000000,
3f000000,
3effc0a5,
3a7cc8ae,
3620681d,
3effc0a5,
3f000000,
3f000000,
3f000000,
3f000000,
3f000000,
3f000000,
358c2ad9,
3eec8e88,
3d9b8b31,
3eec8e88,
32201353,
2b67ea4f,
3ea0d277,
3e93f6a8,
3da991a9,
3ea0d277,
311b83a8,
2a217095,
3ea10eda,
3e80f715,
3df3ace1,
3ea10eda,
2e9d437f,
2e9d437f,
3ef480b1,
3d2e836a,
3b1718e3,
31804d4f,
3ef480b1,
3a81f088,
3884e87c,
3effba5f,
3700c3d7,
3effba5f,
38909937,
2f560028,
37cef33a,
3efff9dd,
3efff9dd,
3ba42a89,
3183b1eb,
3c9bb2ad,
2f51d08c,
3eb3d3bf,
3e8c0cae,
3183b1eb,
3eb3d3bf,
3f000000,
3f000000,
395e4aba,
2d1ebece,
3e2a93ad,
3ed54d20,
357cc689,
3ed54d20,
3eae5521,
36db3fc7,
3e24b29e,
352a168d,
3d3cbf2a,
3de58e63,
3eae5521,
3bdb5b33,
3c4fc57e,
3e91bd0f,
3b5b1266,
3d1dc9db,
312fbd9c,
3ea773fb,
3ea773fb,
2c3386eb,
2c3386eb,
3eff3d14,
395afe3c,
3b353bb2,
3eff3d14,
3f000000,
3f000000,
3f000000,
3f000000,
3f000000,
3f000000,
355960de,
3efffff3,
3efffff3,
3effffff,
33b74acd,
3effffff,
2a8b1dd4,
370bc3f8,
3eff61a3,
3b1dd1e8,
3eff61a3,
392ed2bb,
3efe7692,
3bbf40a5,
3efe7692,
2d7451bd,
2d7451bd,
3f000000,
3f000000,
3f000000,
3f000000,
3e74772a,
3ebea315,
3c87e3f3,
3ebea315,
3cb2783e,
3efa5ed1,
3956d0f2,
3efa5ed1,
3f000000,
3f000000,
3f000000,
3f000000,
3eee0058,
3685bfb6,
3d8ffb28,
3eee0058,
3efffaf0,
2d088153,
389099d3,
370c17de,
3efffaf0,
3f000000,
2e7545a6,
3f000000,
3b75cf79,
3eff0a30,
3eff0a30,
2d7451bd,
2d7451bd,
3f000000,
2e34b1ff,
3f000000,
3f000000,
3f000000,
3f000000,
3f000000,
3f000000,
3f000000,
3d2a52ef,
3ef55ad1,
3ef55ad1,
2deb425b,
3eab5883,
3e95205d,
3d2174df,
3eab5883,
3e6f32e3,
3eab9dac,
3dc4acd4,
3eab9dac,
36a0c500,
3effffb0,
2c33c25a,
3effffb0,
3b113a16,
3eff6d21,
37bdfe8f,
3624b6e8,
3eff6d21,
3a8d3a62,
370bf392,
3effb89d,
3186304c,
3559244c,
2bc86804,
36333c4a,
3effb89d,
318655ca,
3efffff9,
34cd5d51,
32a3978b,
3efffff9,
3ea0b8d1,
3a2354b4,
3da9769e,
3e93df0f,
2ef73f08,
3ea0b8d1,
3f000000,
3f000000,
2fa252e1,
3f000000,
3f000000;