memory_initialization_radix=16;
memory_initialization_vector=030,
031,
032,
001,
006,
004,
004,
006,
00d,
00c,
00c,
00f,
00d,
00d,
00f,
011,
041,
010,
010,
011,
043,
013,
015,
014,
014,
015,
074,
077,
078,
016,
01a,
049,
04a,
07a,
018,
01a,
047,
048,
07a,
019,
018,
019,
01b,
01c,
049,
07a,
01a,
01a,
049,
04a,
04b,
04c,
04d,
07a,
01b,
01a,
04e,
07a,
01c,
020,
01f,
01f,
020,
082,
021,
054,
081,
023,
053,
024,
026,
025,
025,
026,
059,
05b,
08a,
029,
05c,
08c,
02e,
001,
031,
030,
001,
030,
031,
001,
032,
096,
038,
09b,
03a,
03c,
09c,
03b,
03b,
06d,
06e,
09c,
03c,
06f,
09f,
03f,
041,
040,
010,
040,
041,
072,
042,
013,
043,
047,
048,
046,
019,
046,
048,
047,
019,
046,
047,
048,
018,
01a,
01b,
04a,
07a,
049,
018,
01b,
049,
04b,
04c,
0a9,
04a,
01b,
04a,
04c,
079,
0a9,
04b,
01b,
04a,
04b,
04d,
04c,
01b,
04c,
04e,
04d,
01c,
04d,
04e,
0ae,
04f,
080,
050,
052,
07f,
051,
051,
052,
024,
053,
023,
054,
085,
086,
087,
0b5,
0b6,
0b7,
057,
088,
0b9,
058,
029,
05b,
08a,
059,
029,
059,
08a,
05b,
02e,
08c,
05c,
0c2,
060,
062,
091,
0c3,
061,
061,
091,
0c3,
062,
092,
063,
0c4,
064,
095,
0c7,
065,
094,
066,
06a,
068,
06a,
099,
069,
068,
069,
06a,
09a,
06b,
03c,
06e,
06d,
03c,
06d,
06e,
03f,
09f,
06f,
0a0,
070,
0a1,
071,
042,
0d2,
072,
016,
076,
0d4,
0d5,
074,
076,
077,
0a6,
075,
074,
075,
077,
0a6,
0d4,
076,
016,
075,
076,
0a7,
0d5,
0d9,
077,
016,
0a7,
0aa,
0da,
078,
04b,
0a9,
079,
018,
019,
01a,
01b,
01c,
049,
0dc,
07a,
0aa,
0ad,
0d9,
07b,
07d,
07e,
0ac,
07c,
07c,
0ab,
0ac,
07d,
07c,
0ac,
07e,
051,
07f,
050,
080,
023,
081,
021,
082,
0b1,
0b5,
0e1,
0e2,
0e3,
0e4,
0e5,
083,
085,
086,
0b2,
0b3,
0b4,
084,
057,
084,
086,
0b3,
085,
057,
084,
085,
086,
057,
0b5,
0b6,
0b7,
0b8,
0e5,
087,
058,
0b9,
088,
0eb,
089,
029,
059,
05b,
08a,
0bb,
0ea,
08b,
02e,
05c,
08c,
0c0,
0c1,
0f0,
090,
061,
062,
0c3,
0f3,
091,
063,
092,
0b5,
0b4,
0b4,
0b6,
0b5,
0b5,
0b6,
0be,
0bd,
0bd,
0be,
090,
0c1,
0c0,
090,
0c0,
0f0,
0c1,
060,
0f2,
120,
0c2,
110,
0e0,
0e3,
0e2,
0e2,
0e3,
113,
0e5,
0eb,
0ed,
090,
0c1,
0f1,
0f0,
0f0,
123,
0f1,
0c2,
120,
153,
0f2,
13c,
10d,
13d,
13e,
10e,
13e,
13f,
10f,
0e0,
110,
0e5,
113,
0c2,
0f2,
120,
150,
121,
0c3,
0c4,
0f3,
122,
10d,
13c,
10e,
13e,
13d,
10e,
10f,
13d,
13f,
13e,
10f,
13e,
140,
13f,
13f,
140,
1ac,
14d,
121,
150,
1b2,
151,
0f4,
124,
180,
152,
11c,
1dc,
17e,
152,
180,
182,
1b1,
1b3,
181,
181,
1b1,
1b3,
1e1,
182,
1bd,
18d,
181,
182,
1b3,
1e1,
212,
1b1,
151,
1b2,
18d,
1bd,
20e,
1df,
182,
1b1,
1b3,
212,
1e1,
23b,
23c,
20d,
1df,
20e,
241,
270,
210,
1e3,
211,
1b1,
1b3,
1e1,
212,
270,
271,
2a2,
240,
210,
2a1,
241,
213,
244,
272,
242,
29b,
2cb,
26d,
210,
240,
271,
2a2,
2d0,
270,
240,
270,
2a2,
271,
213,
242,
2d1,
272,
2ce,
2ff,
29f,
241,
2a1,
240,
270,
271,
2d0,
2a2,
29f,
2ff,
32f,
2ce,
32d,
2cf,
270,
2a2,
2d0,
272,
2a3,
300,
2d1,
2fe,
32b,
32c,
32e,
2fd,
2fc,
2fd,
32c,
32d,
32e,
2fe,
29f,
2ce,
32f,
35f,
2ff,
2d1,
300,
363,
301,
332,
362,
302,
2cf,
2fc,
2fe,
32e,
38b,
38c,
38d,
32d,
2fc,
2fd,
2fe,
32c,
32d,
32e,
2ce,
2ff,
35f,
38f,
32f,
363,
331,
302,
362,
332,
35b,
35c,
35f,
38b,
38c,
38d,
38f,
35d,
3be,
35e,
2ff,
32f,
35d,
38f,
35f,
3c0,
3c2,
360,
302,
332,
362,
32d,
35b,
35d,
38b,
38c,
3eb,
38d,
3be,
38e,
32f,
35d,
35f,
38f,
392,
3f0,
390,
390,
392,
3bb,
3bc,
3ee,
3ef,
41c,
3bd,
35e,
38e,
3be,
360,
3c2,
3c0,
3f0,
3c1,
360,
3c0,
3c2,
3bc,
3bd,
3ef,
44f,
3ee,
3bd,
3ee,
44f,
3ef,
390,
3c1,
3f0,
44d,
44e,
47d,
41f,
3c4,
450,
480,
422,
3ec,
41f,
44e,
47d,
44d,
3ec,
41f,
44d,
47d,
44e,
3ee,
3ef,
44f,
422,
480,
450,
423,
482,
451,
484,
4b1,
452,
41f,
44d,
44e,
47d,
44c,
4ad,
4dc,
47e,
4ae,
4dd,
47f,
422,
450,
480,
451,
482,
44c,
47e,
4dc,
50b,
4ad,
47f,
50f,
4ae,
4dd,
4df,
50d,
4af,
452,
4b1,
47f,
4af,
4df,
50f,
53b,
4dd,
50d,
4de,
4af,
4dd,
50d,
4df,
4af,
4de,
4df,
50d,
56f,
50e,
4ae,
4dd,
50f,
540,
511,
4e4,
512,
4db,
56d,
53d,
56e,
53f,
511,
540,
53d,
56d,
50c,
53c,
53f,
56c,
56e,
50e,
56f,
5a2,
572,
59c,
59e,
59d,
59c,
59d,
59e,
572,
573,
5a2,
600,
5d0,
5fc,
5fd,
62e,
65e,
5fe,
62f,
65f,
5ff,
5d0,
661,
600,
5d4,
602,
607,
606,
606,
607,
657,
627,
658,
688,
628,
659,
689,
629,
65a,
62a,
65b,
62b,
65c,
62c,
5fc,
62c,
65c,
65d,
68c,
68d,
62d,
5fe,
65e,
68e,
62e,
5ff,
65f,
62f,
686,
656,
627,
687,
6b7,
657,
628,
688,
6b8,
658,
629,
689,
659,
62a,
65a,
62b,
65b,
62c,
68c,
65c,
62c,
62d,
65c,
68c,
68d,
65d,
5fe,
62e,
68e,
65e,
5ff,
62f,
68f,
65f,
690,
6c1,
660,
600,
6c2,
6c3,
661,
656,
6b6,
686,
657,
6b7,
687,
628,
658,
6b8,
6e8,
688,
629,
659,
6b9,
689,
65c,
6bc,
68c,
62c,
62d,
65c,
65d,
68c,
6ec,
68d,
62e,
65e,
68e,
65f,
68f,
660,
6c1,
6f2,
690,
6f3,
692,
699,
698,
698,
699,
686,
6b6,
657,
687,
6e7,
6b7,
658,
688,
6e8,
6b8,
689,
6b9,
68c,
6bc,
68c,
6bc,
6ec,
6ed,
71d,
6bd,
6ee,
6be,
6ef,
6bf,
721,
6c0,
660,
690,
6f2,
722,
6c1,
661,
6c2,
6ca,
6c9,
6c9,
6ca,
6b7,
6e7,
688,
6b8,
6e8,
71b,
6eb,
71c,
6ec,
68c,
6bc,
6bd,
6ec,
71d,
74d,
6ed,
6be,
6ee,
6bf,
6ef,
690,
6c1,
722,
6f2,
73d,
70d,
6eb,
74b,
71b,
6ec,
74c,
77c,
71c,
6bd,
6ec,
6ed,
71c,
74c,
74d,
77c,
77d,
71d,
74e,
77e,
71e,
74f,
77f,
71f,
6c0,
721,
6c1,
6f2,
722,
70d,
73d,
71b,
77b,
7ab,
74b,
71c,
77c,
7ac,
74c,
6ec,
6ed,
71c,
71d,
74c,
77c,
77d,
7ac,
7ad,
74d,
71e,
77e,
7ae,
74e,
71f,
77f,
74f,
780,
750,
782,
7b0,
751,
7a4,
774,
7aa,
77a,
74b,
7ab,
7db,
77b,
71c,
74c,
7ac,
7dc,
77c,
71c,
71d,
74c,
74d,
77c,
7ac,
7ad,
7dc,
7dd,
77d,
71e,
74e,
7ae,
7de,
77e,
71f,
74f,
7af,
7df,
77f,
750,
780,
7b1,
7b2,
7e0,
7e1,
781,
751,
782,
7d3,
803,
7a3,
774,
7d4,
804,
7a4,
77a,
7aa,
74b,
77b,
7db,
7ab,
74c,
77c,
7dc,
7ac,
74c,
74d,
77c,
77d,
7ac,
7dc,
7dd,
80c,
80d,
7ad,
74e,
77e,
7de,
80e,
7ae,
77f,
7df,
80f,
7af,
751,
7b0,
781,
7b2,
7e0,
7e1,
7b1,
781,
7b1,
7e0,
7e1,
7b2,
7a3,
803,
833,
7d3,
7a4,
804,
834,
7d4,
77b,
7ab,
7db,
77c,
7ac,
7dc,
77c,
77d,
7ac,
7ad,
7dc,
80c,
80d,
83c,
83d,
7dd,
77e,
7ae,
80e,
7de,
77f,
7af,
80f,
7df,
781,
7b1,
7b2,
7e1,
7e0,
781,
7b1,
7b2,
7e0,
7e1,
783,
7b4,
813,
840,
7e2,
7a3,
7d3,
833,
803,
7a4,
7d4,
834,
804,
7ac,
7ad,
7dc,
7dd,
80c,
83c,
83d,
86c,
86d,
80d,
7ae,
7de,
86e,
80e,
7af,
7df,
86f,
80f,
871,
810,
7b3,
7e3,
7e4,
843,
871,
812,
7d3,
803,
863,
893,
833,
7d4,
804,
864,
894,
834,
865,
835,
7dc,
7dd,
80c,
80d,
83c,
86c,
86d,
89c,
89d,
83d,
7e2,
872,
8a0,
840,
7e3,
870,
841,
833,
893,
8c3,
863,
834,
894,
864,
835,
865,
89c,
86c,
80c,
80d,
83c,
83d,
86c,
89c,
89d,
8cc,
8cd,
86d,
80e,
89e,
8ce,
86e,
80f,
89f,
8cf,
86f,
841,
8a1,
870,
810,
812,
843,
873,
8a1,
8a2,
871,
813,
840,
872,
871,
8a2,
873,
814,
816,
875,
8a3,
8a4,
8a5,
8a6,
8d6,
874,
814,
816,
847,
874,
8a4,
8a5,
8a6,
875,
815,
845,
846,
877,
876,
845,
846,
876,
8a7,
8d7,
8d8,
877,
8d9,
878,
819,
847,
879,
81a,
81b,
8ad,
87b,
81b,
8af,
8dd,
87d,
8ae,
87e,
84f,
8ad,
8af,
8df,
87f,
821,
852,
853,
8b1,
8b2,
8e2,
882,
8e4,
883,
824,
8b4,
8e5,
8e6,
884,
8e5,
885,
8b4,
8b7,
8e8,
886,
82d,
88c,
8c0,
88e,
831,
891,
832,
862,
8c2,
8f2,
892,
833,
834,
863,
864,
894,
8c3,
8c4,
8f3,
893,
833,
863,
864,
893,
894,
835,
865,
866,
896,
8c6,
895,
835,
865,
866,
895,
8c6,
896,
839,
8c7,
8f8,
897,
839,
898,
86b,
8c9,
8cb,
8f7,
899,
83a,
8ca,
89a,
83b,
86b,
8c9,
8cb,
8f9,
89b,
83c,
83d,
86c,
86d,
89d,
8cc,
8cd,
8fc,
8fd,
89c,
83c,
83d,
86c,
86d,
89c,
8cc,
8cd,
8fc,
8fd,
89d,
86e,
8fe,
89e,
86f,
8cf,
8ff,
89f,
840,
8a0,
843,
870,
871,
8a1,
871,
873,
8a2,
874,
8a4,
8d1,
8a3,
874,
875,
8a3,
8a5,
8a6,
8d6,
8a4,
847,
874,
875,
8a4,
8a6,
8a5,
847,
874,
875,
8a4,
8a5,
8a8,
8a6,
845,
846,
877,
8d5,
8d7,
8d8,
8a7,
847,
8a6,
8da,
8a8,
848,
8a9,
849,
8aa,
84a,
8ab,
84f,
87b,
87f,
8af,
8df,
8ad,
87e,
8ae,
84f,
87d,
87f,
8ad,
8df,
8af,
852,
853,
882,
8b2,
8e2,
8b1,
852,
853,
882,
8b1,
8e2,
8b2,
8e3,
8b3,
884,
886,
8e6,
8b4,
8b7,
8e7,
8b6,
886,
8b6,
8e7,
8b7,
8ea,
8ba,
88e,
8c0,
8f1,
8c1,
862,
892,
8f2,
8c2,
863,
893,
8c4,
8f3,
8f4,
8c3,
863,
893,
8c3,
8f3,
8f4,
8c4,
8c6,
8c5,
865,
895,
896,
8c5,
8c6,
897,
8c8,
8f8,
8f9,
8c7,
8c7,
8c9,
8f8,
8f9,
8c8,
86b,
899,
89b,
8c8,
8cb,
8f7,
8f9,
8c9,
89a,
8ca,
86b,
899,
89b,
8c9,
8f9,
8cb,
86c,
86d,
89c,
89d,
8cd,
8fd,
8cc,
86c,
86d,
89c,
89d,
8cc,
8fc,
8fd,
8cd,
86e,
8ce,
86f,
89f,
8ff,
8cf,
8a3,
8d1,
8d4,
8d3,
8d3,
8d4,
8a7,
8d7,
8d5,
874,
8a4,
8d6,
877,
8a7,
8d5,
8d8,
8d7,
877,
8a7,
8d7,
8d8,
878,
8d9,
8a8,
8da,
87d,
8dd,
87f,
8ad,
8af,
8df,
882,
8b1,
8b2,
8e2,
8b3,
8e3,
883,
8e4,
884,
885,
8e6,
8e5,
884,
8b4,
8e5,
8e8,
8e6,
8b6,
8b7,
8e7,
886,
8e6,
8e8,
8ea,
8e9,
8ba,
8e9,
8ea,
8f0,
8ef,
8ef,
8f0,
8c1,
8f1,
892,
8c2,
8f2,
893,
8c3,
8c4,
8f4,
8f3,
8c3,
8c4,
8f3,
8f4,
899,
8c9,
8f9,
8f7,
897,
8c7,
8c8,
8f9,
8f8,
89b,
8c7,
8c8,
8c9,
8cb,
8f7,
8f8,
8f9,
89c,
89d,
8cd,
8fd,
8fc,
89c,
89d,
8cc,
8cd,
8fc,
8fd,
89e,
8fe,
89f,
8cf,
8ff;