memory_initialization_radix=16;
memory_initialization_vector=000,
031,
001,
030,
031,
032,
002,
004,
060,
061,
003,
063,
002,
004,
065,
005,
006,
037,
067,
005,
006,
007,
037,
067,
007,
037,
065,
067,
008,
009,
03a,
06a,
008,
009,
00b,
03a,
03b,
06a,
06b,
00a,
038,
03c,
068,
069,
009,
00b,
00c,
03a,
03b,
06a,
06b,
00b,
00c,
03a,
03b,
06a,
06b,
00e,
03f,
040,
00f,
03d,
06d,
012,
013,
041,
012,
013,
041,
015,
047,
077,
016,
017,
078,
016,
017,
078,
079,
018,
019,
01a,
047,
048,
049,
018,
019,
01a,
047,
048,
049,
018,
019,
01a,
048,
049,
01b,
04a,
079,
07a,
01d,
04c,
07c,
01f,
04d,
04e,
04f,
020,
021,
022,
04e,
04f,
050,
052,
07f,
080,
081,
020,
021,
022,
050,
051,
052,
07f,
080,
081,
020,
021,
022,
050,
052,
080,
081,
023,
053,
024,
084,
025,
054,
085,
027,
028,
029,
056,
086,
027,
028,
029,
056,
05a,
086,
027,
028,
029,
05a,
08a,
02a,
05b,
08a,
02b,
05c,
05d,
08b,
08c,
08d,
02d,
02e,
02f,
02d,
02e,
02f,
02d,
02e,
02f,
001,
030,
031,
032,
000,
030,
031,
001,
030,
032,
035,
064,
005,
006,
007,
037,
067,
00a,
038,
068,
069,
039,
03b,
06a,
008,
009,
00b,
00c,
03a,
06b,
009,
00b,
00c,
039,
03b,
06a,
06c,
00a,
03c,
00f,
03d,
06d,
03e,
06f,
070,
00e,
03f,
040,
00e,
03f,
040,
012,
013,
041,
042,
043,
044,
042,
043,
044,
042,
043,
044,
045,
076,
015,
018,
019,
047,
048,
018,
019,
01a,
047,
048,
049,
018,
019,
01a,
047,
048,
049,
01b,
04a,
078,
079,
04b,
07b,
01d,
04c,
07c,
01f,
04d,
04e,
01f,
020,
04d,
04e,
04f,
01f,
020,
04e,
04f,
050,
07d,
080,
081,
020,
021,
022,
04f,
050,
051,
052,
07e,
07f,
080,
081,
021,
050,
051,
052,
07f,
080,
081,
020,
021,
022,
050,
051,
052,
080,
081,
023,
053,
025,
054,
085,
055,
085,
027,
028,
056,
086,
057,
058,
057,
058,
087,
059,
089,
028,
029,
05a,
08a,
02a,
05b,
05c,
08a,
02b,
05b,
05c,
08b,
08c,
08d,
08e,
0bd,
0be,
02b,
05d,
05e,
05f,
08d,
08e,
08f,
05d,
05e,
05f,
08c,
08d,
08e,
08f,
0bf,
05d,
05e,
05f,
08d,
08e,
08f,
0bf,
002,
060,
061,
092,
0c0,
0c2,
002,
060,
061,
092,
0c0,
0c2,
062,
092,
0c1,
003,
063,
091,
035,
064,
004,
007,
065,
067,
066,
005,
006,
007,
037,
065,
067,
00a,
038,
068,
069,
098,
099,
00a,
038,
068,
069,
099,
09a,
008,
009,
00b,
00c,
039,
03b,
06a,
06c,
009,
00b,
00c,
03a,
06b,
03b,
06a,
06c,
00f,
03d,
06d,
06e,
03e,
06f,
070,
03e,
06f,
070,
072,
073,
074,
073,
074,
075,
045,
076,
015,
077,
016,
017,
04a,
078,
079,
07a,
017,
01b,
04a,
078,
079,
07a,
01b,
078,
079,
07a,
04b,
07b,
01d,
04c,
07c,
04f,
07d,
07e,
07f,
050,
07d,
07e,
07f,
080,
020,
021,
04f,
050,
051,
07d,
07e,
07f,
080,
081,
020,
021,
022,
04f,
050,
051,
052,
07e,
07f,
080,
081,
020,
021,
022,
04f,
050,
051,
052,
07f,
080,
081,
082,
024,
084,
025,
054,
055,
085,
027,
028,
056,
086,
058,
087,
088,
0b7,
0e7,
087,
088,
0b8,
059,
089,
029,
02a,
05a,
08a,
02b,
05c,
08b,
08c,
08d,
0bd,
0ed,
02b,
05c,
05e,
08b,
08c,
08d,
08e,
0bd,
0be,
0ed,
02b,
05c,
05d,
05e,
05f,
08b,
08c,
08d,
08e,
08f,
0bd,
0be,
0bf,
0ed,
05c,
05d,
05e,
05f,
08c,
08d,
08e,
08f,
0bd,
0be,
0bf,
0ed,
05d,
05e,
05f,
08d,
08e,
08f,
0bd,
0be,
0bf,
090,
0f0,
0f1,
063,
091,
060,
061,
062,
092,
0c0,
0c2,
062,
0c1,
063,
065,
066,
037,
037,
067,
098,
038,
039,
068,
069,
099,
039,
03b,
06a,
06c,
09a,
03a,
06b,
03a,
06b,
06e,
041,
043,
072,
073,
074,
072,
073,
074,
075,
0d2,
072,
073,
074,
0a4,
0d2,
0d3,
043,
075,
045,
076,
047,
077,
07a,
04b,
07b,
04b,
07e,
07f,
050,
051,
07d,
07e,
07f,
080,
081,
04e,
04f,
082,
082,
054,
085,
084,
057,
058,
0b7,
0e7,
057,
058,
087,
088,
0b8,
059,
089,
05b,
05c,
08b,
08c,
11d,
05d,
05e,
05c,
08b,
08c,
08d,
08e,
08f,
0bd,
0be,
0bf,
0ed,
05c,
08c,
08d,
08e,
08f,
0bd,
0be,
0bf,
0ed,
05e,
05f,
08d,
08e,
08f,
0bd,
0be,
0bf,
0ed,
060,
061,
092,
0c0,
0c2,
062,
0c1,
120,
121,
060,
061,
062,
092,
0c0,
0c2,
065,
067,
098,
068,
069,
068,
069,
06c,
06c,
06c,
06d,
06e,
06e,
072,
073,
073,
074,
0a4,
0d2,
101,
072,
075,
0a4,
0d3,
102,
075,
0d4,
102,
077,
078,
079,
078,
079,
07a,
078,
079,
07a,
07d,
07e,
07f,
07e,
084,
084,
087,
0b7,
0e7,
087,
088,
0b8,
08b,
08c,
11d,
08b,
08c,
08d,
08e,
0bd,
0be,
0bf,
0ed,
14e,
0ee,
0ef,
11e,
0ee,
0ef,
11e,
090,
0f0,
0f1,
090,
0f0,
0f1,
0f2,
151,
152,
0d2,
101,
0d3,
0d4,
102,
0d4,
11d,
14d,
0ee,
0ef,
11e,
17f,
11f,
14f,
17d,
17e,
0c1,
120,
121,
150,
0c1,
120,
121,
150,
182,
122,
122,
0f2,
11d,
14d,
11d,
14d,
11d,
14d,
0ed,
14e,
17f,
11f,
14f,
17d,
17e,
120,
121,
150,
151,
152,
1b2,
151,
152,
1b2,
121,
182,
11f,
14f,
17d,
17e,
1dd,
11f,
14f,
17d,
17e,
11e,
14e,
17f,
1af,
1de,
1df,
180,
181,
182,
1b1,
1e0,
180,
181,
182,
1b1,
1e1,
121,
180,
181,
182,
1b1,
1e0,
121,
182,
1b1,
199,
19a,
199,
19a,
19a,
1ad,
1dd,
1de,
20e,
1ad,
1ae,
1ad,
1ae,
17f,
1af,
1dd,
1de,
1df,
20d,
20e,
20f,
1b0,
210,
180,
181,
182,
1b1,
1e0,
151,
152,
1b2,
1e2,
151,
152,
1b2,
1e1,
1e2,
182,
1c9,
1ca,
1c9,
1ca,
1d0,
200,
1dd,
20d,
23d,
1dd,
1de,
20e,
23d,
23e,
17d,
1af,
1dd,
1de,
1df,
20f,
23d,
23e,
23f,
17f,
1af,
1dd,
1de,
1df,
20d,
20e,
20f,
23d,
17f,
1af,
1dd,
1de,
1df,
20d,
20e,
20f,
23d,
23e,
180,
182,
1b1,
1e0,
212,
240,
181,
1e1,
241,
1b2,
1e2,
241,
1b2,
1e1,
1e2,
241,
1b2,
1e2,
1d0,
200,
20d,
26d,
1dd,
1de,
23d,
23e,
1af,
1de,
1df,
20d,
20e,
26d,
1af,
1de,
1df,
20d,
20e,
23d,
26d,
1af,
1dd,
1de,
1df,
20f,
23d,
23e,
23f,
1b0,
210,
1e0,
212,
240,
271,
272,
212,
271,
272,
212,
272,
20d,
26d,
1dd,
1de,
1df,
20e,
20f,
23d,
23e,
29e,
1dd,
1df,
20f,
23d,
23e,
23f,
29e,
20f,
23e,
23f,
29f,
1e0,
212,
240,
270,
271,
2a2,
1e1,
1e2,
241,
270,
242,
1e1,
241,
1e2,
29d,
2cd,
20d,
20e,
26d,
26e,
26f,
26e,
26f,
29d,
240,
270,
212,
240,
271,
272,
2a2,
212,
271,
272,
2a0,
2a2,
242,
292,
293,
292,
293,
23d,
26d,
2fd,
26e,
26f,
29d,
2cd,
23d,
23e,
29e,
2ce,
2ff,
23f,
29f,
2fe,
272,
2a0,
2a1,
2a0,
2a1,
240,
271,
272,
2a2,
2a2,
2c2,
2c3,
2c2,
2c3,
26d,
2fd,
29d,
2cd,
29e,
2ce,
2ff,
32d,
32f,
2cf,
32e,
2d0,
2d1,
2d0,
2d1,
301,
302,
2d2,
300,
271,
272,
2a2,
331,
272,
2a2,
332,
2cd,
29d,
2cd,
2fd,
32f,
29f,
2fe,
32e,
35d,
29e,
2ce,
2ff,
32d,
32f,
35f,
2d2,
300,
2d1,
301,
302,
2d1,
301,
302,
2d1,
301,
302,
302,
31c,
37e,
2fd,
2fd,
2ce,
2ff,
32d,
35f,
38d,
2cf,
2fe,
32e,
38e,
2ce,
2fd,
32f,
330,
331,
332,
360,
390,
391,
330,
331,
360,
391,
330,
332,
360,
390,
331,
362,
392,
2d2,
37b,
32d,
35d,
38d,
32d,
35d,
38d,
2fe,
35d,
35f,
38d,
35e,
38f,
2ff,
32d,
35d,
35f,
38d,
330,
331,
332,
360,
390,
391,
3c0,
3c1,
361,
362,
361,
362,
392,
3c2,
331,
391,
3c1,
332,
37b,
37b,
37c,
37b,
37c,
37c,
37e,
31c,
37e,
3bd,
32d,
35d,
38d,
3ee,
32d,
35d,
35f,
38d,
3ef,
32e,
38e,
3ed,
35e,
38f,
330,
332,
360,
390,
391,
3c0,
3f1,
330,
331,
360,
390,
391,
3c1,
362,
392,
3c1,
3c2,
3c3,
3f2,
3f3,
361,
362,
392,
3c2,
3c3,
3f2,
362,
392,
3c2,
3f2,
35d,
38d,
41d,
38d,
3ee,
3bd,
3bf,
3bd,
3bf,
3ee,
360,
390,
3c0,
3f1,
420,
391,
392,
3c1,
3f2,
421,
422,
361,
362,
392,
3c1,
3c2,
3f2,
421,
361,
362,
3c3,
3c4,
3f3,
3f4,
3c3,
3c4,
3f4,
422,
3c5,
3f5,
3da,
3da,
3da,
37b,
3de,
3de,
3df,
440,
3de,
3df,
3e0,
3df,
3e0,
3bd,
38d,
41d,
38e,
3ed,
41e,
44d,
3ee,
3ef,
38d,
3ee,
3ef,
390,
3c0,
3f1,
420,
392,
3c1,
3c2,
3f2,
421,
450,
392,
3c2,
3c3,
3f3,
3c3,
3c4,
3f4,
422,
3c5,
3f5,
3de,
47d,
3ee,
41d,
41d,
3ed,
41e,
44d,
41f,
44d,
3c0,
3f1,
420,
3c1,
3c2,
3f2,
421,
450,
3c1,
422,
480,
481,
3c1,
3c2,
3f2,
421,
3c2,
3c3,
3c4,
3c5,
3f2,
3f4,
3de,
440,
3ed,
41d,
41e,
3ed,
41e,
41f,
44d,
4ad,
4af,
44e,
44f,
4ae,
44e,
44f,
4ae,
3f2,
421,
450,
4b1,
4b2,
451,
452,
482,
451,
452,
482,
451,
482,
4b2,
422,
41d,
4de,
47d,
47e,
47f,
4df,
47d,
47e,
47f,
47d,
47e,
47f,
4df,
422,
480,
481,
4b0,
4b1,
422,
480,
481,
4b0,
4b1,
451,
452,
482,
4b2,
4e0,
451,
452,
482,
4b2,
4e2,
4dd,
44d,
4ad,
4ae,
4af,
44e,
4ae,
4af,
4ad,
4ae,
4af,
480,
481,
4b0,
4b1,
450,
480,
481,
4b0,
4b1,
4e2,
450,
482,
4b2,
4e0,
4b1,
4e2,
4b2,
4e2,
4dd,
4ad,
4dd,
4de,
50f,
47f,
4df,
50f,
482,
4b2,
4e0,
540,
4e1,
541,
4b1,
4e2,
482,
4b2,
4e3,
4e4,
482,
4b2,
4e3,
4e4,
4e4,
4f4,
4f5,
4f4,
4f5,
50d,
50d,
50e,
50d,
50e,
50d,
50e,
4de,
4df,
50f,
510,
511,
510,
511,
512,
542,
512,
542,
514,
515,
514,
515,
52d,
55c,
53d,
53e,
4e0,
540,
541,
570,
5a1,
4e1,
540,
541,
570,
512,
542,
511,
544,
545,
544,
545,
575,
52d,
55c,
567,
568,
567,
568,
567,
568,
53d,
53e,
540,
541,
570,
540,
572,
5a1,
5d2,
511,
544,
545,
575,
576,
575,
576,
597,
598,
597,
598,
5cd,
540,
572,
5a1,
5d2,
542,
5d1,
5ce,
5cd,
5ce,
5d0,
630,
5d1,
572,
5a1,
5d2,
597,
62d,
65d,
5fd,
62d,
62e,
65e,
5fd,
62f,
5fe,
5ff,
5fe,
5ff,
600,
660,
601,
631,
602,
632,
662,
662,
65d,
62c,
62d,
62e,
65d,
65e,
62c,
62d,
62e,
65d,
65e,
65f,
68f,
62d,
62e,
65d,
65e,
65f,
68d,
68e,
68f,
5fd,
62f,
68d,
68e,
5d0,
630,
660,
690,
601,
631,
661,
691,
602,
632,
662,
692,
602,
632,
662,
692,
636,
637,
636,
637,
636,
637,
65b,
65c,
62d,
65b,
65c,
65d,
62d,
62e,
65b,
65c,
65d,
65e,
65f,
68f,
6bf,
62d,
62e,
65d,
65e,
65f,
68e,
68f,
6bf,
62d,
62e,
65d,
65e,
65f,
68f,
6bf,
600,
630,
660,
690,
6c0,
601,
631,
661,
691,
6c1,
602,
632,
662,
692,
602,
6c2,
665,
666,
667,
665,
666,
667,
668,
665,
666,
667,
668,
695,
666,
667,
668,
669,
696,
668,
669,
697,
698,
66a,
698,
62d,
68d,
6ed,
62e,
65e,
68d,
68e,
62e,
62f,
68d,
68e,
62e,
62f,
65e,
68d,
68e,
62d,
62e,
65d,
65e,
65f,
68f,
6bf,
6ed,
630,
660,
690,
6f0,
631,
661,
691,
6c1,
6f1,
632,
662,
692,
6c2,
632,
662,
692,
667,
695,
696,
697,
668,
695,
696,
697,
698,
669,
695,
696,
697,
698,
669,
66a,
696,
697,
698,
699,
698,
699,
699,
710,
710,
6b9,
6ba,
6b9,
6ba,
6bb,
6ba,
6bb,
71d,
65e,
68d,
68e,
6bb,
6ed,
6bd,
6be,
6bd,
6be,
65d,
65e,
65f,
68f,
6bf,
6ed,
660,
6c0,
6f0,
661,
691,
6c1,
6f1,
6c2,
6f2,
662,
692,
722,
692,
6c2,
6f2,
6c7,
6c7,
727,
6c7,
6c9,
727,
729,
72a,
6c9,
6ca,
729,
72a,
6c9,
6ca,
6cb,
6ca,
6cb,
6da,
708,
6db,
709,
6df,
70f,
710,
6e2,
6e2,
6e3,
6e4,
6e2,
6e3,
6e4,
741,
6e2,
6e3,
6e4,
6e9,
6ea,
719,
71a,
71b,
74a,
74b,
6e9,
6ea,
6eb,
719,
71a,
71b,
71c,
74a,
74b,
74c,
6ea,
6eb,
71b,
71c,
71d,
74c,
6bb,
6ee,
71d,
74d,
68f,
6bf,
6ed,
6ee,
71d,
74d,
74f,
6ef,
71e,
71f,
74f,
690,
6c0,
6f0,
691,
6c1,
6f1,
6c2,
6f2,
751,
722,
722,
6f9,
6f9,
6fa,
6ca,
6f9,
6fa,
6fb,
6ca,
6f9,
6fa,
6fb,
6da,
708,
6db,
709,
70b,
70b,
70c,
70d,
70b,
70c,
70d,
70b,
70c,
70d,
70c,
70d,
70f,
6df,
70f,
740,
6df,
710,
710,
712,
712,
713,
714,
712,
713,
714,
712,
713,
714,
749,
77a,
6e9,
6ea,
719,
71a,
71b,
749,
74a,
74b,
77b,
6e9,
6ea,
719,
71a,
71b,
71c,
74a,
74b,
74c,
77c,
6e9,
6ea,
6eb,
719,
71a,
71b,
71c,
71d,
74a,
74b,
74c,
74d,
6ea,
6eb,
6ee,
71a,
71b,
71c,
71d,
71e,
74b,
74c,
74d,
6ee,
71d,
71e,
74d,
74f,
6ef,
71d,
71e,
71f,
74f,
6ef,
71e,
71f,
77d,
77e,
721,
750,
780,
781,
722,
752,
6c7,
727,
6c7,
727,
6c7,
727,
729,
6c9,
729,
72a,
6c9,
729,
72a,
735,
736,
735,
736,
737,
736,
737,
737,
7a0,
70f,
740,
741,
740,
741,
742,
741,
742,
743,
742,
743,
748,
779,
77a,
749,
74a,
77a,
77b,
6e9,
6ea,
719,
71a,
71b,
749,
74a,
74b,
77b,
77c,
6e9,
6ea,
719,
71a,
71b,
71c,
71d,
74a,
74b,
74c,
74d,
77c,
7ad,
6ea,
71a,
71b,
71d,
71e,
74b,
74c,
7ad,
7ae,
6ee,
71d,
74d,
74f,
7ad,
6ee,
6ef,
71d,
71e,
74d,
74f,
7ad,
7ae,
7af,
721,
750,
780,
781,
7b0,
7b1,
7b2,
6f2,
751,
782,
722,
752,
722,
752,
6f2,
782,
771,
771,
772,
771,
772,
773,
772,
773,
779,
748,
779,
77a,
748,
749,
779,
77a,
77b,
719,
71d,
749,
74d,
77a,
77b,
77c,
7ad,
74a,
77b,
77c,
77d,
77e,
7ae,
71f,
77d,
77e,
77f,
71f,
77d,
77e,
77f,
77d,
77e,
77f,
721,
750,
780,
781,
7b1,
7b2,
7e1,
7e2,
721,
750,
780,
781,
7b1,
7b2,
7e1,
7e2,
751,
782,
751,
782,
7e2,
7b2,
786,
787,
7b7,
7e7,
786,
787,
7b7,
7e7,
7a0,
7a0,
7a1,
7a0,
7a1,
7a2,
7a1,
7a2,
7a3,
7a2,
7a3,
7a7,
7a8,
7a7,
7a8,
7a9,
7a8,
7a9,
7aa,
7a9,
7aa,
7ab,
7aa,
7ab,
7ac,
74d,
7ab,
7ac,
74d,
74f,
7ac,
7ad,
7ae,
7af,
74f,
7ad,
7ae,
7af,
74f,
7ad,
7ae,
7af,
7b0,
7e0,
750,
780,
781,
7b1,
7b2,
7e1,
7e2,
811,
812,
750,
780,
781,
7b1,
7b2,
7e1,
7e2,
811,
812,
786,
787,
7b7,
7e7,
7cd,
7ce,
7fe,
82f,
7cd,
7ce,
7cf,
7ff,
800,
830,
7ce,
7cf,
7d0,
800,
831,
7cf,
7d0,
7d1,
801,
7d0,
7d1,
7d2,
7d3,
7d1,
7d2,
7d3,
7d1,
7d2,
7d3,
7d6,
836,
7d7,
7d8,
837,
7d7,
7d8,
7d9,
7d8,
7d9,
7da,
7d9,
7da,
7db,
7da,
7db,
7dc,
80d,
83d,
7db,
7dc,
7dd,
7de,
80d,
80e,
83d,
7dc,
7dd,
7de,
7df,
80d,
80e,
80f,
7dc,
7dd,
7de,
7df,
80d,
80e,
80f,
7dd,
7de,
7df,
80d,
80e,
80f,
7b0,
7e0,
810,
840,
780,
781,
7b0,
7b1,
7b2,
7e1,
7e2,
811,
841,
780,
781,
7b1,
7b2,
7e1,
7e2,
811,
812,
841,
842,
786,
787,
7b7,
7e7,
7f5,
7f6,
7f5,
7f6,
7f7,
825,
7f6,
7f7,
7f8,
825,
826,
827,
7f7,
7f8,
826,
827,
828,
7f9,
827,
829,
857,
7fa,
82a,
7fe,
7cd,
7fe,
7ff,
82f,
7cd,
7ce,
7fe,
7ff,
800,
82f,
830,
860,
7ce,
7cf,
7ff,
800,
801,
830,
831,
861,
7d0,
800,
801,
802,
831,
861,
801,
802,
803,
802,
803,
866,
807,
808,
809,
867,
807,
808,
809,
867,
868,
807,
808,
809,
80a,
867,
868,
809,
80a,
80b,
80c,
868,
7dd,
80a,
80b,
80c,
80d,
83b,
83c,
83d,
7dd,
7de,
80a,
80b,
80c,
80d,
80e,
83b,
83c,
83d,
7dd,
7de,
7df,
80b,
80c,
80d,
80e,
80f,
83c,
83d,
7dd,
7de,
7df,
80c,
80d,
80e,
80f,
83d,
7dd,
7de,
7df,
80d,
80e,
80f,
7b0,
7e0,
810,
840,
870,
7b1,
7b2,
7e1,
7e2,
811,
812,
841,
842,
871,
7b1,
7b2,
7e2,
811,
812,
841,
842,
871,
872,
873,
874,
875,
87c,
87e,
87f,
87f,
882,
882,
883,
884,
7f6,
7f7,
825,
826,
884,
887,
7f7,
7f8,
825,
826,
827,
828,
7f7,
7f8,
7f9,
826,
827,
828,
829,
7f8,
826,
827,
828,
858,
887,
888,
7f9,
827,
829,
857,
858,
859,
7fa,
82a,
888,
88c,
889,
88a,
88d,
88e,
85f,
88f,
7cd,
7fe,
82f,
85f,
890,
7ce,
7cf,
7ff,
800,
830,
831,
860,
861,
890,
891,
7cf,
800,
801,
831,
832,
861,
891,
892,
893,
831,
832,
833,
894,
832,
833,
894,
895,
894,
893,
7d6,
836,
866,
896,
898,
7d7,
7d8,
837,
838,
839,
868,
869,
898,
899,
7d7,
837,
838,
839,
83a,
868,
869,
86a,
896,
897,
898,
899,
7d7,
837,
838,
839,
83a,
83b,
869,
86a,
86b,
897,
898,
899,
89a,
80a,
80b,
838,
839,
83a,
83b,
83c,
869,
86a,
86b,
86c,
898,
899,
89a,
80b,
80c,
839,
83a,
83b,
83c,
83d,
86b,
86c,
86d,
899,
89a,
89b,
89c,
89d,
80a,
80b,
80c,
83a,
83b,
83c,
83d,
83e,
86c,
86d,
86e,
89a,
89b,
89c,
89d,
89e,
80b,
80c,
80d,
80e,
83b,
83c,
83d,
83e,
83f,
86c,
86d,
86e,
86f,
89b,
89c,
89d,
89e,
89f,
80c,
83c,
83d,
83e,
83f,
86c,
86d,
86e,
86f,
89c,
89d,
89e,
89f,
83d,
83e,
83f,
86d,
86e,
86f,
89d,
89e,
89f,
7e0,
810,
840,
870,
8a0,
7e1,
7e2,
811,
812,
841,
842,
871,
8a1,
8a2,
8a3,
7e1,
7e2,
811,
812,
841,
842,
871,
872,
873,
874,
8a2,
8a3,
8a1,
8a4,
876,
8a5,
876,
877,
8a6,
875,
8a4,
8a7,
8a8,
875,
877,
8a8,
876,
877,
8a6,
8a7,
8a8,
8a8,
8ab,
87b,
8ab,
87c,
87d,
87e,
87f,
880,
8ac,
8ad,
8ae,
8af,
87e,
87f,
880,
881,
8b1,
880,
881,
882,
8b0,
8b2,
8b3,
882,
883,
885,
8b1,
8b3,
8b5,
857,
858,
884,
829,
857,
858,
859,
828,
857,
858,
859,
887,
829,
857,
858,
859,
887,
888,
82a,
888,
88c,
88b,
88a,
88d,
8bc,
8bd,
8be,
88c,
88d,
8bc,
8bd,
8be,
88c,
88e,
82f,
85f,
88f,
8bf,
7ff,
800,
82f,
830,
860,
890,
8c0,
8c1,
8c2,
800,
801,
831,
861,
890,
891,
892,
893,
8c1,
8c2,
801,
861,
892,
893,
891,
892,
893,
8c1,
8c2,
892,
893,
895,
893,
836,
866,
896,
897,
898,
8c6,
8c7,
8c8,
807,
808,
809,
867,
868,
869,
896,
897,
898,
899,
8c6,
8c7,
8c8,
8c9,
807,
808,
809,
80a,
837,
838,
867,
868,
869,
86a,
896,
897,
898,
899,
89a,
8c6,
8c7,
8c8,
8c9,
8ca,
809,
80a,
837,
838,
839,
83a,
867,
868,
869,
86a,
86b,
897,
898,
899,
8c8,
8c9,
8ca,
8cb,
809,
80a,
838,
839,
83a,
868,
869,
86a,
86b,
86c,
898,
899,
89a,
8c8,
8c9,
8ca,
8cb,
8cc,
80a,
839,
83a,
83b,
869,
86a,
86b,
86c,
86d,
899,
89a,
89c,
89d,
8c9,
8ca,
8cb,
8cc,
8cd,
80a,
80b,
83a,
83b,
83c,
83e,
86a,
86b,
86c,
86d,
86e,
89a,
89c,
89d,
89e,
8ca,
8cb,
8cc,
8cd,
8ce,
80b,
83b,
83c,
83d,
83e,
83f,
86b,
86c,
86d,
86e,
86f,
89b,
89c,
89d,
89e,
89f,
8cb,
8cc,
8cd,
8ce,
8cf,
80c,
83c,
83d,
83e,
83f,
86c,
86d,
86e,
86f,
89c,
89d,
89e,
89f,
8cc,
8cd,
8ce,
8cf,
83d,
83e,
83f,
86d,
86e,
86f,
89d,
89e,
89f,
8cd,
8ce,
8cf,
810,
840,
870,
8a0,
8d0,
8d1,
811,
812,
841,
842,
871,
872,
873,
8a2,
8a3,
812,
842,
871,
872,
873,
8a3,
812,
872,
873,
8a3,
812,
842,
874,
8a2,
8a3,
8d3,
8d6,
875,
877,
8a4,
8d4,
8d5,
876,
877,
8a6,
875,
876,
877,
8a6,
8d5,
8d9,
878,
8a9,
879,
87a,
8aa,
8da,
879,
87a,
8aa,
8da,
87b,
8d9,
8db,
87c,
8ad,
8dc,
8dd,
87d,
87e,
8ac,
8ad,
87d,
87e,
87f,
880,
8ac,
8ad,
87e,
87f,
881,
8ad,
8b0,
8b1,
8dd,
87e,
880,
881,
87f,
880,
881,
883,
882,
883,
8b0,
8b1,
8e3,
881,
882,
883,
885,
8b1,
8b5,
8e4,
8e5,
884,
8b4,
8e4,
883,
885,
886,
8b5,
8b7,
8e5,
8e6,
8e7,
885,
886,
8b5,
8b7,
8b8,
8e5,
8e6,
8e7,
8e8,
859,
887,
888,
889,
8e7,
859,
887,
888,
889,
8e7,
8e8,
887,
888,
889,
88a,
8b7,
8b8,
8e7,
8e8,
889,
88a,
8b8,
8bc,
8e8,
88b,
8b9,
8e9,
8eb,
88c,
88d,
88e,
8be,
8ec,
88c,
88d,
8bc,
8bd,
8be,
8ec,
8ef,
88c,
88e,
8ec,
8ef,
8f0,
85f,
88f,
8bf,
82f,
830,
860,
890,
891,
8c0,
8c1,
8c2,
830,
831,
860,
861,
890,
891,
892,
893,
8c1,
8c2,
831,
891,
892,
893,
8f4,
891,
892,
893,
8c2,
8f4,
894,
8c5,
895,
8c5,
866,
896,
897,
898,
8c6,
8c7,
8c8,
837,
838,
839,
867,
868,
869,
896,
897,
898,
899,
8c6,
8c7,
8c8,
8c9,
8f9,
837,
838,
839,
83a,
867,
868,
869,
86a,
896,
897,
898,
899,
89a,
8c6,
8c7,
8c8,
8c9,
8ca,
8f9,
8fa,
837,
838,
839,
83a,
867,
868,
869,
86a,
86b,
897,
898,
899,
89a,
89b,
8c7,
8c8,
8c9,
8ca,
8cb,
8f9,
8fa,
8fb,
838,
839,
83a,
868,
869,
86a,
86b,
86c,
898,
899,
89a,
89b,
89c,
8c8,
8c9,
8cc,
8f9,
8fa,
8fb,
8fc,
839,
83a,
83d,
869,
86a,
86b,
86c,
86d,
899,
89a,
89b,
89c,
89d,
8cd,
8f9,
8fa,
8fb,
8fc,
8fd,
83a,
83b,
83c,
83d,
83e,
86a,
86b,
86c,
86d,
86e,
89a,
89b,
89c,
89d,
89e,
8cd,
8ce,
8fa,
8fb,
8fc,
8fd,
8fe,
83b,
83c,
83d,
83e,
83f,
86b,
86c,
86d,
86e,
86f,
89b,
89c,
89d,
89e,
89f,
8cd,
8ce,
8cf,
8fb,
8fc,
8fd,
8fe,
8ff,
83c,
83d,
83e,
83f,
86c,
86d,
86e,
86f,
89c,
89d,
89e,
89f,
8cd,
8ce,
8cf,
8fc,
8fd,
8fe,
8ff,
83d,
83e,
83f,
86d,
86e,
86f,
89d,
89e,
89f,
8cd,
8ce,
8cf,
8fd,
840,
870,
8a0,
8d0,
841,
8a1,
8a2,
8d3,
841,
842,
871,
874,
8a1,
8a2,
8a3,
841,
842,
871,
872,
873,
874,
8a2,
8a3,
875,
8a4,
8d2,
8d4,
8a5,
876,
877,
8a6,
8a7,
8d6,
8d8,
8a8,
878,
8a9,
879,
87a,
8aa,
8da,
8ab,
8d9,
87d,
87e,
8ac,
8ad,
87c,
87d,
87e,
87f,
8ac,
8ad,
8dc,
8dd,
8ae,
8af,
8b0,
8dd,
8de,
8ae,
8af,
8de,
8e1,
87f,
882,
8ae,
8b0,
8b1,
8e2,
87f,
882,
883,
8b0,
8b1,
8b2,
8b3,
8e1,
8e2,
8e3,
8b2,
8b3,
8e1,
8e2,
8e3,
8e5,
884,
8b4,
8e4,
883,
885,
886,
8b5,
8b7,
8e4,
8e5,
8e7,
8b6,
8e6,
885,
886,
889,
8b5,
8b7,
8b8,
8e5,
8e6,
8e7,
8e8,
886,
889,
88a,
8b7,
8b8,
8e6,
8e8,
88b,
8b9,
8bb,
8e9,
8ea,
8eb,
8b9,
8ba,
8bb,
8ea,
8b9,
8ba,
8bb,
8ea,
88a,
88d,
8bc,
8bd,
8be,
8ed,
8ee,
88d,
8bc,
8bd,
8be,
8ed,
8ee,
88c,
88d,
8bc,
8bd,
8be,
8ec,
8ef,
88f,
8bf,
8f1,
890,
8c0,
8c1,
8c2,
890,
891,
8c0,
8c1,
8c2,
8c3,
890,
891,
893,
8c0,
8c1,
8c2,
8c3,
8f4,
8c1,
8c2,
8c3,
8f5,
894,
895,
8c5,
896,
897,
898,
8c6,
8c7,
8c8,
8f8,
896,
897,
898,
899,
8c6,
8c7,
8c8,
8f8,
8f9,
86a,
896,
897,
898,
899,
89a,
8c6,
8c7,
8c8,
8c9,
8ca,
8f9,
8fa,
867,
868,
869,
86a,
86b,
897,
898,
899,
89a,
8c8,
8c9,
8ca,
8cb,
8fa,
8fb,
868,
869,
86a,
86b,
86c,
898,
899,
8c8,
8c9,
8ca,
8cb,
8cc,
8fa,
8fb,
869,
86a,
86b,
86c,
86d,
899,
8c9,
8ca,
8cb,
8cc,
8cd,
8fa,
86a,
86b,
86c,
86d,
86e,
89a,
8ca,
8cb,
8cc,
8cd,
8ce,
8fa,
8fb,
8fc,
86b,
86c,
86d,
86e,
86f,
89b,
89c,
89d,
89e,
89f,
8cb,
8cc,
8cd,
8ce,
8cf,
8fb,
8fc,
8fd,
86c,
86d,
86e,
86f,
89c,
89d,
89e,
89f,
8cc,
8cd,
8ce,
8cf,
8fc,
8fd,
8fe,
8ff,
86d,
86e,
86f,
89d,
89e,
89f,
8cd,
8ce,
8cf,
8fd,
8fe,
870,
8a0,
8d0,
870,
8d1,
8d2,
8a4,
8d1,
8d2,
8d3,
8d4,
874,
8a1,
8d2,
8d3,
875,
8a4,
8d2,
8d4,
8d5,
875,
877,
8d5,
874,
8a7,
8d6,
8d7,
8d8,
8d6,
8d7,
8a7,
8d6,
8d8,
877,
87b,
8ab,
8d9,
879,
87a,
8aa,
8da,
87b,
8db,
87c,
8ad,
8dc,
8dd,
87c,
87f,
8ad,
8ae,
8dc,
8dd,
8ae,
8af,
8de,
8df,
8e0,
8df,
8e0,
8e1,
8af,
8b2,
8b3,
8e0,
8e1,
8e2,
8e3,
8b0,
8b2,
8b3,
8e1,
8e2,
8e3,
882,
8b2,
8b3,
8e1,
8e2,
8e3,
8e5,
883,
884,
8b4,
8b5,
8e4,
883,
885,
886,
8b3,
8b5,
8b7,
8e3,
8e5,
8e6,
8e7,
885,
886,
8b6,
8b7,
8b8,
8e5,
8e6,
885,
886,
887,
888,
889,
8b5,
8e5,
8e7,
8e8,
886,
887,
888,
889,
88a,
8b7,
8b8,
8e7,
8e8,
88b,
8b9,
8e9,
8eb,
8b9,
8ba,
8bb,
8ea,
88b,
8b9,
8e9,
8eb,
88c,
88d,
88e,
8be,
8ec,
88d,
8bc,
8bd,
8ed,
8ee,
88d,
8bc,
8bd,
8ed,
8ee,
88d,
88e,
8be,
8ef,
8f0,
88e,
8ef,
8f0,
8bf,
8f1,
8f2,
8f3,
8f2,
8f3,
8f5,
892,
893,
8c2,
8f4,
8c3,
8f3,
8f5,
8f6,
8f7,
8f8,
8f6,
8f7,
8f8,
8c6,
8c7,
8f6,
8f7,
8f8,
8f9,
897,
898,
89a,
89b,
8c7,
8c8,
8f8,
8f9,
8fa,
8fb,
898,
899,
89a,
89b,
89c,
8c8,
8c9,
8ca,
8cb,
8cc,
8f9,
8fa,
8fb,
8fc,
899,
89a,
89b,
89c,
89d,
8c9,
8ca,
8cc,
8cd,
8f9,
8fa,
8fb,
8fc,
8fd,
89a,
89b,
89c,
89d,
89e,
8cc,
8cd,
8ce,
8fa,
8fb,
8fc,
8fd,
8fe,
89b,
89c,
89d,
89e,
89f,
8cd,
8ce,
8cf,
8fb,
8fc,
8fd,
8fe,
8ff,
89c,
89d,
89e,
8ce,
8cf,
8fc,
8fd,
8fe,
8ff,
89d,
89e,
8ce,
8fd,
8fe,
8ff;