memory_initialization_radix=16;
memory_initialization_vector=008,
000,
009,
011,
001,
003,
004,
009,
010,
011,
014,
002,
002,
004,
009,
00a,
00d,
011,
013,
014,
003,
002,
003,
00a,
00d,
00e,
013,
014,
004,
006,
005,
005,
006,
00e,
017,
007,
000,
018,
008,
001,
002,
003,
011,
01a,
01b,
009,
003,
004,
010,
013,
014,
00a,
00c,
012,
015,
00b,
00b,
012,
015,
016,
01e,
00c,
003,
004,
00e,
00f,
014,
01b,
01f,
00d,
004,
007,
00d,
014,
017,
01d,
01f,
00e,
00d,
01f,
00f,
002,
00a,
021,
010,
001,
002,
003,
009,
01a,
01b,
022,
023,
011,
00b,
00c,
012,
003,
004,
00a,
021,
013,
002,
003,
004,
00a,
00d,
00e,
01b,
022,
014,
00b,
00c,
016,
01e,
026,
015,
00c,
015,
01e,
026,
016,
007,
00e,
01d,
017,
008,
018,
009,
011,
01b,
01c,
022,
023,
02a,
01a,
00e,
017,
01b,
01c,
023,
01d,
00c,
015,
016,
026,
01e,
00d,
00e,
00f,
01f,
030,
020,
010,
013,
01b,
029,
02a,
031,
021,
011,
014,
01a,
01b,
023,
02a,
031,
034,
022,
01c,
024,
02d,
02e,
033,
025,
015,
016,
01e,
026,
030,
038,
028,
021,
02b,
029,
01a,
01b,
021,
022,
023,
02c,
031,
034,
03a,
03b,
03c,
02a,
029,
02c,
02b,
01b,
02a,
02b,
035,
036,
03c,
02c,
024,
025,
02e,
033,
03e,
02d,
024,
025,
02d,
03e,
02e,
020,
028,
030,
021,
022,
02a,
03a,
031,
033,
032,
024,
025,
02d,
032,
033,
022,
023,
02a,
035,
036,
03a,
03b,
03d,
034,
02c,
034,
036,
037,
03c,
03f,
035,
02c,
034,
035,
037,
03c,
03f,
036,
035,
036,
03d,
03f,
037,
028,
038,
02a,
031,
034,
03b,
03a,
02a,
034,
03a,
03d,
03b,
02a,
02c,
035,
036,
03c,
034,
037,
03b,
03d,
02d,
02e,
03e,
035,
036,
037,
03f;