memory_initialization_radix=16;
memory_initialization_vector=001,
030,
002,
004,
060,
003,
063,
002,
004,
005,
006,
005,
006,
008,
009,
008,
009,
00b,
00a,
038,
068,
009,
00b,
00c,
00b,
00c,
00e,
040,
012,
041,
016,
017,
016,
017,
018,
01a,
048,
019,
048,
018,
01a,
049,
01b,
07a,
01d,
07c,
01f,
04e,
020,
022,
021,
07f,
020,
022,
050,
025,
054,
027,
028,
086,
027,
028,
086,
029,
05a,
02a,
05b,
02b,
08b,
08d,
02d,
02f,
02d,
02f,
001,
030,
067,
00a,
038,
068,
03a,
06b,
03b,
06a,
03d,
06d,
03e,
06f,
070,
00e,
040,
012,
041,
045,
076,
018,
019,
048,
01a,
049,
04a,
078,
04b,
07b,
04c,
07c,
01f,
04e,
022,
050,
052,
080,
081,
021,
050,
052,
080,
081,
025,
054,
029,
05a,
02a,
05b,
05c,
0bd,
0be,
05e,
05f,
08f,
05e,
05f,
08f,
002,
060,
0c0,
061,
0c0,
003,
063,
091,
067,
00a,
038,
068,
03b,
06a,
03a,
06b,
06c,
03d,
06d,
06e,
03e,
06f,
070,
03e,
06f,
070,
072,
073,
075,
045,
076,
016,
04a,
078,
079,
01b,
07a,
04b,
07b,
01d,
04c,
07c,
07e,
021,
07f,
081,
050,
052,
07f,
080,
081,
021,
050,
052,
07f,
080,
081,
084,
027,
028,
086,
087,
02b,
08b,
08c,
08b,
08c,
0bd,
0be,
02b,
08b,
08d,
08e,
08d,
08e,
05e,
08f,
090,
0f0,
0f1,
063,
091,
092,
0c2,
0c1,
06c,
03a,
06b,
07e,
07f,
054,
05c,
08c,
0bd,
0be,
0ed,
05c,
08c,
0bd,
0be,
0ed,
060,
061,
0c0,
0c1,
120,
121,
092,
0c2,
067,
068,
06d,
06e,
073,
072,
075,
078,
079,
07e,
084,
087,
0ed,
14e,
0ee,
0ef,
0ee,
0ef,
090,
0f0,
0f1,
090,
0f0,
0f1,
11f,
17d,
0c1,
120,
150,
0c1,
121,
122,
122,
14d,
14d,
0ed,
14e,
11f,
120,
150,
151,
1b2,
121,
11f,
17d,
180,
182,
1b1,
180,
182,
1ad,
1ae,
1ad,
1ae,
1af,
1de,
1df,
180,
1b1,
151,
1b2,
1e2,
23d,
1dd,
20f,
1af,
1de,
1df,
1af,
1de,
1df,
1e1,
1b2,
1e2,
241,
1b2,
1dd,
23e,
1dd,
20f,
23e,
212,
271,
271,
272,
23d,
20f,
23e,
241,
242,
1e1,
212,
271,
272,
242,
29e,
2ce,
29f,
2fe,
2a2,
29e,
2ce,
2ff,
2d2,
300,
2a2,
29f,
2fe,
2ce,
2ff,
32d,
2d2,
300,
302,
302,
2ff,
32d,
330,
360,
390,
392,
38d,
38d,
35f,
38d,
330,
360,
390,
361,
362,
391,
32d,
35f,
38d,
360,
390,
391,
392,
3c2,
3f2,
362,
392,
3c2,
38d,
3bd,
3bf,
3bd,
3bf,
362,
392,
3c2,
3f2,
361,
3ed,
41e,
3f1,
420,
392,
3c2,
3f2,
450,
47d,
3ed,
41e,
3f1,
420,
3f2,
422,
480,
3c2,
3f2,
3f2,
450,
452,
4b2,
422,
47d,
422,
480,
4b0,
482,
4e0,
452,
4dd,
480,
4b0,
4b2,
4e2,
4b2,
4dd,
482,
4e0,
4e2,
4b2,
50d,
50e,
50d,
50e,
50d,
50e,
541,
570,
541,
570,
572,
5a1,
5d2,
572,
5a1,
5d2,
5d1,
5d0,
630,
5d1,
572,
5a1,
5d2,
62e,
5fd,
62f,
600,
660,
65d,
62d,
68f,
62e,
65e,
5fd,
62f,
5d0,
630,
690,
631,
661,
691,
632,
662,
692,
632,
662,
692,
65d,
68f,
6bf,
62e,
65e,
65f,
65e,
65f,
600,
660,
6c0,
631,
661,
691,
662,
692,
6c2,
68d,
68e,
68d,
68e,
62d,
65d,
68f,
6bf,
6ed,
630,
690,
631,
661,
691,
632,
662,
692,
71d,
65e,
6bd,
6be,
6bd,
6be,
65d,
68f,
6bf,
6ed,
660,
6c0,
6c1,
6f1,
6c2,
6c2,
6ee,
74d,
68f,
6bf,
6ed,
6ee,
74d,
6c1,
6f1,
6f2,
71d,
71d,
71e,
721,
780,
7ad,
71e,
7ae,
6ee,
74d,
71e,
74f,
7ad,
751,
782,
752,
752,
6f2,
782,
7ad,
77d,
77e,
77d,
77e,
721,
780,
7b2,
780,
781,
7b1,
7b2,
751,
782,
751,
782,
74f,
7ad,
7ae,
7af,
7ae,
7af,
780,
781,
7b1,
7b2,
811,
780,
781,
7b1,
7b2,
811,
83d,
80d,
80e,
7dd,
80f,
7de,
7df,
7de,
7df,
7e0,
810,
780,
7e2,
841,
80d,
80e,
80f,
80d,
80e,
80f,
7dd,
80d,
80e,
80f,
7e0,
810,
7b1,
7b2,
811,
812,
842,
871,
875,
87c,
87f,
882,
884,
892,
898,
899,
86d,
899,
83e,
86d,
86e,
89a,
83d,
89b,
89c,
89d,
89e,
83e,
83f,
86e,
89e,
83e,
83f,
86e,
89d,
89e,
840,
870,
7e2,
841,
8a2,
812,
842,
871,
8a3,
876,
8a6,
8a8,
8ab,
8ab,
87e,
8af,
880,
882,
88a,
8bc,
8bd,
88d,
8be,
88f,
8c0,
891,
891,
893,
893,
898,
896,
897,
8c8,
896,
898,
899,
8c8,
8c9,
8ca,
8cb,
899,
8c9,
8cc,
899,
8c9,
8cc,
8cc,
86d,
86e,
86f,
89f,
8cd,
8cf,
83e,
83f,
86d,
86e,
86f,
8ce,
8cf,
86d,
86e,
86f,
89f,
8cd,
8cf,
840,
870,
812,
842,
871,
8a3,
872,
873,
872,
873,
874,
8a2,
875,
876,
8a6,
877,
8d9,
879,
87a,
8aa,
8da,
879,
87a,
8aa,
8da,
87c,
8dc,
87d,
87e,
8ac,
87d,
87e,
880,
8ac,
87f,
8b1,
880,
880,
882,
8b0,
883,
8b1,
8b5,
884,
885,
886,
885,
886,
8b7,
8e5,
889,
8e7,
8e8,
88a,
8b8,
8bc,
88b,
8eb,
88c,
8ec,
88d,
8be,
88f,
890,
8c1,
891,
892,
8f4,
893,
8f4,
896,
898,
8c8,
897,
8c8,
896,
898,
899,
8c8,
898,
899,
89a,
8fa,
8fb,
8fc,
83d,
89b,
89c,
89d,
8f9,
8fd,
83d,
89b,
89c,
89d,
89e,
8fd,
83d,
83f,
89b,
89c,
89d,
89e,
8fc,
8fd,
83d,
83e,
83f,
89c,
89d,
89e,
8fc,
8fd,
86d,
86f,
89f,
8cd,
8cf,
8a0,
8d0,
841,
874,
8a2,
842,
871,
8a3,
8a4,
8d4,
876,
8a6,
8a8,
879,
87a,
8aa,
8da,
8ab,
87d,
87e,
8ac,
8af,
8de,
882,
8b0,
87f,
883,
8b1,
8b2,
8b3,
8e2,
8b2,
8b3,
8e2,
8e3,
883,
8b5,
886,
8b7,
8b8,
8e5,
886,
88a,
8b7,
8b8,
8ba,
8bb,
8ea,
8ba,
8bb,
8ea,
88a,
8bc,
8bd,
8ed,
8ee,
8bc,
8bd,
88d,
8be,
8c0,
890,
8c1,
8c3,
8c1,
8c3,
8c6,
8c7,
8c6,
8c7,
8f9,
896,
897,
898,
8c8,
8fa,
8c9,
8ca,
8cb,
8c9,
8ca,
8cb,
8c9,
8ca,
8cb,
8cc,
86d,
86f,
89f,
8cd,
8cf,
86e,
8ce,
8cf,
8fc,
86d,
86e,
86f,
89f,
8cd,
8ce,
8cf,
8a0,
8d0,
8a4,
8d4,
877,
8d9,
879,
87a,
8aa,
8da,
87c,
8dc,
8af,
8de,
8b2,
8b3,
8e2,
8e3,
8b3,
8e2,
8e3,
886,
8b7,
8e5,
889,
8e7,
889,
8e8,
8ba,
8bb,
8ea,
88b,
8eb,
88c,
8ec,
8bc,
8ed,
8ee,
8bc,
8ed,
8ee,
892,
893,
8f4,
8f6,
8f7,
8f6,
8f7,
89b,
8c7,
8f9,
89a,
8c8,
8fa,
8fb,
8fc,
89a,
8fa,
8fb,
8fc,
89a,
89d,
89e,
8ce,
8fa,
8fb,
8fc,
89b,
89c,
89d,
89e,
8fd,
8fe,
8ff,
8fe,
8ff;