memory_initialization_radix=16;
memory_initialization_vector=0200,
0302,
0706,
0907,
0807,
0202,
0202,
0303,
0302,
0706,
0606,
0404,
0606,
0807,
0808,
0303,
0403,
0906,
0303,
0503,
0908,
0606,
0505,
0404,
0202,
0000,
0804,
0007,
0002,
0603,
0505,
0404,
0202,
0705,
0907,
0005,
0003,
0603,
0404,
0000,
0302,
0303,
0c07,
0302,
0704,
0603,
0504,
0000,
0302,
0504,
0202,
0503,
0907,
0706,
0707,
0503,
0202,
0000,
0504,
0505,
0505,
0404,
0303,
0403;