memory_initialization_radix=16;
memory_initialization_vector=2af993b4,
2af993b4,
36043065,
3effffdf,
3effffdf,
39a8f133,
3836e923,
3efc806f,
2c314db7,
3c13fdc8,
3b8bcff3,
3efc806f,
38c58afb,
3e84457c,
34e0a1f2,
38157015,
3e84457c,
2c8d1242,
2b4f51df,
3e663cf8,
3e84457c,
377cbf16,
3e9c4f89,
3991f530,
3e6000c5,
3324e682,
2dd69dae,
3e2e7427,
3e9c4f89,
3f000000,
3f000000,
3f000000,
3f000000,
3c7a74ef,
3efc162c,
3efc162c,
2aa03b49,
3f000000,
3f000000,
2a603dc1,
3e65b6cd,
352ec5ba,
3d9b8022,
34484ae0,
3eb3223a,
3eb3223a,
38c83f2b,
3a25811f,
3efe005d,
3be7e173,
36787609,
3efe005d,
3eb89c87,
3c58aebd,
3e88017d,
3eb89c87,
3ec6285d,
3e4b799d,
3cdc4c7f,
39849501,
38c89794,
3ec6285d,
3e515c49,
3e16036b,
36652882,
389c561e,
3e638e05,
389c561e,
3e515c49,
3e638e05,
37e899e9,
3ef38939,
3b7155a9,
3c3241a6,
36ee8889,
3b7155a9,
3cf9198c,
3ef38939,
3eefc667,
3d81ccd1,
3eefc667,
2bc98598,
3eb8408c,
3e8f7ee7,
3eb8408c,
33885383,
3ba90f42,
2d09d278,
3dc3426d,
3a8ebc2d,
3ca056c8,
3ee0ef6e,
3940fe38,
3ee0ef6e,
3d0d43ad,
3ef72bc6,
3ef72bc6,
2f195729,
31865314,
3efffacf,
38a62544,
3efffacf,
3aaf6470,
3e77033f,
3e1e6134,
35c6ed81,
3e9a3da3,
37657566,
39848264,
3315b4e6,
3e9a3da3,
3e87097b,
3ccbc6ed,
3e87097b,
3e3c370c,
38b98c5d,
3e87097b,
3912b96c,
3e218eb8,
3ed5905d,
3c00b212,
3ed5905d,
3d700f65,
32e99bd0,
3ef0ff09,
3ef0ff09,
3f000000,
3f000000,
3478d56f,
3a8d3837,
31862e3d,
3633398a,
38907224,
3effb4b0,
2f55c653,
3effb4b0,
37276046,
3eaaaa37,
3494ce69,
33a151af,
3eaaaa37,
3eaaaa37,
38677375,
3deac709,
3edeaabe,
3c7e307c,
3edeaabe,
3efff9dd,
38909937,
37cef33a,
3efff9dd,
3f000000,
3f000000,
3ef76780,
35bc3b47,
2fb952ea,
34d7b78b,
31e8a547,
3d098625,
3ef76780,
3eb8e0b3,
336018e1,
386ffe19,
3da07c9b,
36e882e4,
3cec28ba,
3265cffc,
3e2ea8fd,
3eb8e0b3,
30abc8bb,
33bc2bfb,
2f951ed5,
3ac50499,
3eff9d7c,
3eff9d7c,
3ab829fd,
3e5588ba,
3eca41bd,
3eca41bd,
2caf0ff9,
3f000000,
3f000000,
366014d7,
3effffc9,
3effffc9,
2f4d83c6,
3ef5d360,
3180fefe,
3d08a583,
2d031712,
2f4d83c6,
3a87c358,
39e58b3d,
3ba0cd40,
3550bd3c,
3550bd3c,
3ef5d360,
3f000000,
2db47604,
3f000000,
2da5f563,
300216f1,
2c73e4f2,
39e86481,
34242840,
3effe2f1,
3effe2f1,
3efe2dac,
2f944842,
3be80acf,
2ac13cf8,
380f659d,
3efe2dac,
3dfd48c7,
3b147336,
3c2fd41f,
3edd0324,
3edd0324,
3f000000,
2d54e9c3,
3f000000,
3ef9122c,
34d92b9c,
3cddb99a,
31a7d226,
3ef9122c,
3f000000,
3f000000,
2f681ac1,
3ec6ee67,
2a973c9a,
3e644663,
3ec6ee67,
3e23d590,
3af645e6,
39ba0f53,
303fe67c,
36da1982,
3ead6b24,
3e23d590,
39ba0f53,
3ead6b24,
393907d3,
306ea355,
3e0dfbf3,
2f4f277c,
3c99b947,
3ed7a7a9,
3ed7a7a9,
34521e9a,
37da0243,
3ee441f1,
370b9a0a,
39610603,
3ddd6dda,
3ee441f1,
33c185fb,
3aa23f14,
3effaedf,
30356917,
3effaedf,
3f000000,
3f000000,
3bb33a32,
2f651052,
3eee76a9,
3d811711,
3eee76a9,
35d7557c,
3ed08277,
3deef4be,
3d8cf6b0,
3ed08277,
35fc6e82,
3ef46e84,
3d386de7,
3927ee68,
3ef46e84,
3bd25f75,
3c78d94d,
3efa77dc,
3efa77dc,
387bb42e,
3efffc11,
3efffc11,
3ef62c58,
3d1d3a76,
2bddab2d,
3ef62c58;